unsigned char gen_ppo_tflite[] = {
  0x1c, 0x00, 0x00, 0x00, 0x54, 0x46, 0x4c, 0x33, 0x14, 0x00, 0x20, 0x00,
  0x1c, 0x00, 0x18, 0x00, 0x14, 0x00, 0x10, 0x00, 0x0c, 0x00, 0x00, 0x00,
  0x08, 0x00, 0x04, 0x00, 0x14, 0x00, 0x00, 0x00, 0x1c, 0x00, 0x00, 0x00,
  0x90, 0x00, 0x00, 0x00, 0xe8, 0x00, 0x00, 0x00, 0xb0, 0x35, 0x00, 0x00,
  0xc0, 0x35, 0x00, 0x00, 0x2c, 0x3b, 0x00, 0x00, 0x03, 0x00, 0x00, 0x00,
  0x01, 0x00, 0x00, 0x00, 0x10, 0x00, 0x00, 0x00, 0x00, 0x00, 0x0a, 0x00,
  0x10, 0x00, 0x0c, 0x00, 0x08, 0x00, 0x04, 0x00, 0x0a, 0x00, 0x00, 0x00,
  0x0c, 0x00, 0x00, 0x00, 0x1c, 0x00, 0x00, 0x00, 0x3c, 0x00, 0x00, 0x00,
  0x0f, 0x00, 0x00, 0x00, 0x73, 0x65, 0x72, 0x76, 0x69, 0x6e, 0x67, 0x5f,
  0x64, 0x65, 0x66, 0x61, 0x75, 0x6c, 0x74, 0x00, 0x01, 0x00, 0x00, 0x00,
  0x04, 0x00, 0x00, 0x00, 0x98, 0xff, 0xff, 0xff, 0x09, 0x00, 0x00, 0x00,
  0x04, 0x00, 0x00, 0x00, 0x08, 0x00, 0x00, 0x00, 0x6f, 0x75, 0x74, 0x70,
  0x75, 0x74, 0x5f, 0x30, 0x00, 0x00, 0x00, 0x00, 0x01, 0x00, 0x00, 0x00,
  0x04, 0x00, 0x00, 0x00, 0xf6, 0xca, 0xff, 0xff, 0x04, 0x00, 0x00, 0x00,
  0x06, 0x00, 0x00, 0x00, 0x61, 0x72, 0x67, 0x73, 0x5f, 0x30, 0x00, 0x00,
  0x02, 0x00, 0x00, 0x00, 0x34, 0x00, 0x00, 0x00, 0x04, 0x00, 0x00, 0x00,
  0xdc, 0xff, 0xff, 0xff, 0x0c, 0x00, 0x00, 0x00, 0x04, 0x00, 0x00, 0x00,
  0x13, 0x00, 0x00, 0x00, 0x43, 0x4f, 0x4e, 0x56, 0x45, 0x52, 0x53, 0x49,
  0x4f, 0x4e, 0x5f, 0x4d, 0x45, 0x54, 0x41, 0x44, 0x41, 0x54, 0x41, 0x00,
  0x08, 0x00, 0x0c, 0x00, 0x08, 0x00, 0x04, 0x00, 0x08, 0x00, 0x00, 0x00,
  0x0b, 0x00, 0x00, 0x00, 0x04, 0x00, 0x00, 0x00, 0x13, 0x00, 0x00, 0x00,
  0x6d, 0x69, 0x6e, 0x5f, 0x72, 0x75, 0x6e, 0x74, 0x69, 0x6d, 0x65, 0x5f,
  0x76, 0x65, 0x72, 0x73, 0x69, 0x6f, 0x6e, 0x00, 0x0d, 0x00, 0x00, 0x00,
  0xc4, 0x34, 0x00, 0x00, 0xbc, 0x34, 0x00, 0x00, 0x94, 0x34, 0x00, 0x00,
  0xfc, 0x33, 0x00, 0x00, 0xec, 0x30, 0x00, 0x00, 0xdc, 0x10, 0x00, 0x00,
  0xcc, 0x01, 0x00, 0x00, 0xbc, 0x00, 0x00, 0x00, 0xb4, 0x00, 0x00, 0x00,
  0xac, 0x00, 0x00, 0x00, 0xa4, 0x00, 0x00, 0x00, 0x84, 0x00, 0x00, 0x00,
  0x04, 0x00, 0x00, 0x00, 0x9e, 0xcb, 0xff, 0xff, 0x04, 0x00, 0x00, 0x00,
  0x70, 0x00, 0x00, 0x00, 0x10, 0x00, 0x00, 0x00, 0x00, 0x00, 0x00, 0x00,
  0x08, 0x00, 0x0e, 0x00, 0x08, 0x00, 0x04, 0x00, 0x08, 0x00, 0x00, 0x00,
  0x10, 0x00, 0x00, 0x00, 0x24, 0x00, 0x00, 0x00, 0x00, 0x00, 0x06, 0x00,
  0x08, 0x00, 0x04, 0x00, 0x06, 0x00, 0x00, 0x00, 0x04, 0x00, 0x00, 0x00,
  0x00, 0x00, 0x00, 0x00, 0x0c, 0x00, 0x1c, 0x00, 0x18, 0x00, 0x14, 0x00,
  0x10, 0x00, 0x04, 0x00, 0x0c, 0x00, 0x00, 0x00, 0x65, 0xf3, 0x71, 0x9e,
  0x86, 0x9a, 0xb9, 0x4d, 0x00, 0x00, 0x00, 0x00, 0x01, 0x00, 0x00, 0x00,
  0x02, 0x00, 0x00, 0x00, 0x04, 0x00, 0x00, 0x00, 0x12, 0x00, 0x00, 0x00,
  0x32, 0x2e, 0x32, 0x31, 0x2e, 0x30, 0x2d, 0x64, 0x65, 0x76, 0x32, 0x30,
  0x32, 0x35, 0x30, 0x38, 0x31, 0x38, 0x00, 0x00, 0x1a, 0xcc, 0xff, 0xff,
  0x04, 0x00, 0x00, 0x00, 0x10, 0x00, 0x00, 0x00, 0x32, 0x2e, 0x30, 0x2e,
  0x30, 0x00, 0x00, 0x00, 0x00, 0x00, 0x00, 0x00, 0x00, 0x00, 0x00, 0x00,
  0xb4, 0xc6, 0xff, 0xff, 0xb8, 0xc6, 0xff, 0xff, 0xbc, 0xc6, 0xff, 0xff,
  0x42, 0xcc, 0xff, 0xff, 0x04, 0x00, 0x00, 0x00, 0x00, 0x01, 0x00, 0x00,
  0xa9, 0x56, 0x4f, 0x3e, 0x59, 0x75, 0x04, 0xbd, 0x7e, 0xfb, 0x84, 0xbf,
  0x7a, 0xc7, 0xff, 0x3e, 0xfe, 0x92, 0x00, 0xc0, 0xb6, 0x31, 0x9a, 0xbe,
  0x4b, 0x75, 0x15, 0xbf, 0xe3, 0xc3, 0x0e, 0xbe, 0xa5, 0xa4, 0x85, 0x3e,
  0x98, 0x11, 0x0c, 0xbf, 0x41, 0x6d, 0x2d, 0xbf, 0x5c, 0xaf, 0x59, 0xbe,
  0x93, 0x70, 0x5a, 0xbe, 0xb9, 0x8d, 0x7c, 0x3b, 0xba, 0xfa, 0x0d, 0xbf,
  0xef, 0x5a, 0xef, 0xbd, 0x12, 0xa5, 0xa1, 0xbf, 0x55, 0x07, 0x00, 0xbc,
  0x58, 0x60, 0x78, 0xbf, 0x30, 0x8d, 0xee, 0xbd, 0xb8, 0xbf, 0x76, 0xbf,
  0x7d, 0xa9, 0xe3, 0xbe, 0x14, 0x4b, 0x3d, 0x3f, 0x43, 0xc7, 0xd0, 0x3e,
  0xde, 0xae, 0xab, 0xbe, 0xf9, 0x5d, 0x39, 0x3e, 0xa5, 0x4b, 0xd4, 0x3e,
  0x74, 0x39, 0x92, 0xbf, 0xaf, 0x11, 0x9f, 0xbd, 0x29, 0x45, 0xc8, 0x3d,
  0x38, 0xe3, 0x9c, 0xbe, 0x14, 0xcd, 0xbc, 0xbd, 0xa7, 0x32, 0x56, 0xbd,
  0x83, 0x21, 0xec, 0xbe, 0xc6, 0xf7, 0xbc, 0x3e, 0x88, 0x1b, 0x52, 0xbf,
  0xc9, 0xfa, 0x93, 0xbf, 0xa8, 0xb7, 0x0a, 0xbf, 0x51, 0x08, 0x25, 0xbe,
  0x2d, 0xc1, 0x01, 0xbf, 0x7c, 0x95, 0x3d, 0xbf, 0xd7, 0x7a, 0xa2, 0xbf,
  0xf9, 0xd2, 0x12, 0xbf, 0xa7, 0xd8, 0xab, 0xbf, 0xf9, 0x61, 0xd7, 0xbf,
  0x9f, 0x34, 0x9e, 0x3e, 0x4b, 0x6c, 0x09, 0xbf, 0xd4, 0xee, 0x88, 0x3e,
  0xe8, 0xd6, 0x20, 0xbf, 0xc2, 0xcf, 0xd0, 0xbd, 0xc4, 0xcb, 0xb7, 0xbc,
  0xc0, 0xdb, 0xbe, 0x3e, 0x98, 0x3f, 0x8d, 0xbf, 0x99, 0x57, 0x06, 0xbf,
  0x76, 0x90, 0xfa, 0xbe, 0x48, 0xc4, 0x83, 0x3d, 0x45, 0x6c, 0x99, 0xbd,
  0x1d, 0x89, 0xbc, 0xbf, 0x89, 0x90, 0x62, 0xbf, 0x00, 0x79, 0x2d, 0xbf,
  0x3d, 0x81, 0xd7, 0xbe, 0x59, 0xfb, 0x3d, 0xbc, 0xc8, 0x03, 0xad, 0xbf,
  0x14, 0xa0, 0x00, 0xbf, 0x4e, 0xcd, 0xff, 0xff, 0x04, 0x00, 0x00, 0x00,
  0x00, 0x0f, 0x00, 0x00, 0x71, 0xd9, 0x1a, 0x3f, 0x30, 0xd4, 0x93, 0xbe,
  0x94, 0x7b, 0xb4, 0x3e, 0x57, 0xef, 0x12, 0xbf, 0x5a, 0x1c, 0x17, 0xbd,
  0x7e, 0x76, 0x5c, 0xbf, 0x71, 0xd2, 0x8e, 0xbe, 0xc9, 0x0e, 0x78, 0xbe,
  0x85, 0xe8, 0x26, 0xc0, 0x13, 0x04, 0x87, 0xbe, 0x6c, 0xc0, 0x9f, 0xbf,
  0xf8, 0xb7, 0x13, 0x3e, 0xca, 0x4c, 0x4c, 0xbe, 0xea, 0xca, 0x7d, 0x3d,
  0xb4, 0x32, 0xfe, 0x3c, 0x10, 0xf0, 0xb0, 0xbe, 0xba, 0xa7, 0xfe, 0x3d,
  0x0c, 0x13, 0x9b, 0xbe, 0x9b, 0x21, 0x73, 0x3d, 0xd9, 0x27, 0x51, 0xbf,
  0xaf, 0xa7, 0x22, 0x3f, 0x51, 0x0d, 0xe1, 0xbd, 0x52, 0x4c, 0xe8, 0x3d,
  0xec, 0x98, 0x0c, 0x3f, 0x06, 0x70, 0x70, 0x3e, 0xac, 0x3b, 0x46, 0x3e,
  0xa3, 0x1d, 0xdd, 0x3f, 0x04, 0x97, 0x7f, 0x3b, 0x5b, 0x73, 0x4f, 0x3e,
  0x45, 0x37, 0x10, 0x3d, 0xe6, 0x21, 0x71, 0x3f, 0xfa, 0x88, 0x0d, 0xc0,
  0x8b, 0xc6, 0xe7, 0x3f, 0x06, 0x31, 0xaf, 0x3d, 0xee, 0xf8, 0xa6, 0x3d,
  0x42, 0xa3, 0x56, 0xbe, 0x31, 0xfa, 0x93, 0x3e, 0x54, 0x7d, 0x6d, 0x3d,
  0x41, 0xb9, 0x0b, 0x40, 0x03, 0xfd, 0xed, 0xbd, 0xb4, 0xdb, 0x58, 0x3e,
  0x80, 0x7c, 0x27, 0x3d, 0x23, 0x64, 0x87, 0xbe, 0xff, 0x92, 0x00, 0xbe,
  0xcd, 0x60, 0x22, 0x3f, 0x04, 0xc1, 0x4b, 0xbf, 0xfb, 0x8a, 0x02, 0xbf,
  0x51, 0xc0, 0x13, 0xbf, 0xe9, 0x6d, 0x96, 0xbf, 0x41, 0x37, 0xa2, 0x3f,
  0xb0, 0x24, 0x27, 0xc0, 0x9f, 0xcc, 0xd6, 0xbe, 0xca, 0x33, 0xb6, 0x3e,
  0x04, 0x8b, 0x17, 0x3f, 0x78, 0x7c, 0x2f, 0x3f, 0x4c, 0x3e, 0x87, 0x3e,
  0x37, 0x70, 0x1f, 0xbe, 0xd1, 0xbd, 0xd0, 0x3d, 0xf1, 0x54, 0x29, 0xbf,
  0xa9, 0x54, 0x55, 0xbf, 0x40, 0xef, 0x8a, 0xbf, 0xdf, 0xfa, 0x83, 0xbf,
  0x6e, 0x6d, 0xf2, 0xbe, 0x26, 0xd1, 0xb1, 0xbe, 0xdf, 0x2e, 0x82, 0x3c,
  0x67, 0xd2, 0xdd, 0xbe, 0x0f, 0xdf, 0x6f, 0xbe, 0x76, 0xf4, 0x6c, 0x3e,
  0x9a, 0xb9, 0xa4, 0xbc, 0xfb, 0x3c, 0x13, 0x3e, 0x95, 0x31, 0x60, 0xbf,
  0x0f, 0x60, 0x95, 0x3e, 0x7a, 0xe8, 0xa3, 0x3d, 0xab, 0x40, 0x79, 0xbe,
  0x20, 0xca, 0x28, 0xbe, 0x2d, 0x1c, 0xb1, 0xbe, 0x88, 0xb8, 0x85, 0x3f,
  0x11, 0x7e, 0xa1, 0xbb, 0xa7, 0xb7, 0x1a, 0x3e, 0x57, 0x99, 0xf8, 0x3e,
  0x32, 0xa9, 0x8a, 0x3e, 0x9f, 0xea, 0xae, 0xbe, 0x7c, 0x49, 0xf1, 0x3c,
  0x4e, 0x2c, 0x4e, 0xc0, 0x83, 0x29, 0x19, 0xbe, 0x47, 0x6b, 0xa3, 0xbf,
  0xb9, 0xfc, 0xb9, 0x3e, 0x73, 0x9a, 0xc4, 0x3d, 0x7c, 0xc1, 0x40, 0xbc,
  0x7c, 0x3d, 0x86, 0x3e, 0x4b, 0xf7, 0xcf, 0xbd, 0x53, 0xd9, 0x97, 0x3e,
  0x15, 0x11, 0xa9, 0xbc, 0x0e, 0xb1, 0x3d, 0xbe, 0x77, 0x23, 0x42, 0x3e,
  0xaf, 0xd1, 0x6a, 0x3e, 0xa4, 0x7f, 0x6c, 0xbf, 0x00, 0xbb, 0x8b, 0xbe,
  0x50, 0xc0, 0x8d, 0xc0, 0xf0, 0x91, 0xd3, 0x3c, 0x62, 0xe0, 0x8c, 0xbf,
  0xd6, 0xb9, 0x9a, 0xbd, 0xff, 0xf6, 0x81, 0x3f, 0x06, 0x33, 0x0c, 0x3d,
  0x02, 0xdd, 0xb0, 0xbe, 0x1f, 0x53, 0xdc, 0x3e, 0x6f, 0xed, 0x49, 0x3f,
  0x9e, 0x55, 0x6f, 0x3f, 0x0a, 0x23, 0xd8, 0xbd, 0x62, 0x17, 0xb1, 0xbe,
  0x53, 0x57, 0xab, 0xbe, 0x1e, 0x88, 0x31, 0x3f, 0xfe, 0x9c, 0x60, 0xbd,
  0x11, 0xe0, 0x5d, 0x3d, 0xce, 0xa6, 0x2a, 0xbc, 0xe6, 0x7b, 0xa5, 0x3e,
  0x16, 0xd8, 0x99, 0x3c, 0x0f, 0x10, 0x05, 0xbf, 0x74, 0x51, 0x7a, 0xbe,
  0xf8, 0x65, 0x06, 0x3f, 0x4a, 0x76, 0x91, 0xbf, 0x06, 0xb4, 0x20, 0xbf,
  0x3b, 0x45, 0x1d, 0xbe, 0x82, 0x43, 0x91, 0xbf, 0xd1, 0x44, 0x38, 0xbf,
  0x9a, 0x84, 0x04, 0xc0, 0xed, 0x21, 0x61, 0x3e, 0x3e, 0x14, 0xc1, 0xbe,
  0x26, 0x65, 0x09, 0xc0, 0xdf, 0xc9, 0xb5, 0x3e, 0x98, 0xc8, 0xf3, 0xbe,
  0x8c, 0x28, 0x01, 0xbe, 0x4c, 0x6c, 0x0e, 0x3d, 0x1d, 0x20, 0x54, 0xbd,
  0x54, 0x95, 0xbd, 0x3e, 0xef, 0x73, 0x66, 0xbf, 0x53, 0xad, 0x9e, 0xbe,
  0xad, 0x15, 0x6f, 0xbf, 0x83, 0x8f, 0x7c, 0x3e, 0x0c, 0xba, 0xf9, 0xbe,
  0x8f, 0x5a, 0xd7, 0xbf, 0xee, 0x75, 0x73, 0x3e, 0x97, 0x18, 0xb4, 0xbb,
  0xef, 0x1b, 0x71, 0x3e, 0x75, 0xad, 0xab, 0xbf, 0x0d, 0xad, 0x50, 0x3e,
  0x01, 0x64, 0xa5, 0xbd, 0x34, 0xb6, 0x97, 0xbe, 0xc5, 0x22, 0x89, 0x3e,
  0x42, 0xcb, 0x75, 0xbe, 0x5a, 0xa0, 0x65, 0x3e, 0x26, 0xe2, 0x1f, 0x3f,
  0xe0, 0xe8, 0x7a, 0x3f, 0x5b, 0x39, 0x05, 0x3e, 0x94, 0x43, 0x82, 0xbd,
  0x0f, 0x13, 0x18, 0x3e, 0x02, 0x78, 0xd0, 0x3e, 0x8e, 0xe7, 0xe0, 0x3e,
  0xb7, 0xf0, 0x8e, 0xbe, 0xf3, 0x9f, 0x5b, 0xbf, 0xab, 0x35, 0xb3, 0xbe,
  0x51, 0x70, 0xb7, 0xbf, 0x4d, 0x06, 0x92, 0xbe, 0x84, 0x96, 0x34, 0xbe,
  0xb4, 0x37, 0xa1, 0x3f, 0x15, 0x4e, 0x74, 0xbd, 0x7f, 0x44, 0xfe, 0x3e,
  0x81, 0x04, 0x24, 0xbe, 0xa6, 0x5b, 0x5b, 0xbe, 0xc5, 0x12, 0x07, 0xbf,
  0x88, 0x32, 0xa3, 0x3f, 0x56, 0xa7, 0x64, 0x3e, 0x80, 0x5c, 0x12, 0x3f,
  0xea, 0x2f, 0x5a, 0xc0, 0x9a, 0x04, 0x76, 0xbd, 0x33, 0x9b, 0x06, 0xbf,
  0xea, 0x0b, 0x2b, 0x3f, 0x0f, 0xd6, 0xc6, 0x3e, 0xfd, 0xa1, 0x90, 0xbe,
  0x77, 0x51, 0xdf, 0x3c, 0x50, 0x55, 0x37, 0x3e, 0x22, 0x53, 0x74, 0xc0,
  0x7f, 0x00, 0xc2, 0xbe, 0xb2, 0x14, 0x6a, 0x3f, 0xa1, 0x7a, 0x1c, 0x3e,
  0x6a, 0xec, 0x9a, 0xbf, 0xe2, 0x59, 0x71, 0xbd, 0x98, 0xd9, 0xc0, 0xbd,
  0x83, 0xb5, 0xad, 0x3f, 0xb1, 0xa2, 0xa1, 0x3d, 0x18, 0x57, 0x3f, 0x3f,
  0xbf, 0xee, 0x59, 0x3e, 0xd7, 0x26, 0x56, 0xbe, 0x06, 0x65, 0x93, 0xbd,
  0x07, 0xd0, 0x7b, 0x3d, 0xa5, 0x34, 0x32, 0xbc, 0x2b, 0xbc, 0x13, 0xbc,
  0x02, 0x5a, 0x0e, 0x3d, 0x6e, 0x6b, 0xea, 0xbc, 0xdd, 0x2b, 0x9d, 0xbd,
  0x73, 0x9b, 0xa9, 0x3d, 0xe0, 0xc3, 0xaa, 0x3d, 0x3a, 0xb5, 0x0a, 0xbd,
  0x07, 0x83, 0x7e, 0xbe, 0xf3, 0x3b, 0xf9, 0x3d, 0x6e, 0xa0, 0x02, 0x3e,
  0xa1, 0xc2, 0x6b, 0x3c, 0xf0, 0xb3, 0x32, 0xbd, 0x7d, 0xca, 0x2a, 0x3c,
  0x2f, 0x30, 0xb1, 0x3c, 0x09, 0x3b, 0x24, 0xbf, 0x94, 0x17, 0xd6, 0xbe,
  0x42, 0x6d, 0x06, 0x3e, 0x4c, 0xba, 0xb8, 0x3e, 0xb4, 0x69, 0x03, 0xbf,
  0xa5, 0x4e, 0x90, 0x3f, 0x45, 0xab, 0x6f, 0x3e, 0x02, 0xf0, 0xd9, 0x3e,
  0x25, 0x87, 0x86, 0x3f, 0x0a, 0x67, 0xa7, 0x3e, 0x8e, 0xb2, 0xf2, 0xbc,
  0x5d, 0x6f, 0x2c, 0x3f, 0x3b, 0x00, 0x35, 0xbe, 0x92, 0x93, 0x37, 0x3e,
  0x73, 0xd0, 0x3c, 0x3f, 0x32, 0x90, 0x39, 0x3c, 0x50, 0x6e, 0x1b, 0x3e,
  0xed, 0x11, 0xa2, 0xbe, 0x84, 0xd1, 0x5e, 0xbf, 0x5f, 0xe5, 0x24, 0x3d,
  0x24, 0x18, 0x9b, 0x3f, 0xf8, 0xe1, 0x01, 0x3e, 0x81, 0x9d, 0x80, 0x3f,
  0xe6, 0x7d, 0xc7, 0x3d, 0x4d, 0x70, 0xb7, 0xbe, 0x7a, 0x7c, 0xfb, 0xbe,
  0x21, 0x9e, 0xb3, 0xbc, 0x78, 0xe3, 0x99, 0x3e, 0xd9, 0xf1, 0x76, 0xbe,
  0xc5, 0xad, 0x52, 0xbf, 0x2a, 0x65, 0x28, 0xbf, 0xca, 0xf6, 0x5b, 0xbf,
  0xc6, 0x5b, 0x3a, 0xbf, 0x2c, 0x52, 0xa3, 0xbf, 0x46, 0xa5, 0x9d, 0x3f,
  0x4d, 0xc1, 0x70, 0x3f, 0x62, 0x0f, 0xa7, 0xbf, 0x0c, 0x41, 0x7f, 0xbd,
  0xda, 0xf5, 0x87, 0xbd, 0x17, 0x53, 0x61, 0x3e, 0xcd, 0xbc, 0x0f, 0xbe,
  0x0a, 0x1b, 0xd5, 0xbd, 0xce, 0xc8, 0x0b, 0xbf, 0x44, 0xe1, 0xcb, 0xbe,
  0xbc, 0xa4, 0x14, 0xbf, 0xd5, 0xf0, 0x7a, 0xbf, 0xa1, 0x17, 0x33, 0xbf,
  0xce, 0x5f, 0x59, 0xbf, 0xe5, 0x3f, 0xb2, 0xbe, 0x6f, 0xf8, 0x90, 0x3e,
  0x03, 0xdb, 0x4c, 0xbe, 0x7f, 0x10, 0x0b, 0xbe, 0xa2, 0xb2, 0x11, 0x3f,
  0xfc, 0x29, 0x98, 0xbf, 0x00, 0x27, 0x87, 0x3d, 0xa4, 0x03, 0x56, 0x3e,
  0xfe, 0x4e, 0x87, 0xbe, 0x41, 0x65, 0xd2, 0xbe, 0x79, 0xd0, 0x49, 0xbe,
  0xa5, 0x3c, 0xcc, 0x3e, 0xbe, 0x97, 0xd5, 0x3f, 0x35, 0xda, 0xb2, 0x3f,
  0xc5, 0x07, 0xdd, 0x3f, 0x04, 0x3f, 0xe3, 0xbf, 0x6d, 0x67, 0x20, 0x3f,
  0x0f, 0x0e, 0x11, 0xbe, 0x12, 0x7d, 0x03, 0xbf, 0xa2, 0xfd, 0xbd, 0xbe,
  0x65, 0x0a, 0x1c, 0x3f, 0x9f, 0x48, 0x41, 0xbf, 0x8d, 0x56, 0x9d, 0xbd,
  0x83, 0x07, 0xac, 0xbe, 0x97, 0x03, 0xb9, 0x3d, 0x64, 0xb6, 0xf7, 0xbd,
  0xc0, 0x78, 0x04, 0xbe, 0x07, 0x47, 0x9d, 0x3e, 0xb5, 0x02, 0xc3, 0xbe,
  0x50, 0xca, 0x7d, 0xbf, 0xc5, 0x7f, 0x4a, 0xbc, 0xfe, 0xb8, 0x30, 0x3f,
  0x2e, 0x08, 0xfd, 0xbf, 0x74, 0x1d, 0xbe, 0x3e, 0xf5, 0x27, 0x68, 0x3d,
  0xe3, 0xa9, 0xc6, 0x3f, 0x29, 0xe5, 0x84, 0xbf, 0x18, 0x5e, 0x3f, 0x3e,
  0x07, 0xde, 0xd2, 0x3d, 0xb3, 0xe8, 0xcc, 0x3d, 0x22, 0xc6, 0xc2, 0xbe,
  0x45, 0x73, 0x2f, 0x3f, 0xf8, 0x2a, 0xe4, 0xbe, 0x7f, 0x0d, 0x78, 0x3e,
  0xac, 0xfe, 0xae, 0xbd, 0x06, 0x40, 0x34, 0x3f, 0x9f, 0x49, 0x91, 0x3e,
  0xb0, 0xf2, 0x97, 0xbf, 0x66, 0xc6, 0xad, 0xbd, 0xa4, 0x77, 0x0f, 0x3d,
  0x37, 0xd1, 0xb7, 0x3f, 0xfb, 0x6c, 0x71, 0x3e, 0x7a, 0x24, 0xc6, 0xbe,
  0xf2, 0x9c, 0x94, 0xbe, 0x60, 0x4e, 0x39, 0x3b, 0x63, 0xd8, 0xdd, 0x3e,
  0x63, 0xf0, 0x1d, 0xbf, 0xdf, 0x67, 0xb9, 0xbd, 0xc5, 0x33, 0x8f, 0xbe,
  0x80, 0x91, 0x4f, 0xbf, 0x25, 0x90, 0xc1, 0x3c, 0x7e, 0x93, 0xa7, 0xbe,
  0xa5, 0xff, 0xd0, 0xbe, 0xb0, 0xcb, 0xbd, 0x3e, 0x4d, 0x25, 0xf8, 0x3e,
  0xec, 0x37, 0x07, 0xc0, 0x57, 0x59, 0xa4, 0xbe, 0xac, 0xa6, 0x6c, 0xbf,
  0x47, 0x4a, 0xa0, 0x3e, 0x0a, 0x56, 0x68, 0x3e, 0x35, 0xc1, 0x9a, 0xbe,
  0x47, 0xd1, 0xd2, 0x3c, 0x16, 0xd0, 0xbd, 0xbf, 0x20, 0x24, 0xbf, 0xbf,
  0xcd, 0xd5, 0x05, 0xc0, 0x19, 0xd9, 0x3d, 0xbf, 0xbb, 0x28, 0xa9, 0x3d,
  0x66, 0x3f, 0x18, 0x3f, 0xf9, 0x9f, 0x0a, 0x3e, 0x59, 0x71, 0x0e, 0xbe,
  0x45, 0xce, 0xfa, 0xbe, 0xb9, 0xfb, 0xae, 0x3e, 0x9f, 0x6d, 0xb2, 0x3e,
  0x94, 0x68, 0x31, 0x3f, 0x0c, 0x6e, 0x50, 0x3e, 0x03, 0xa6, 0x26, 0xbf,
  0x10, 0x97, 0x4b, 0xbe, 0xd4, 0xf8, 0x74, 0xbf, 0xd1, 0x2d, 0x11, 0xbf,
  0xd7, 0xfe, 0xaf, 0xbf, 0x6d, 0xa5, 0x07, 0xbf, 0x0c, 0x14, 0x20, 0xbf,
  0x5b, 0x79, 0xb9, 0x3f, 0x40, 0xa1, 0x03, 0xbd, 0x13, 0x66, 0xbf, 0x3d,
  0xf3, 0x31, 0x53, 0xbf, 0xeb, 0x54, 0x2f, 0xbd, 0xcc, 0x9a, 0x93, 0xbe,
  0x79, 0xc1, 0x40, 0x3f, 0xc2, 0x94, 0x76, 0x3d, 0x60, 0x3d, 0x96, 0x3c,
  0xbe, 0x5f, 0x3b, 0x3f, 0xf0, 0x5b, 0xd6, 0xbe, 0xa9, 0xe0, 0xd7, 0xbd,
  0x7f, 0xf7, 0x58, 0xbe, 0x22, 0xa5, 0x7d, 0x3e, 0xde, 0x1e, 0x02, 0x3e,
  0x68, 0xe4, 0x6d, 0x40, 0x9b, 0x30, 0x05, 0xbf, 0x87, 0x5b, 0x99, 0x3e,
  0xa1, 0x89, 0x9f, 0x3f, 0x94, 0xde, 0x8a, 0x3e, 0x8d, 0x10, 0x27, 0x3f,
  0x05, 0x64, 0x8e, 0x3e, 0x16, 0x67, 0x4c, 0xbe, 0xeb, 0x23, 0x00, 0x3c,
  0x3c, 0x67, 0xda, 0xbd, 0xc2, 0x67, 0x7b, 0xbf, 0x8e, 0x7a, 0x80, 0xbf,
  0x61, 0x5c, 0x04, 0x3f, 0x29, 0x78, 0x0d, 0xbf, 0x17, 0x2c, 0xc6, 0xbe,
  0xa4, 0x44, 0x7d, 0xbf, 0xc2, 0xf1, 0x50, 0x3e, 0x9d, 0x1f, 0xc4, 0x3d,
  0x49, 0x6d, 0x21, 0x3e, 0x22, 0x8f, 0xc3, 0x3e, 0x30, 0x09, 0xce, 0x3d,
  0xc9, 0x23, 0xef, 0x3e, 0x83, 0xd0, 0x96, 0xbe, 0x38, 0xf3, 0x2a, 0xbc,
  0xff, 0xbd, 0x08, 0x3d, 0xc8, 0x57, 0x1a, 0xbf, 0x71, 0xa4, 0xf9, 0xbe,
  0xf2, 0xbb, 0x12, 0xbe, 0x24, 0x82, 0x72, 0xbf, 0x93, 0x0d, 0xa5, 0xbf,
  0xbf, 0x10, 0xe6, 0xbf, 0xc2, 0xf0, 0x70, 0x3f, 0x57, 0xda, 0x55, 0x3b,
  0x7b, 0x87, 0xa7, 0x3d, 0x90, 0xc5, 0x19, 0xbf, 0xdd, 0x76, 0x36, 0xbd,
  0xf6, 0x62, 0x13, 0xbe, 0xf8, 0xdd, 0x56, 0xbe, 0x87, 0x29, 0x2c, 0xbe,
  0x94, 0x06, 0x8a, 0x3f, 0x05, 0xcb, 0x4e, 0x3f, 0x95, 0xb0, 0x25, 0xbf,
  0x4f, 0x92, 0xcc, 0xbf, 0x8d, 0xd7, 0x19, 0x3e, 0x09, 0xa3, 0x12, 0x3e,
  0xcb, 0x63, 0xec, 0x3d, 0x43, 0xff, 0xe8, 0xbc, 0x82, 0x29, 0x64, 0x3e,
  0x6c, 0xc9, 0x80, 0xbf, 0x39, 0x42, 0x51, 0xbf, 0xa8, 0x77, 0x3d, 0xbf,
  0x80, 0xb9, 0x1e, 0x3e, 0x38, 0xf8, 0xfd, 0x3d, 0x1f, 0x85, 0x15, 0x3f,
  0xef, 0xf1, 0xff, 0x3e, 0x03, 0xce, 0x34, 0xc0, 0x8a, 0x9c, 0x25, 0x3f,
  0xd3, 0x61, 0x95, 0x3f, 0xa1, 0xd8, 0xe7, 0x3e, 0x7d, 0xce, 0x9b, 0x3d,
  0x2d, 0x73, 0xf6, 0x3d, 0xd2, 0x87, 0x1a, 0xbf, 0x88, 0x9f, 0xac, 0xbe,
  0x7b, 0x29, 0x95, 0x3e, 0x6b, 0x53, 0x88, 0x3e, 0x75, 0x98, 0x45, 0x3c,
  0x8a, 0xc5, 0xa1, 0xbe, 0xf5, 0x5b, 0x8d, 0x3d, 0x37, 0xa3, 0x44, 0xbe,
  0x0a, 0x16, 0xe3, 0x3d, 0xf5, 0x96, 0x8b, 0x3e, 0x1b, 0x01, 0x3a, 0x3e,
  0xfe, 0x02, 0x89, 0xbf, 0x1b, 0xda, 0x33, 0x3e, 0xff, 0x50, 0x87, 0xbe,
  0xd0, 0x74, 0x3c, 0xc0, 0x7a, 0x8e, 0xff, 0x3e, 0x6b, 0x13, 0xd1, 0x3e,
  0xae, 0x82, 0xfd, 0x3e, 0x75, 0xec, 0x2b, 0xbf, 0xfa, 0x75, 0x0a, 0xbf,
  0xfc, 0xbc, 0xfb, 0x3e, 0x7d, 0x12, 0xb6, 0xbe, 0x81, 0x5f, 0x81, 0xbf,
  0x76, 0x73, 0x65, 0xbe, 0xb1, 0x4d, 0x1d, 0xc0, 0x1e, 0x08, 0xa2, 0xbe,
  0x91, 0xed, 0x40, 0xbe, 0x16, 0x95, 0x19, 0x3e, 0x7d, 0xb8, 0xd4, 0xbb,
  0x48, 0x32, 0x94, 0x40, 0x96, 0xd9, 0xd7, 0x3d, 0x31, 0xdd, 0xf9, 0x3e,
  0x20, 0x5c, 0xe6, 0x3e, 0x91, 0x9b, 0xe5, 0x3f, 0x2f, 0x98, 0xc1, 0xbd,
  0x56, 0x73, 0x36, 0xbe, 0x58, 0xb7, 0x0f, 0x3e, 0x48, 0x81, 0x2f, 0x3f,
  0x0e, 0x0f, 0x95, 0xbe, 0x85, 0x0b, 0x14, 0xbe, 0x49, 0x17, 0x99, 0xbf,
  0x67, 0xf3, 0x36, 0xbe, 0x20, 0xdc, 0xa5, 0xbf, 0x48, 0x2e, 0x9c, 0xbe,
  0x09, 0xc7, 0x3f, 0xc0, 0xda, 0xce, 0xfc, 0xbc, 0xb8, 0xbe, 0x61, 0xbf,
  0x2c, 0x38, 0xe8, 0x3f, 0x3f, 0x2a, 0x17, 0xbf, 0xcf, 0x90, 0x1e, 0x3f,
  0xfa, 0xd5, 0x58, 0xbf, 0xc2, 0x15, 0x1e, 0xbf, 0xec, 0x72, 0xc0, 0xbc,
  0x06, 0x9f, 0x82, 0x3e, 0xf1, 0xf2, 0xa2, 0x3f, 0x07, 0xfd, 0x2e, 0x3f,
  0xf2, 0xea, 0xdd, 0xbf, 0x00, 0x46, 0x3d, 0x3e, 0x41, 0x73, 0x4e, 0xbd,
  0x8c, 0x85, 0xcc, 0xbd, 0xca, 0xf9, 0x16, 0x3d, 0x4d, 0x27, 0x03, 0xbe,
  0xd5, 0xc1, 0xbe, 0xbe, 0xc2, 0x12, 0x8c, 0xbe, 0x94, 0x84, 0x68, 0x3d,
  0xfa, 0x6f, 0x9f, 0x3f, 0x62, 0x37, 0x1a, 0xbe, 0xa2, 0x0d, 0x82, 0x3e,
  0x35, 0xd3, 0x4c, 0x3e, 0x94, 0x8c, 0x94, 0xbf, 0x17, 0xd1, 0xeb, 0xbc,
  0x96, 0x91, 0xd9, 0xbf, 0xaa, 0xd3, 0x23, 0x3f, 0xde, 0x2e, 0xd3, 0x3e,
  0xe6, 0x9b, 0x3b, 0xbf, 0x09, 0x03, 0x81, 0xbe, 0xb7, 0xae, 0x17, 0x3e,
  0xe0, 0xb2, 0x49, 0x3f, 0x06, 0x20, 0x42, 0xbe, 0xaf, 0x65, 0x90, 0xbe,
  0x9f, 0x3f, 0x01, 0x3f, 0x90, 0xb9, 0x28, 0xbe, 0x64, 0x60, 0xfb, 0xbd,
  0xd3, 0x68, 0x2e, 0xbf, 0xf4, 0xfb, 0x2d, 0xbf, 0x58, 0xed, 0x80, 0xbf,
  0xe5, 0x6c, 0x64, 0xbf, 0xcd, 0x46, 0xbe, 0xbe, 0x58, 0x21, 0xe8, 0x3e,
  0x13, 0x61, 0x39, 0x40, 0x8d, 0x48, 0x32, 0x3e, 0xb5, 0x3c, 0xa4, 0x3e,
  0xf5, 0x4e, 0x46, 0x3f, 0x94, 0x0a, 0x80, 0x3d, 0xf7, 0xca, 0x9a, 0x3e,
  0x6c, 0x16, 0x50, 0x3f, 0x28, 0xe1, 0x7d, 0x3e, 0xdf, 0xa0, 0xc2, 0x3e,
  0xaa, 0x46, 0x0e, 0xbf, 0x9f, 0xe9, 0xc7, 0xbe, 0x32, 0x3a, 0x29, 0x3d,
  0x1f, 0xa2, 0x2d, 0xbf, 0xeb, 0xba, 0x9e, 0xbf, 0x6b, 0xac, 0x8d, 0x3f,
  0x45, 0xcb, 0x0d, 0xc0, 0x3d, 0x43, 0x01, 0xbf, 0x30, 0x79, 0x06, 0xbf,
  0x39, 0xde, 0xd5, 0xbe, 0x15, 0x31, 0x94, 0xbe, 0x8e, 0xcb, 0xbc, 0xbe,
  0xb6, 0xd8, 0x1b, 0xbe, 0x8e, 0x2d, 0x3c, 0x3f, 0x32, 0xba, 0x8d, 0xbe,
  0x28, 0x91, 0x83, 0xbf, 0x07, 0xc1, 0x27, 0x3e, 0xc6, 0xb4, 0x7a, 0xbd,
  0x5e, 0x98, 0x2b, 0xbe, 0xf4, 0x88, 0x15, 0x3f, 0x61, 0x4b, 0x74, 0x3f,
  0xb3, 0x91, 0xb5, 0x3f, 0x1e, 0x75, 0x81, 0xbf, 0xf5, 0xe2, 0x80, 0x3e,
  0x2e, 0x2d, 0x44, 0x3f, 0x10, 0x9a, 0xd8, 0xbe, 0xab, 0xae, 0x95, 0xbe,
  0x47, 0x57, 0x8a, 0x3e, 0xb5, 0x31, 0x2d, 0x3e, 0xea, 0xfc, 0xe9, 0x3d,
  0x8a, 0xf7, 0x0c, 0x3f, 0xd6, 0x5a, 0x00, 0x3f, 0x18, 0xcd, 0x14, 0x3f,
  0x8e, 0xfd, 0x2e, 0xbe, 0xb0, 0x2b, 0x0c, 0x3f, 0xaf, 0x0c, 0xc1, 0x3e,
  0x59, 0x28, 0xa5, 0xbf, 0xd1, 0x5c, 0x4c, 0xbf, 0xd8, 0x9e, 0x80, 0x3e,
  0xa0, 0xaa, 0x01, 0xc0, 0x1f, 0x9a, 0x57, 0xbe, 0x86, 0x3a, 0x4c, 0xbf,
  0x1c, 0x23, 0x84, 0x3e, 0x3e, 0x8b, 0x2b, 0x3f, 0x36, 0xfa, 0xba, 0x3e,
  0x78, 0x29, 0xfb, 0x3e, 0x38, 0xf0, 0x05, 0xbe, 0x78, 0xe1, 0x01, 0xc0,
  0x98, 0xee, 0x69, 0xbf, 0x92, 0xb3, 0xcb, 0x3d, 0x96, 0x68, 0x90, 0x3f,
  0x9d, 0x61, 0xca, 0x3e, 0xae, 0x04, 0xe0, 0xbe, 0x9d, 0x7a, 0x39, 0x3f,
  0x79, 0xf3, 0xfc, 0x3f, 0x28, 0xf5, 0xd0, 0x3d, 0x66, 0x4a, 0x88, 0x3f,
  0xbf, 0xee, 0x69, 0x3f, 0x4e, 0xf7, 0xfa, 0xbe, 0x13, 0x81, 0xeb, 0xbe,
  0xf3, 0x56, 0x08, 0x3e, 0xe8, 0x41, 0xcd, 0xbf, 0x46, 0x8d, 0x20, 0xbe,
  0x5f, 0x0c, 0xe6, 0x3e, 0x60, 0x20, 0x9e, 0xbe, 0x8f, 0xad, 0x9c, 0xbe,
  0xbf, 0x18, 0x7d, 0xbe, 0xe1, 0x3b, 0x86, 0xbc, 0x5a, 0xfe, 0x30, 0x3f,
  0x1c, 0x1f, 0xdc, 0xbe, 0x62, 0x93, 0xb3, 0x3e, 0x62, 0x90, 0x32, 0x3e,
  0xfc, 0xec, 0x72, 0x3e, 0x31, 0x0f, 0x02, 0x3d, 0xd6, 0x01, 0x39, 0xbe,
  0x87, 0xd7, 0x93, 0x3f, 0x7b, 0x43, 0x56, 0x3e, 0x15, 0x1c, 0xf1, 0xbf,
  0x1e, 0x12, 0x35, 0xbf, 0xcf, 0x05, 0x1d, 0x3f, 0xba, 0x52, 0x04, 0xbf,
  0x9e, 0x45, 0xc2, 0x3d, 0x41, 0x92, 0x91, 0x3e, 0xdf, 0xab, 0xe0, 0x3d,
  0xf5, 0xb9, 0x45, 0x40, 0xc9, 0x31, 0x9e, 0xbd, 0x3e, 0x07, 0x57, 0x3f,
  0xec, 0xf0, 0xd3, 0x3e, 0xb8, 0x49, 0xdf, 0x3c, 0x45, 0x9a, 0xb8, 0x3e,
  0x45, 0x5a, 0xbf, 0xbe, 0x8d, 0xf9, 0x8a, 0xbf, 0x7a, 0x07, 0xaa, 0x3f,
  0x1a, 0xd1, 0xa3, 0xbf, 0x53, 0x0d, 0xe3, 0xbe, 0x61, 0x4f, 0x2a, 0xbf,
  0x21, 0x71, 0x61, 0x3f, 0xa5, 0x7b, 0xae, 0x3e, 0x9d, 0x30, 0x1d, 0xbe,
  0x15, 0x6d, 0x3e, 0xbf, 0xf5, 0x93, 0x6d, 0x3f, 0x8a, 0x96, 0x01, 0xbf,
  0x80, 0x33, 0xb6, 0x3e, 0xa0, 0x6a, 0xce, 0xbd, 0xdb, 0xbb, 0x41, 0xbe,
  0x52, 0x6e, 0xf9, 0x3c, 0xed, 0x12, 0xf6, 0x3c, 0xa8, 0xc9, 0x14, 0x3e,
  0xda, 0x15, 0x90, 0x3e, 0x44, 0xdd, 0x1a, 0xbf, 0x2a, 0x75, 0x46, 0xbf,
  0x10, 0x70, 0x0b, 0x3f, 0x37, 0x50, 0xf0, 0x3d, 0x4b, 0xb1, 0x30, 0x3f,
  0x9d, 0xc9, 0x0c, 0x3f, 0x35, 0xd5, 0x99, 0xbe, 0x16, 0x8b, 0xdd, 0xbf,
  0x7c, 0xe7, 0xcf, 0xbc, 0x44, 0x3d, 0xec, 0xbe, 0x84, 0xf4, 0x72, 0x3d,
  0x38, 0x02, 0xa9, 0x3e, 0x8f, 0xac, 0x16, 0xbf, 0xaf, 0x22, 0x3f, 0x3f,
  0x41, 0x02, 0xb5, 0x3f, 0x05, 0xdd, 0x8b, 0xbf, 0x4c, 0x36, 0xa8, 0x3d,
  0x1d, 0xbb, 0x1e, 0x3e, 0x2f, 0x70, 0xf7, 0xbe, 0x8d, 0x12, 0x10, 0xbf,
  0x4d, 0x8f, 0x51, 0xbf, 0x73, 0x18, 0x1b, 0x3e, 0x39, 0x8e, 0x9e, 0xbe,
  0x7c, 0x3a, 0xcf, 0xbf, 0xdb, 0x54, 0xba, 0x3c, 0xbc, 0x24, 0x3f, 0x3d,
  0xaa, 0x38, 0x96, 0xbe, 0x3f, 0x34, 0x2d, 0xbf, 0x70, 0x65, 0x46, 0xbe,
  0x6f, 0x1f, 0x1b, 0x3d, 0xe6, 0xbe, 0xe8, 0xbe, 0xd2, 0x2f, 0xf9, 0x3e,
  0x93, 0x03, 0x3d, 0x40, 0x3b, 0xf4, 0x09, 0xbe, 0x80, 0x5f, 0x5a, 0xbf,
  0xc6, 0x62, 0xc6, 0xbf, 0x78, 0x9a, 0xec, 0xbe, 0x8b, 0x0e, 0x76, 0x3d,
  0xec, 0x26, 0x63, 0x3e, 0xf9, 0x83, 0x3c, 0xbe, 0xd6, 0x8b, 0x88, 0xbb,
  0x8f, 0x29, 0xb1, 0x3e, 0xf9, 0x4d, 0x35, 0xc0, 0x1b, 0x7c, 0xa3, 0xbe,
  0xe0, 0xb8, 0xa2, 0xbf, 0x5d, 0x3f, 0xb8, 0xbe, 0x28, 0x2e, 0x37, 0x3d,
  0x54, 0x8a, 0x86, 0x3c, 0xfa, 0x06, 0x54, 0x3e, 0x48, 0xe0, 0x1e, 0xbe,
  0xac, 0x42, 0xba, 0xbe, 0xfa, 0x44, 0x88, 0x3f, 0x2f, 0x3d, 0x21, 0x3e,
  0xc4, 0x2e, 0x3e, 0xbf, 0x91, 0x65, 0x0a, 0xbe, 0xd2, 0xa8, 0x6a, 0xbe,
  0x33, 0xb7, 0xf7, 0x3d, 0xf1, 0xa9, 0x8a, 0x3e, 0x78, 0xd3, 0x84, 0x3f,
  0xfc, 0x25, 0x7f, 0xc0, 0x3f, 0x74, 0xbf, 0x3e, 0xc7, 0x7b, 0x28, 0xbe,
  0x80, 0x53, 0x30, 0xbf, 0x7f, 0x2c, 0x3a, 0x3d, 0xc4, 0x96, 0xa1, 0x3e,
  0xed, 0x94, 0x07, 0xbd, 0x8c, 0x0c, 0x14, 0xbe, 0x9d, 0x7b, 0x9d, 0xbe,
  0x39, 0x10, 0x88, 0x3f, 0x5b, 0xfe, 0x2d, 0x3e, 0x98, 0xd3, 0xec, 0xb9,
  0x0a, 0xf8, 0x7b, 0xbe, 0xbe, 0xab, 0x60, 0x3e, 0x7b, 0xd6, 0x7a, 0xc0,
  0x02, 0xb6, 0xe2, 0x3d, 0x5f, 0xb2, 0x8d, 0xbf, 0xa4, 0x3b, 0x8d, 0xbd,
  0xf5, 0x0b, 0x58, 0xbf, 0x2a, 0x77, 0x95, 0xbe, 0xb4, 0x94, 0x71, 0x3e,
  0xfc, 0x4f, 0xf8, 0x3f, 0x1f, 0x49, 0xd2, 0xbe, 0x89, 0x13, 0xc2, 0x3f,
  0xd2, 0xa5, 0xe4, 0x3e, 0x4b, 0xef, 0x16, 0xbe, 0x64, 0xf2, 0x2d, 0xbe,
  0x68, 0x2d, 0x06, 0x3f, 0x57, 0x48, 0x07, 0x3f, 0x02, 0x60, 0x97, 0xc0,
  0xbf, 0x49, 0x22, 0x3e, 0xf3, 0xba, 0xfc, 0xbe, 0xac, 0xd5, 0xa8, 0x3e,
  0x32, 0xdb, 0x2c, 0x3f, 0x4d, 0xe4, 0x4f, 0xbe, 0xbc, 0x0d, 0x5b, 0x3f,
  0x87, 0xbe, 0x31, 0xbf, 0x19, 0x1a, 0x8b, 0x3e, 0xd8, 0x54, 0x53, 0x3f,
  0x2c, 0x26, 0x2b, 0x3d, 0x57, 0x01, 0xa0, 0x3e, 0xc7, 0x05, 0x56, 0xbd,
  0xe0, 0x01, 0x99, 0xbd, 0x15, 0x81, 0x93, 0x3d, 0xe1, 0xae, 0x6c, 0x3c,
  0xae, 0x3f, 0xc8, 0xbd, 0x12, 0x57, 0x67, 0xbf, 0xd9, 0xf9, 0xf6, 0x3d,
  0xbd, 0xb3, 0x8b, 0xbe, 0x5d, 0x90, 0x20, 0x3e, 0x93, 0xff, 0x89, 0x3f,
  0x8a, 0x99, 0xd1, 0x3d, 0x2d, 0xc3, 0xec, 0xbd, 0x46, 0x1b, 0x2f, 0x3d,
  0x8c, 0xc8, 0x3d, 0x3d, 0xd9, 0x60, 0x13, 0x3e, 0x81, 0x1d, 0xef, 0xbd,
  0xa2, 0xf7, 0x3f, 0xbc, 0x0e, 0xe0, 0x7a, 0x3e, 0xa7, 0x3a, 0x3b, 0x3d,
  0xc5, 0xff, 0x1f, 0xbf, 0xfd, 0x32, 0x19, 0xbd, 0x23, 0x1c, 0xd9, 0x3d,
  0x3e, 0x7c, 0xc5, 0xbe, 0x3d, 0xe2, 0xd0, 0x3e, 0x36, 0x94, 0x65, 0xbd,
  0x08, 0x20, 0xc2, 0x3c, 0x03, 0x88, 0x80, 0x3d, 0x16, 0x7c, 0xe1, 0x3d,
  0xdd, 0x37, 0x7f, 0x3d, 0xad, 0xbe, 0x0a, 0x3d, 0x63, 0x4b, 0x72, 0x3d,
  0x37, 0xc1, 0xd5, 0xbe, 0x06, 0x3c, 0x45, 0xbf, 0x2a, 0xcc, 0x65, 0xbe,
  0xa8, 0xdb, 0x6e, 0xbf, 0x36, 0xed, 0x0e, 0xbf, 0xad, 0x30, 0x86, 0xbf,
  0xb9, 0x00, 0xf2, 0x3f, 0x48, 0x16, 0x14, 0x3f, 0x2b, 0x47, 0x9c, 0x3c,
  0x8b, 0x43, 0xb1, 0x3f, 0xcb, 0x23, 0x3a, 0x3f, 0x79, 0x5e, 0x03, 0x3e,
  0x86, 0x8f, 0x31, 0x3f, 0x98, 0xbb, 0x87, 0xbe, 0x2e, 0x7a, 0x83, 0x3e,
  0x49, 0x5a, 0x8f, 0x3f, 0xe1, 0x6d, 0x8c, 0xbe, 0x9c, 0x23, 0x98, 0xbe,
  0x60, 0x0e, 0x1d, 0xbf, 0x53, 0x38, 0x9d, 0x3f, 0x47, 0x4d, 0x0e, 0x3e,
  0x24, 0x2f, 0x7f, 0xbe, 0x4c, 0x44, 0x30, 0xbe, 0x71, 0xc6, 0x49, 0x3f,
  0x6d, 0xbc, 0x9c, 0xbe, 0xdc, 0xb7, 0x40, 0xbe, 0x72, 0xb0, 0x8b, 0xbe,
  0xb6, 0x13, 0xca, 0x3e, 0x56, 0xaa, 0x30, 0xbd, 0xf0, 0xcd, 0x07, 0xbe,
  0x68, 0x8d, 0x5e, 0xbe, 0x2b, 0x31, 0xe8, 0x3f, 0xff, 0xb0, 0x7e, 0x3f,
  0x42, 0x05, 0x39, 0xbf, 0x44, 0x59, 0xd2, 0x3e, 0x9b, 0x8e, 0xd0, 0xbe,
  0xdc, 0xee, 0xb1, 0xbf, 0x88, 0xfa, 0x8e, 0x3e, 0x9c, 0xcc, 0x3c, 0x3e,
  0x84, 0xbb, 0x42, 0x3f, 0x14, 0x2e, 0x77, 0xbf, 0x74, 0x98, 0xa6, 0xbd,
  0x4e, 0xb4, 0xd4, 0x3e, 0xe0, 0x20, 0x3c, 0xbe, 0x66, 0xa4, 0x77, 0x3e,
  0x08, 0xcf, 0x50, 0x3e, 0x32, 0xc1, 0x0f, 0xbf, 0x85, 0xa0, 0x0f, 0xbf,
  0xbb, 0x40, 0xf9, 0xbe, 0x8b, 0x80, 0x59, 0x3e, 0xb1, 0xfc, 0x57, 0xbf,
  0xc1, 0x70, 0x19, 0x40, 0x7c, 0x1d, 0xa6, 0x3e, 0x57, 0x67, 0x39, 0x3e,
  0x96, 0x0a, 0xbb, 0x3e, 0x7f, 0x5a, 0xa6, 0x3e, 0xac, 0xfd, 0xbc, 0xbd,
  0x78, 0x28, 0x08, 0x3f, 0xe4, 0xd3, 0x27, 0x3f, 0x08, 0xa8, 0x86, 0x3e,
  0x42, 0x6d, 0x19, 0xbe, 0xfb, 0x55, 0x91, 0xbd, 0x5c, 0x01, 0xd5, 0xbe,
  0xb5, 0x52, 0xf9, 0x3d, 0xe6, 0xa8, 0x1f, 0xbb, 0x9f, 0xf7, 0xb4, 0xbe,
  0x76, 0xb2, 0xf1, 0xbe, 0x7b, 0x76, 0x07, 0x3e, 0x99, 0xc9, 0x5a, 0xbe,
  0x1d, 0xe2, 0xa4, 0x3f, 0x3a, 0xfb, 0xf7, 0xbd, 0x70, 0x91, 0x18, 0xbf,
  0xa8, 0x69, 0x70, 0xbd, 0x8f, 0xb1, 0x01, 0xbe, 0x19, 0x9a, 0x84, 0x3e,
  0x40, 0xe4, 0x91, 0x3e, 0x3f, 0xf4, 0x05, 0x3d, 0x73, 0x5f, 0x88, 0xbd,
  0x22, 0x55, 0x15, 0x3d, 0x90, 0xa1, 0x9a, 0x3d, 0xf2, 0xd6, 0x63, 0xbd,
  0xae, 0x8b, 0x21, 0xbb, 0xf2, 0xba, 0x56, 0xbe, 0xa4, 0xcf, 0x95, 0x3d,
  0xbd, 0xaa, 0x81, 0x3e, 0x09, 0x39, 0x49, 0xbe, 0x98, 0xe6, 0x19, 0xbe,
  0x4e, 0xd2, 0xf5, 0x3c, 0x22, 0x03, 0x9e, 0x3d, 0x8d, 0x48, 0xbc, 0xbb,
  0xf5, 0xa6, 0x1a, 0xbc, 0x79, 0x19, 0x16, 0xbf, 0x4c, 0xe2, 0x87, 0xba,
  0x7f, 0x6c, 0x42, 0xbf, 0xb0, 0x61, 0x0e, 0x3f, 0xbf, 0xcb, 0xc6, 0x3f,
  0xe7, 0x02, 0x8a, 0x3f, 0x85, 0xd0, 0x88, 0xbf, 0xbf, 0x00, 0x86, 0x3e,
  0x02, 0xff, 0xa3, 0xbf, 0x46, 0xf0, 0xbd, 0x3e, 0xb9, 0x18, 0xc5, 0xbd,
  0x88, 0xe3, 0x2b, 0x3f, 0xfc, 0x3a, 0xba, 0xbe, 0xb2, 0x32, 0xab, 0x3e,
  0xe2, 0xff, 0x90, 0xbe, 0x35, 0xb2, 0x0e, 0xbf, 0x80, 0x17, 0x14, 0xbf,
  0x63, 0xdb, 0xa3, 0xbe, 0x77, 0x34, 0x0c, 0x3f, 0xc5, 0x45, 0x21, 0xbd,
  0xc5, 0x18, 0x38, 0x3f, 0xd6, 0xde, 0x5b, 0x3c, 0x77, 0xd1, 0xb7, 0x3e,
  0x98, 0x1e, 0xc2, 0x3e, 0xad, 0x95, 0x28, 0x3f, 0x0c, 0xb7, 0x72, 0x3e,
  0x7c, 0x46, 0x44, 0x3f, 0xbc, 0xe5, 0xfd, 0xbe, 0xd9, 0x0f, 0xf8, 0x3d,
  0xc8, 0x6b, 0x3e, 0x3f, 0x4b, 0x8f, 0x89, 0x3f, 0xb5, 0x93, 0x8e, 0x3f,
  0x5e, 0x08, 0x17, 0x3f, 0x56, 0x1d, 0x10, 0x3e, 0x5e, 0x39, 0xd2, 0xbe,
  0xd0, 0x6b, 0x90, 0x3d, 0x0d, 0xad, 0x03, 0x3f, 0x6e, 0x8a, 0x31, 0xbe,
  0x76, 0x0d, 0x5d, 0x3f, 0xb6, 0xc8, 0xe0, 0x3d, 0x60, 0x9f, 0xae, 0x3e,
  0x94, 0xaa, 0x26, 0xbd, 0xd6, 0xcb, 0xf0, 0x3e, 0x40, 0xca, 0xe9, 0xbe,
  0x4a, 0x6a, 0x1f, 0x3d, 0x4c, 0x8d, 0x8d, 0xc0, 0xfa, 0xfe, 0x2d, 0xbd,
  0x9a, 0x87, 0x33, 0x3e, 0x96, 0x58, 0x6f, 0x3f, 0xcd, 0x3f, 0x88, 0xbe,
  0xd3, 0x28, 0x81, 0x3f, 0xe1, 0x7d, 0x50, 0xbe, 0xe7, 0x2b, 0x51, 0x3e,
  0xda, 0x6b, 0x4b, 0xbe, 0xf7, 0xb4, 0xa5, 0x3f, 0x4c, 0x59, 0xb7, 0xbe,
  0xe5, 0x75, 0x06, 0x3e, 0x99, 0xd3, 0x6d, 0x3d, 0x6d, 0xa9, 0x66, 0x3e,
  0xfb, 0x3a, 0x61, 0xbe, 0xf6, 0x9c, 0x0a, 0x3e, 0xef, 0xb2, 0xb6, 0xbd,
  0x7e, 0x07, 0x5f, 0xbf, 0x08, 0x76, 0xa8, 0xbe, 0x44, 0x21, 0x34, 0xbf,
  0xe0, 0x41, 0xff, 0xbe, 0xa3, 0x70, 0x9e, 0xbe, 0x09, 0xb5, 0x71, 0x3e,
  0xd2, 0x6f, 0x4d, 0xbe, 0x42, 0x57, 0x69, 0x3e, 0xa6, 0x44, 0xde, 0x3e,
  0xca, 0x97, 0xed, 0xbd, 0x93, 0xf7, 0xea, 0xb9, 0xeb, 0x4b, 0xab, 0x3d,
  0x57, 0x4c, 0x80, 0x3d, 0x60, 0x91, 0xa5, 0x3f, 0x95, 0xdc, 0xad, 0x3f,
  0xc9, 0xc1, 0x1f, 0x40, 0xed, 0xe7, 0x52, 0x3f, 0x18, 0x7c, 0x65, 0x3e,
  0x1e, 0x14, 0x2e, 0xbf, 0xc5, 0x0b, 0x52, 0xbe, 0x28, 0xe5, 0x07, 0x3e,
  0xf3, 0x67, 0x00, 0x3f, 0xec, 0x82, 0x20, 0xbd, 0xec, 0x9f, 0x3a, 0xbe,
  0x79, 0x58, 0x9c, 0x3e, 0x0a, 0xa7, 0xca, 0x3d, 0x07, 0x5d, 0xb1, 0x3d,
  0xed, 0x83, 0xaf, 0x3d, 0x92, 0xea, 0x58, 0x3e, 0x25, 0x98, 0xbe, 0xbe,
  0xda, 0x91, 0x96, 0xbf, 0x53, 0xd0, 0x57, 0x3e, 0x2c, 0x13, 0xe7, 0xbe,
  0x5f, 0xef, 0xeb, 0x3e, 0x5c, 0xce, 0x02, 0x3f, 0x14, 0xaf, 0x26, 0x3e,
  0xa2, 0xd3, 0x8d, 0x3f, 0xed, 0x68, 0xd6, 0xbe, 0x6f, 0x60, 0x59, 0xbe,
  0x20, 0xbd, 0x87, 0x3f, 0xd3, 0x6b, 0x9d, 0xbf, 0x4d, 0xfa, 0xb7, 0x3d,
  0x39, 0xa2, 0x4b, 0x3f, 0x5a, 0xdc, 0xff, 0xff, 0x04, 0x00, 0x00, 0x00,
  0x00, 0x20, 0x00, 0x00, 0x37, 0xcd, 0x9c, 0xbe, 0x35, 0xc7, 0x3f, 0xbe,
  0xf8, 0xa6, 0x24, 0xbe, 0x40, 0xd7, 0xe7, 0x3c, 0xe5, 0x5b, 0x90, 0x3e,
  0xdb, 0xce, 0x09, 0x3f, 0x9f, 0x6e, 0x42, 0xbf, 0x71, 0x35, 0xcd, 0x3d,
  0x60, 0x66, 0xe3, 0xbe, 0x28, 0xfc, 0x80, 0xbe, 0xde, 0xcb, 0x09, 0xbf,
  0x87, 0xa1, 0x8b, 0xbb, 0xfd, 0x14, 0x2f, 0xbe, 0x89, 0x60, 0xb8, 0xbd,
  0x4c, 0xc9, 0xaa, 0xbe, 0x93, 0x38, 0x73, 0x3e, 0x13, 0x9a, 0x69, 0x3e,
  0x84, 0xfc, 0x71, 0xbe, 0x2c, 0xe8, 0xc7, 0xbe, 0x80, 0xb4, 0x66, 0xbe,
  0xba, 0xbb, 0x72, 0x3e, 0xea, 0x20, 0x49, 0xbe, 0xb8, 0xeb, 0x76, 0x3e,
  0x00, 0xf3, 0x58, 0xbe, 0xb2, 0x10, 0xa6, 0x3c, 0x3d, 0x28, 0x10, 0xbf,
  0x17, 0xab, 0x6b, 0x3e, 0xa9, 0xf4, 0x67, 0x3e, 0xb2, 0x11, 0x33, 0xbe,
  0x4d, 0x8d, 0xbe, 0xbe, 0x19, 0xf0, 0x4f, 0xbf, 0x9d, 0xe1, 0x9f, 0xbf,
  0xcf, 0x88, 0xb1, 0xbd, 0x67, 0x00, 0x03, 0xbc, 0xdf, 0x71, 0xaf, 0xbe,
  0x07, 0xba, 0x8e, 0xbf, 0xf8, 0x62, 0x24, 0x3f, 0x57, 0x0b, 0x07, 0x3f,
  0xb3, 0x5b, 0x3a, 0xbf, 0x41, 0xb8, 0x45, 0x3d, 0x95, 0xfa, 0x79, 0xbe,
  0xca, 0x15, 0x63, 0x3d, 0x01, 0x05, 0x04, 0x3f, 0x43, 0x0d, 0x1f, 0xbf,
  0x81, 0x7b, 0x2c, 0x3f, 0x3c, 0x87, 0x95, 0xbe, 0x93, 0x98, 0xc3, 0x3e,
  0x72, 0x28, 0xaf, 0xbe, 0x2b, 0x2e, 0xf8, 0x3e, 0x53, 0x02, 0xd4, 0x3d,
  0x91, 0xce, 0x28, 0x3e, 0x48, 0x6d, 0xb2, 0xbe, 0xf9, 0xbc, 0x05, 0x3e,
  0x96, 0x5a, 0x28, 0xbf, 0x37, 0xf2, 0x76, 0x3d, 0x3d, 0x5d, 0x24, 0x3e,
  0x0f, 0xa2, 0x21, 0x3e, 0xa8, 0xed, 0x6c, 0x3f, 0x1e, 0x70, 0xed, 0xbe,
  0x60, 0x55, 0xda, 0x3e, 0x1e, 0xa3, 0xb4, 0x3d, 0xbf, 0xbe, 0x7b, 0x3e,
  0xd7, 0xc7, 0x36, 0x3e, 0x6e, 0x4b, 0x00, 0xbf, 0xcc, 0x7c, 0x06, 0x3f,
  0x6a, 0x72, 0xe8, 0xbd, 0x97, 0xf6, 0xb4, 0x3e, 0x6b, 0x60, 0x07, 0xbf,
  0xfd, 0x4b, 0x36, 0x3e, 0xeb, 0x6c, 0xb0, 0x3e, 0xd1, 0x84, 0xd1, 0xbe,
  0xfe, 0x63, 0x2e, 0x3e, 0xb2, 0x62, 0xac, 0xbe, 0xa1, 0x2b, 0xb9, 0x3e,
  0xd3, 0xe8, 0xb2, 0xbe, 0x72, 0x06, 0x6d, 0xbe, 0xb3, 0xc4, 0x46, 0x3f,
  0xf7, 0x6f, 0xca, 0xbd, 0x66, 0x06, 0xf6, 0xbd, 0xeb, 0x53, 0x01, 0xbf,
  0x06, 0x97, 0x32, 0x3d, 0xab, 0x94, 0x0a, 0xbf, 0xf0, 0x9b, 0xb3, 0x3e,
  0x9a, 0x6c, 0x29, 0xbd, 0x14, 0x69, 0x92, 0xbe, 0x4d, 0x1c, 0xc6, 0xbe,
  0xc4, 0x8e, 0x19, 0x3e, 0xd7, 0x8f, 0x08, 0x3f, 0x26, 0x24, 0x7e, 0xbf,
  0xf0, 0xda, 0x60, 0x3f, 0xb6, 0x7b, 0x8b, 0x3f, 0xa2, 0xb2, 0xe6, 0x3d,
  0x1b, 0xc9, 0x8b, 0x3d, 0x51, 0x17, 0xeb, 0x3c, 0x32, 0x49, 0x21, 0xbf,
  0x45, 0xc0, 0xcf, 0xbd, 0x92, 0xe1, 0xb9, 0x3e, 0x76, 0x4d, 0x4d, 0xbf,
  0x49, 0x2c, 0x06, 0x3f, 0x18, 0xf9, 0xba, 0x3d, 0x7d, 0x97, 0x16, 0xbe,
  0x9f, 0x28, 0xad, 0xbe, 0x78, 0x82, 0x01, 0xbf, 0x85, 0xf9, 0x09, 0x3e,
  0xb0, 0xf2, 0xed, 0xbd, 0x0e, 0xe6, 0x6a, 0x3f, 0x1f, 0x4a, 0x15, 0x3f,
  0xd4, 0x9f, 0xa1, 0xbd, 0xf6, 0x05, 0xfe, 0x3d, 0x9b, 0xda, 0x14, 0xbf,
  0xa7, 0x7f, 0xc1, 0x3e, 0x5a, 0x54, 0x50, 0x3d, 0x87, 0xdd, 0x8c, 0x3e,
  0x20, 0xfe, 0x9e, 0xbe, 0x79, 0x68, 0x21, 0x3e, 0x96, 0xdc, 0x0f, 0x3f,
  0x56, 0xb0, 0x6b, 0xbf, 0x06, 0x53, 0xa9, 0x3d, 0xa4, 0x62, 0x04, 0xbe,
  0x29, 0x9b, 0x67, 0x3f, 0xda, 0x95, 0x03, 0x3c, 0x2a, 0x0d, 0x98, 0xbe,
  0x2a, 0xe1, 0x4b, 0xbe, 0x1f, 0x69, 0x28, 0xbe, 0x8a, 0x4a, 0xf1, 0x3e,
  0x24, 0xd9, 0x9f, 0xbd, 0x04, 0x01, 0x20, 0xbe, 0x0f, 0x21, 0x5b, 0xbe,
  0xd4, 0x48, 0x08, 0x3e, 0x2b, 0x74, 0xc6, 0x3e, 0x16, 0x47, 0xac, 0xbf,
  0x5a, 0x9d, 0x8a, 0xbd, 0x01, 0xa7, 0x4c, 0x3f, 0x8d, 0xcd, 0xf1, 0x3d,
  0x6a, 0x02, 0xc5, 0xbe, 0xb6, 0xa1, 0x54, 0xbe, 0xc8, 0x7b, 0xf0, 0x3e,
  0x14, 0x4e, 0x69, 0x3f, 0xb2, 0x58, 0x36, 0xbf, 0xb3, 0x20, 0x55, 0xbe,
  0x7a, 0xe8, 0x82, 0xbf, 0x39, 0xe6, 0x16, 0x3e, 0x65, 0x02, 0x90, 0xbe,
  0xde, 0x3f, 0x20, 0x3d, 0x94, 0xc0, 0x01, 0xbf, 0x0a, 0xa3, 0xb8, 0x3d,
  0x52, 0x22, 0x94, 0xbe, 0x52, 0x5c, 0xd0, 0x3e, 0xe6, 0x68, 0x93, 0x3e,
  0x14, 0xd0, 0x4f, 0x3f, 0x09, 0x7c, 0x01, 0x3e, 0x8b, 0x4a, 0x41, 0x3e,
  0x91, 0x18, 0x60, 0xbe, 0x10, 0x20, 0x67, 0x3d, 0x09, 0x4c, 0xf8, 0x3e,
  0x83, 0xd7, 0xf4, 0x3d, 0xf3, 0x72, 0x8e, 0xbf, 0xc5, 0x7e, 0xcc, 0x3e,
  0xdc, 0xf0, 0x97, 0xbe, 0x6b, 0x4c, 0x40, 0xbe, 0x4c, 0xe7, 0x7c, 0xbe,
  0x85, 0x33, 0xf9, 0x3d, 0xeb, 0x75, 0xe4, 0xbc, 0x5b, 0xe2, 0xac, 0x3e,
  0x09, 0x90, 0xa7, 0xbe, 0x5b, 0x99, 0xe5, 0xbe, 0xb1, 0x8e, 0x58, 0xbf,
  0x8a, 0xa0, 0xa7, 0xbe, 0x1a, 0xd7, 0xfe, 0x3e, 0xee, 0xa9, 0xae, 0x3d,
  0xfa, 0x5f, 0xdd, 0x3d, 0xa3, 0xf8, 0x6e, 0x3e, 0x31, 0x30, 0x41, 0xbe,
  0xf3, 0xef, 0x3a, 0xbe, 0x34, 0xc3, 0xce, 0x3e, 0x3f, 0x3e, 0x12, 0xbf,
  0xba, 0x87, 0x96, 0xbe, 0xa9, 0x28, 0x34, 0xbd, 0xda, 0x51, 0x95, 0x3e,
  0x75, 0xf2, 0x05, 0xbe, 0xbb, 0xd0, 0x1a, 0x3f, 0x69, 0x33, 0x4a, 0xbe,
  0x1a, 0xa9, 0x07, 0x3e, 0x7c, 0x97, 0x4a, 0x3e, 0x8c, 0xc0, 0x6f, 0xbe,
  0xfb, 0x8c, 0x7c, 0x3e, 0xb1, 0xd3, 0x1d, 0xbf, 0x48, 0xa4, 0x04, 0xbe,
  0xab, 0x5a, 0xa2, 0xbf, 0x79, 0x30, 0x06, 0x3f, 0xbb, 0xab, 0x80, 0xbf,
  0xb7, 0x4e, 0xd6, 0x3d, 0x06, 0x56, 0x0e, 0xbf, 0x73, 0xb8, 0x7b, 0xbd,
  0x11, 0x29, 0x29, 0xbe, 0x82, 0xb2, 0x00, 0xc0, 0x02, 0xdf, 0xf1, 0x3e,
  0x0b, 0xe5, 0x1b, 0xbe, 0x2e, 0xeb, 0xa2, 0x3e, 0x6b, 0x77, 0x20, 0x3e,
  0xd1, 0xc3, 0x99, 0xbe, 0x04, 0xcf, 0x71, 0x3c, 0x99, 0x74, 0x20, 0x3e,
  0x15, 0xb4, 0x39, 0x3d, 0x7f, 0x0b, 0x13, 0x3e, 0x06, 0x83, 0x96, 0x3c,
  0x24, 0x3e, 0xcc, 0x3e, 0x2c, 0xaa, 0xde, 0xbd, 0xa2, 0x6e, 0xd2, 0x3e,
  0x82, 0x6d, 0x83, 0x3d, 0xe1, 0x06, 0x6f, 0xbf, 0x10, 0x8e, 0xb2, 0xbe,
  0x09, 0x14, 0x00, 0xbe, 0xdd, 0xa2, 0x16, 0xbe, 0x7b, 0x15, 0x53, 0xbf,
  0xac, 0x46, 0x4d, 0xbe, 0xdb, 0xfa, 0xac, 0x3c, 0xea, 0x68, 0x56, 0x3d,
  0x2d, 0x28, 0xda, 0x3e, 0x87, 0x63, 0x06, 0x3f, 0x7f, 0x31, 0x09, 0x3f,
  0xbe, 0xac, 0xb4, 0xbf, 0xca, 0x5f, 0x25, 0x3e, 0x61, 0xec, 0x50, 0xbd,
  0xf7, 0x29, 0x17, 0x3e, 0x0e, 0xf3, 0xf2, 0xbe, 0xdf, 0xae, 0x62, 0xbe,
  0xb3, 0x02, 0x13, 0xbf, 0x0c, 0xf0, 0x72, 0x3c, 0xbd, 0x22, 0x26, 0xbe,
  0xc1, 0x37, 0x22, 0xbf, 0xb3, 0x1b, 0xe1, 0x3e, 0xf8, 0x76, 0x94, 0xbe,
  0x5f, 0x43, 0x92, 0xbe, 0x9c, 0x7d, 0x25, 0x3d, 0xe5, 0x9b, 0xe9, 0xbe,
  0x0d, 0x56, 0xee, 0x3e, 0xf7, 0x56, 0x1d, 0xbd, 0x2c, 0xf6, 0x0a, 0xbf,
  0xcc, 0x7f, 0xef, 0xbe, 0xa7, 0xe4, 0xad, 0x3d, 0x01, 0xc0, 0x0d, 0xbd,
  0xee, 0x59, 0x54, 0xbc, 0xde, 0xaa, 0xf6, 0x3e, 0xc3, 0x11, 0xa5, 0xbe,
  0xe7, 0xda, 0x2b, 0xbf, 0xd1, 0xa3, 0x87, 0xbd, 0xa2, 0xb8, 0xe1, 0x3d,
  0x86, 0x5a, 0x1d, 0xbd, 0x6d, 0x34, 0x1b, 0x3f, 0x92, 0x21, 0x80, 0x3e,
  0x85, 0x32, 0x11, 0x3c, 0xa4, 0x65, 0x0c, 0x3e, 0x18, 0x0d, 0xa1, 0x3d,
  0xc4, 0x1b, 0x0d, 0xbf, 0x74, 0x5a, 0xd9, 0xbe, 0xa4, 0x75, 0xa6, 0xbf,
  0x3a, 0xfe, 0xd7, 0x3e, 0x5f, 0x0a, 0x0b, 0x3d, 0x08, 0x5e, 0xc3, 0xbd,
  0x05, 0xc1, 0xc3, 0x3f, 0x22, 0x30, 0x0f, 0xbf, 0xfe, 0xa4, 0x22, 0xbf,
  0xd3, 0x7c, 0x22, 0xbd, 0xfd, 0xb4, 0x07, 0x3e, 0xf7, 0x5d, 0xa5, 0xbd,
  0x51, 0x67, 0x5e, 0xbd, 0x94, 0xab, 0xcf, 0x3d, 0x41, 0x2b, 0xd2, 0xbd,
  0x9b, 0xf2, 0x1e, 0xbd, 0x82, 0xb5, 0x9a, 0xbe, 0x41, 0x75, 0x90, 0x3e,
  0x80, 0x85, 0xab, 0xbd, 0xa5, 0xb0, 0xe4, 0xbd, 0xd4, 0x28, 0x18, 0x3e,
  0x89, 0x8e, 0xff, 0xbe, 0x15, 0x50, 0x64, 0x3e, 0x4c, 0xcc, 0xaf, 0x3e,
  0x85, 0xfc, 0x39, 0xbf, 0xfb, 0x77, 0xa1, 0xbe, 0xe5, 0xf2, 0x0d, 0xbf,
  0x49, 0xda, 0x25, 0xbe, 0x6b, 0x78, 0x64, 0xbf, 0x85, 0xd4, 0x0b, 0x3f,
  0x05, 0x0d, 0x02, 0xbf, 0xaf, 0x9c, 0xd6, 0xbe, 0x34, 0xba, 0x8d, 0xbe,
  0x72, 0xb3, 0x4f, 0xbe, 0xbd, 0x53, 0xe9, 0x3d, 0x90, 0xc5, 0x2f, 0x3f,
  0x2a, 0xaa, 0xd5, 0xbe, 0xa5, 0x26, 0xda, 0xbe, 0xc9, 0x2d, 0xcb, 0xbd,
  0x6d, 0xc0, 0x04, 0x3c, 0xb3, 0x32, 0x1c, 0x3f, 0x24, 0x1f, 0xd0, 0x3e,
  0xbe, 0x55, 0xe9, 0x3e, 0xb2, 0xf7, 0x03, 0x3f, 0xc8, 0xc1, 0xf0, 0x3d,
  0x54, 0x66, 0x36, 0xbb, 0xe3, 0x86, 0xd4, 0x3e, 0xec, 0xf7, 0xc3, 0xbe,
  0xc7, 0xec, 0xe5, 0xbe, 0xfa, 0x72, 0x4b, 0xbf, 0x4f, 0xfb, 0xbb, 0xbd,
  0x0a, 0x68, 0x3a, 0x3f, 0xb6, 0x68, 0x83, 0x3d, 0x7a, 0xa6, 0x15, 0xbf,
  0xd2, 0xba, 0xe9, 0xbd, 0x61, 0x6e, 0xc6, 0xbf, 0x5d, 0x3e, 0x01, 0x3e,
  0x2c, 0xbf, 0x0f, 0x3e, 0x4f, 0x7c, 0x3b, 0x3e, 0xf0, 0xce, 0x60, 0x3f,
  0xd3, 0x66, 0xeb, 0x3e, 0x90, 0xb5, 0x5c, 0xbd, 0xae, 0x8e, 0xcb, 0xbe,
  0x17, 0xb9, 0xed, 0xbd, 0x14, 0x2d, 0x7d, 0xbf, 0x5c, 0xde, 0x03, 0xbf,
  0xd7, 0xc5, 0x8a, 0x3e, 0x4f, 0x17, 0x14, 0x3e, 0x43, 0x5f, 0x36, 0xbf,
  0xf0, 0x54, 0xed, 0x3b, 0x26, 0x14, 0x28, 0x3e, 0x3e, 0xb5, 0x85, 0xbd,
  0x17, 0xa9, 0x0f, 0x3d, 0x22, 0x52, 0xea, 0x3b, 0x92, 0xbd, 0xa8, 0x3e,
  0x63, 0xd3, 0x1d, 0x3f, 0xc1, 0xeb, 0x5e, 0xbe, 0xb9, 0xbc, 0x9b, 0x3e,
  0x6c, 0xfb, 0xc4, 0xbe, 0xbd, 0xd3, 0xc5, 0x3d, 0x55, 0xef, 0xc2, 0xbd,
  0x24, 0x9f, 0xde, 0xbd, 0x4b, 0xc5, 0x98, 0x3e, 0xfe, 0x67, 0x11, 0x3e,
  0xdc, 0xe7, 0x12, 0xbf, 0x4a, 0xee, 0x0b, 0x3e, 0x08, 0x25, 0xa9, 0xbe,
  0x99, 0xf3, 0xf6, 0x3d, 0xba, 0x13, 0x03, 0xbf, 0xa1, 0xde, 0x94, 0x3d,
  0xf4, 0x55, 0x6a, 0x3d, 0x7b, 0x41, 0x96, 0xbe, 0xe5, 0xf6, 0xeb, 0x3d,
  0xbd, 0x89, 0xdd, 0xbe, 0xa5, 0x04, 0x4b, 0xbf, 0x68, 0xc4, 0x0c, 0xbe,
  0x77, 0x33, 0x35, 0x3d, 0x10, 0x6d, 0x59, 0x3e, 0xe2, 0x3d, 0xdd, 0xbe,
  0x5a, 0x0a, 0x19, 0xbf, 0x27, 0xff, 0xa4, 0x3e, 0x55, 0x15, 0xbd, 0xbd,
  0x64, 0xa7, 0xe5, 0xbb, 0xcb, 0x61, 0xaf, 0xbe, 0x22, 0x8c, 0x72, 0xbe,
  0x82, 0x19, 0x8e, 0xbe, 0x91, 0xd9, 0x63, 0xbd, 0xc5, 0x7a, 0x08, 0xbf,
  0xe6, 0x9a, 0xf5, 0x3d, 0x00, 0x7b, 0xd3, 0x3a, 0xf3, 0x07, 0xc2, 0x3c,
  0xed, 0x72, 0x88, 0x3d, 0x5c, 0x17, 0x74, 0xbf, 0x43, 0x96, 0x98, 0x3e,
  0xe0, 0x9d, 0x69, 0xbd, 0x29, 0x89, 0x6e, 0xbd, 0x45, 0xb8, 0xc4, 0x3d,
  0x70, 0xde, 0x75, 0x3e, 0x37, 0x3a, 0xcc, 0xbe, 0xc4, 0xf8, 0xcc, 0xbd,
  0x8b, 0x36, 0x9b, 0xbd, 0xb5, 0x6b, 0x19, 0xbb, 0x44, 0x11, 0x07, 0xbd,
  0xac, 0x79, 0xc7, 0x3d, 0x8e, 0x3f, 0x41, 0x3c, 0x79, 0x2c, 0x8d, 0xbe,
  0x82, 0xe6, 0x9b, 0xbf, 0xdb, 0x10, 0x68, 0x3e, 0x96, 0xe1, 0x9b, 0xbf,
  0x3d, 0x20, 0x86, 0xbe, 0xd9, 0xc8, 0x03, 0x3f, 0x41, 0xa1, 0xd9, 0xbd,
  0x92, 0x1f, 0x9d, 0xbe, 0xfb, 0xdc, 0xc7, 0xbe, 0x44, 0x47, 0x0b, 0xbe,
  0xae, 0x39, 0x9c, 0x3d, 0x75, 0x39, 0x49, 0x3e, 0x2f, 0xb3, 0x94, 0x3e,
  0xc1, 0xd6, 0xe4, 0x3d, 0x1a, 0x55, 0x5b, 0xbd, 0xc3, 0x79, 0x63, 0x3d,
  0x23, 0x22, 0x6b, 0x3f, 0x63, 0xde, 0x9c, 0xbf, 0x99, 0xa3, 0x97, 0x3d,
  0xfa, 0x07, 0x07, 0xbf, 0x92, 0x42, 0x66, 0x3e, 0xe6, 0xd4, 0x2d, 0xbf,
  0x5b, 0x0b, 0x0c, 0xbd, 0x71, 0x6e, 0x81, 0xbd, 0x9c, 0x02, 0x21, 0xbe,
  0xbd, 0x63, 0x89, 0x3e, 0x93, 0xe9, 0x49, 0xbe, 0x5d, 0xe0, 0x04, 0x3e,
  0xa8, 0xcf, 0xe3, 0x3e, 0xd9, 0x46, 0x5d, 0xbe, 0x86, 0xa6, 0xc7, 0x3d,
  0x4a, 0x3b, 0xd2, 0xbe, 0x2d, 0x83, 0x03, 0x3f, 0xde, 0x10, 0x81, 0x3e,
  0x37, 0x96, 0xd8, 0xbd, 0x90, 0xf0, 0x35, 0xbe, 0x74, 0xc3, 0x17, 0x3f,
  0xd8, 0x9f, 0xe0, 0x3e, 0xaa, 0x75, 0x38, 0x3e, 0x21, 0xe9, 0x2f, 0x3e,
  0x41, 0xb5, 0xc7, 0x3d, 0xc4, 0x06, 0x8b, 0x3e, 0x50, 0x39, 0x34, 0x3f,
  0xa0, 0x73, 0xdb, 0xbe, 0x38, 0xc8, 0xa2, 0x3e, 0x59, 0xc8, 0x3f, 0xbf,
  0x80, 0x48, 0x93, 0xbc, 0xc5, 0x64, 0x11, 0xbc, 0x5e, 0xd2, 0x12, 0x3e,
  0x63, 0x91, 0x05, 0xbe, 0xf5, 0x4a, 0x6b, 0x3e, 0x33, 0x8c, 0xe7, 0x3b,
  0xdb, 0x2d, 0x1d, 0xbf, 0x51, 0xac, 0x41, 0xbe, 0x18, 0x9e, 0xa0, 0xbe,
  0x4e, 0x54, 0xa9, 0xbd, 0x3a, 0x1d, 0xf7, 0xbd, 0xdf, 0x27, 0xbe, 0x3e,
  0x69, 0x0d, 0xd9, 0x3d, 0x3a, 0x85, 0xe1, 0xbd, 0x09, 0x16, 0xe8, 0xbe,
  0xbd, 0xd6, 0xd1, 0xbd, 0xb3, 0x2d, 0x42, 0x3e, 0x21, 0xc2, 0x4c, 0xbe,
  0x7a, 0xd9, 0xb4, 0xbd, 0xeb, 0x50, 0x0c, 0xbe, 0x86, 0x36, 0x03, 0xbe,
  0xc5, 0x59, 0x68, 0x3f, 0x03, 0xe0, 0x0b, 0x3b, 0xeb, 0xdb, 0xa1, 0xbe,
  0x3c, 0x42, 0x8b, 0xbe, 0xe4, 0x9a, 0x23, 0xbe, 0x47, 0xfc, 0x3b, 0xbe,
  0x02, 0x5a, 0x59, 0x3f, 0x7f, 0x97, 0xf2, 0xbe, 0xc5, 0x91, 0xb9, 0xbf,
  0x0c, 0x43, 0x0b, 0xbd, 0x96, 0xa8, 0xcb, 0xbe, 0x03, 0x56, 0x45, 0xbe,
  0x91, 0x28, 0x26, 0xbe, 0xe2, 0x36, 0xbd, 0xbf, 0xf5, 0x58, 0x2d, 0xbe,
  0xb8, 0xdf, 0x25, 0x3d, 0x77, 0xd4, 0xcc, 0x3d, 0x4c, 0x56, 0x09, 0x3e,
  0xa6, 0x7e, 0x81, 0x3e, 0x29, 0x38, 0x04, 0xbd, 0x25, 0x0e, 0x78, 0xbe,
  0xc4, 0xd1, 0x28, 0xbf, 0x12, 0x85, 0x0b, 0x3f, 0x2d, 0x97, 0x37, 0xbf,
  0xb6, 0x9d, 0xca, 0xbe, 0x35, 0x6d, 0x08, 0xbf, 0xbd, 0xf0, 0x56, 0x3f,
  0xca, 0x79, 0x08, 0x3e, 0xd3, 0xed, 0xa3, 0xbe, 0x04, 0x12, 0x35, 0xbe,
  0xc0, 0x4a, 0x8a, 0x3e, 0x84, 0x02, 0x7a, 0xbf, 0x9e, 0xc1, 0xaa, 0xbe,
  0x66, 0x7d, 0x6e, 0xbf, 0xd1, 0x0d, 0x1a, 0xbe, 0x4e, 0x38, 0x10, 0xbe,
  0x34, 0x97, 0xa0, 0xbe, 0xfe, 0xd9, 0xa8, 0xbd, 0xaa, 0x8e, 0x3b, 0x3f,
  0xbc, 0xe6, 0xb8, 0xbf, 0x4f, 0xc1, 0xda, 0x3e, 0x86, 0x06, 0x5a, 0xbe,
  0xf9, 0x3e, 0x91, 0x3d, 0x4e, 0x11, 0xf3, 0x3d, 0xb2, 0xbe, 0x8c, 0x3e,
  0xc7, 0xcb, 0x71, 0xbf, 0xfd, 0xa5, 0x70, 0xbe, 0x85, 0x45, 0x82, 0x3e,
  0x78, 0x38, 0xf3, 0xbe, 0x2c, 0x04, 0x11, 0xbf, 0xbc, 0xf6, 0x3c, 0x3f,
  0x15, 0xd9, 0xce, 0xbd, 0x1e, 0xca, 0x06, 0x3e, 0x0a, 0xe4, 0x20, 0xbc,
  0x88, 0xa9, 0xbf, 0x3e, 0x19, 0x21, 0x46, 0x3d, 0x69, 0x2b, 0x30, 0xbd,
  0x66, 0x7c, 0xb7, 0x3d, 0x5c, 0xd4, 0x96, 0xbd, 0xa3, 0x7f, 0x3e, 0x3f,
  0xac, 0x4a, 0xd0, 0x3e, 0xca, 0xd8, 0xe5, 0x3e, 0x0c, 0x48, 0x54, 0x3e,
  0x63, 0xfe, 0x7a, 0xbc, 0xa8, 0xed, 0x11, 0x3e, 0xdc, 0x70, 0xe2, 0xbc,
  0xe0, 0x9f, 0x43, 0xbc, 0x79, 0xa2, 0xcc, 0xbf, 0x8e, 0xdf, 0x73, 0xbd,
  0x8b, 0xec, 0x74, 0x3e, 0x1f, 0x28, 0x39, 0x3f, 0xe1, 0xd2, 0x1f, 0xbd,
  0x9e, 0x43, 0xaf, 0xbf, 0x2c, 0xa2, 0x56, 0xbd, 0xd7, 0x57, 0x98, 0x3e,
  0xb7, 0xd1, 0x72, 0xbc, 0xd7, 0xf9, 0x94, 0x3e, 0x2d, 0x11, 0x95, 0x3e,
  0xfd, 0x05, 0x6f, 0xbe, 0xe5, 0x6c, 0xdf, 0x3d, 0xf3, 0xf2, 0x49, 0xbf,
  0x5a, 0x93, 0x28, 0xbe, 0x5e, 0x7f, 0x20, 0x3f, 0xf9, 0xa4, 0xa9, 0x3e,
  0x5a, 0x72, 0x8b, 0xbe, 0x2c, 0x82, 0x06, 0x3c, 0xf1, 0x4a, 0xbf, 0x3e,
  0x53, 0x9f, 0x23, 0x3e, 0x03, 0xb7, 0x0e, 0xbe, 0xf0, 0xcd, 0x8d, 0xbe,
  0xd0, 0x83, 0x56, 0xbf, 0x4d, 0xd1, 0x94, 0xbe, 0x06, 0x7e, 0x0b, 0x3f,
  0x6c, 0xfe, 0x48, 0x3e, 0xaf, 0x72, 0x93, 0xbe, 0x02, 0xb0, 0x07, 0xbe,
  0xc8, 0x34, 0x12, 0xbf, 0xcd, 0x6b, 0xe6, 0xbf, 0x86, 0x17, 0x8b, 0xbe,
  0x27, 0x46, 0xf3, 0xbe, 0xcc, 0xbd, 0x12, 0xbf, 0x76, 0x6c, 0x68, 0xbf,
  0x89, 0x02, 0xf0, 0x3e, 0xcd, 0xe1, 0x65, 0x3e, 0x0b, 0x75, 0x9b, 0xbd,
  0x21, 0x15, 0x26, 0x3f, 0xa4, 0x03, 0x82, 0xbe, 0x5a, 0x46, 0x41, 0x3e,
  0x90, 0x22, 0x10, 0x3d, 0x5d, 0x8b, 0x53, 0xbe, 0x82, 0x9d, 0x98, 0x3e,
  0x60, 0x63, 0x73, 0xbd, 0x26, 0xa3, 0x1a, 0xbe, 0x4e, 0xda, 0xcf, 0xbe,
  0x1f, 0xdf, 0x14, 0x3f, 0xc4, 0xfd, 0x31, 0x3e, 0x8a, 0x7e, 0xf3, 0x3d,
  0x83, 0xb9, 0x74, 0xbf, 0xb6, 0x33, 0xd0, 0x3d, 0xa5, 0xc8, 0x0a, 0xbf,
  0x33, 0xd2, 0xdc, 0xbe, 0x52, 0xc5, 0x35, 0xbe, 0x54, 0x03, 0x28, 0xbe,
  0x17, 0x01, 0x4e, 0x3f, 0xad, 0x2c, 0x93, 0xbd, 0xd9, 0xdb, 0x13, 0x3e,
  0xc5, 0x1b, 0xe4, 0x3b, 0x4e, 0xdf, 0x2c, 0x3e, 0x02, 0x8e, 0x2f, 0xbe,
  0x5a, 0x33, 0x9c, 0xbf, 0x2a, 0xcd, 0xd8, 0x3e, 0xd1, 0x91, 0xb7, 0xbe,
  0x70, 0x61, 0x87, 0x3f, 0x56, 0xf7, 0x67, 0x3e, 0x0e, 0x0a, 0x57, 0x3e,
  0xe9, 0x4c, 0x24, 0x3f, 0xe2, 0xda, 0x11, 0x3f, 0x3b, 0x51, 0x98, 0x3e,
  0xa4, 0x55, 0xd4, 0x3e, 0xb7, 0x9a, 0xf6, 0xbd, 0xe3, 0xf9, 0x42, 0x3e,
  0x21, 0xc8, 0x0a, 0x3e, 0xee, 0xc7, 0x25, 0x3e, 0x2d, 0x97, 0x39, 0x3e,
  0x8a, 0x35, 0xdc, 0xbe, 0xb3, 0x2f, 0x7e, 0x3d, 0xd3, 0x31, 0x6c, 0x3f,
  0x87, 0x21, 0xdb, 0xbe, 0xee, 0x3a, 0x41, 0x3f, 0x2f, 0x73, 0xc0, 0xbd,
  0x6b, 0x9a, 0x60, 0x3e, 0x3d, 0xf2, 0x82, 0xbe, 0x7e, 0x93, 0xf5, 0x3e,
  0x8a, 0x56, 0xd2, 0x3d, 0x44, 0x19, 0x3f, 0x3c, 0xb5, 0x8b, 0x9c, 0x3e,
  0x4f, 0x78, 0x02, 0x3f, 0x24, 0x53, 0xbb, 0x3e, 0xb8, 0x8b, 0x1d, 0x3f,
  0x8b, 0x2e, 0xc2, 0xbe, 0xa5, 0x05, 0x57, 0x3e, 0xe7, 0x09, 0x33, 0x3f,
  0xa5, 0x91, 0xab, 0x3e, 0x0c, 0xdf, 0xdb, 0xbf, 0x6a, 0x5b, 0x0e, 0xbf,
  0x52, 0x9e, 0x34, 0x3e, 0x13, 0x9d, 0xcb, 0x3d, 0x4e, 0xce, 0xee, 0x3d,
  0x01, 0x04, 0x3f, 0xbf, 0xd0, 0xb7, 0xfb, 0x3e, 0xb5, 0xf5, 0x4f, 0x3e,
  0x60, 0x0e, 0x99, 0x3f, 0xbf, 0x70, 0x93, 0x3e, 0x43, 0x0a, 0x19, 0x3f,
  0x02, 0xf9, 0x25, 0x3f, 0xad, 0x6f, 0x09, 0x3f, 0xb9, 0xc1, 0x2a, 0x3f,
  0x02, 0x3b, 0xf3, 0x3e, 0x59, 0x66, 0xfc, 0x3e, 0xf0, 0x47, 0x08, 0xbe,
  0x39, 0xcd, 0x11, 0x3e, 0x83, 0x8f, 0xfb, 0x3e, 0x49, 0x94, 0x76, 0xbf,
  0x41, 0x60, 0xf0, 0xbd, 0x65, 0x93, 0x29, 0xbf, 0xcc, 0x63, 0xff, 0x3d,
  0xe7, 0xfc, 0x77, 0xbe, 0xfd, 0x42, 0x0e, 0x3e, 0x1f, 0x6e, 0xbd, 0xbe,
  0x2f, 0x62, 0x36, 0x3f, 0xf7, 0x1c, 0xf4, 0x3d, 0x43, 0x67, 0x38, 0x3e,
  0x36, 0x6a, 0x13, 0xbd, 0x9d, 0x7f, 0x5d, 0xbd, 0x51, 0x38, 0xaf, 0xbe,
  0xb3, 0x04, 0xc5, 0xbe, 0xbf, 0x73, 0x9f, 0xbd, 0x6b, 0x4f, 0x60, 0x3e,
  0x46, 0x44, 0x3c, 0x3f, 0x9d, 0xe7, 0x06, 0xbf, 0x98, 0xf9, 0x85, 0xbe,
  0xa2, 0xc6, 0x8a, 0xbe, 0xdc, 0xa0, 0x09, 0xbf, 0xb5, 0x07, 0x37, 0x3e,
  0x1c, 0x1b, 0x76, 0xbc, 0xfd, 0x21, 0xff, 0x3d, 0xff, 0x62, 0x3a, 0xbf,
  0xa5, 0xa2, 0xb3, 0x3d, 0xbb, 0x1b, 0x35, 0xbf, 0x23, 0xb8, 0x2e, 0xbe,
  0x4b, 0xf6, 0xca, 0xbe, 0x5e, 0xcd, 0x1e, 0x3f, 0xc9, 0xa1, 0x33, 0x3e,
  0xba, 0x88, 0x19, 0xbe, 0x7c, 0x68, 0x16, 0x3f, 0x20, 0xcd, 0x8e, 0x3d,
  0xac, 0xb4, 0xed, 0x3c, 0x4e, 0x83, 0x12, 0xbe, 0xc3, 0xb0, 0x76, 0xbe,
  0xcb, 0x91, 0x14, 0xbf, 0xf9, 0x96, 0x8d, 0x3d, 0xfd, 0xc3, 0xd7, 0x3c,
  0x87, 0x66, 0x04, 0xbf, 0xef, 0xf1, 0xdf, 0xbe, 0x4f, 0x38, 0x84, 0xbd,
  0x56, 0x60, 0xba, 0x3e, 0xf0, 0x98, 0xae, 0xbd, 0x7d, 0x77, 0xe6, 0x3e,
  0xb6, 0x2e, 0x5a, 0xbf, 0x3f, 0x13, 0x98, 0x3d, 0x0b, 0x9c, 0xc6, 0xbe,
  0xb5, 0x7d, 0xb7, 0xbc, 0x5c, 0x0f, 0xe9, 0x3e, 0x38, 0xa4, 0x2f, 0x3f,
  0x0e, 0x74, 0xf1, 0xbe, 0x87, 0xe2, 0x4c, 0x3d, 0xbe, 0x3d, 0x05, 0xbf,
  0x2d, 0xb6, 0xf2, 0xbe, 0x28, 0xf2, 0x04, 0xbf, 0xaa, 0xe3, 0xcd, 0xbe,
  0xd6, 0xdc, 0x67, 0xbe, 0xd3, 0x38, 0x5d, 0xbf, 0x12, 0x7e, 0x38, 0x3e,
  0xe5, 0x18, 0xbe, 0x3d, 0x34, 0x5f, 0xf0, 0x3d, 0x52, 0xbe, 0x4b, 0xbe,
  0x53, 0x76, 0x93, 0x3e, 0x8e, 0x0c, 0x70, 0xbf, 0xa4, 0x0c, 0x32, 0xbd,
  0x88, 0xe8, 0x39, 0x3e, 0x90, 0x24, 0x7b, 0xbe, 0x07, 0xca, 0xf3, 0x3e,
  0x59, 0xaa, 0x61, 0x3f, 0x8d, 0x13, 0x3b, 0xbe, 0x9e, 0x60, 0x0a, 0x3e,
  0x83, 0x00, 0x36, 0x3e, 0x71, 0x04, 0x8c, 0xbe, 0xf6, 0xda, 0x26, 0xbe,
  0x1d, 0x5d, 0xa7, 0xbd, 0xf4, 0x1d, 0x86, 0x3d, 0x32, 0x29, 0xbc, 0xbe,
  0x17, 0xef, 0xf1, 0xbe, 0xe1, 0x5a, 0x80, 0x3f, 0x72, 0x27, 0x25, 0xbf,
  0x45, 0x9c, 0xec, 0xbf, 0x58, 0x43, 0x86, 0xbe, 0x95, 0x47, 0x7f, 0xbe,
  0xf8, 0xa1, 0xcf, 0x3e, 0x67, 0x4a, 0x24, 0xbf, 0x4e, 0x50, 0x9e, 0xbe,
  0x38, 0xd4, 0x2a, 0x3e, 0x0d, 0x4f, 0x53, 0x3d, 0x8f, 0xe1, 0x64, 0x3e,
  0xd2, 0x00, 0x8f, 0xbe, 0xf8, 0x02, 0x39, 0x3f, 0xa3, 0x9b, 0x91, 0x3e,
  0x42, 0x73, 0x34, 0x3e, 0x1b, 0x57, 0xf4, 0xbe, 0xc1, 0xbc, 0x1d, 0xbe,
  0x3d, 0x55, 0xf1, 0x3d, 0x62, 0xb6, 0xc2, 0xbe, 0xf5, 0x1b, 0x37, 0xbd,
  0x97, 0x04, 0x0d, 0xbf, 0x8e, 0xa0, 0xc8, 0xbd, 0xe4, 0x66, 0xf5, 0x3e,
  0x6b, 0x49, 0xee, 0x3e, 0x46, 0x09, 0x42, 0xbf, 0x5d, 0xed, 0xc8, 0x3d,
  0x4f, 0x1a, 0xa7, 0xbe, 0xd3, 0x01, 0x5b, 0xbf, 0x2a, 0x65, 0x03, 0xbe,
  0x9d, 0x9d, 0x13, 0xbc, 0x33, 0xf9, 0xad, 0xbd, 0x72, 0x6b, 0x76, 0xbe,
  0x5f, 0xbd, 0xa3, 0x3d, 0x41, 0x43, 0x19, 0xbf, 0xf0, 0x82, 0xbe, 0xbd,
  0x4f, 0x59, 0xb0, 0xbe, 0xfd, 0x06, 0x52, 0x3f, 0xee, 0x34, 0xdc, 0x3e,
  0xfa, 0xc7, 0xc8, 0xbe, 0x40, 0xa7, 0xb4, 0xbe, 0xac, 0xe8, 0xe1, 0x3e,
  0x08, 0x8a, 0x6e, 0xbe, 0xaa, 0x73, 0xb7, 0x3d, 0x2f, 0x22, 0x21, 0xbf,
  0x09, 0x36, 0xf7, 0x3d, 0x16, 0x07, 0xd2, 0x3c, 0x20, 0x70, 0xb7, 0xbb,
  0x36, 0x00, 0x84, 0xbe, 0x24, 0x46, 0x3d, 0xbf, 0x02, 0xbe, 0xac, 0xbe,
  0xe9, 0x99, 0x27, 0x3e, 0x28, 0x09, 0x68, 0x3e, 0x71, 0x0d, 0x73, 0x3d,
  0xcf, 0x83, 0xf0, 0x3e, 0x69, 0x37, 0xd7, 0xbd, 0x89, 0xe2, 0x8f, 0xbe,
  0xe1, 0xc4, 0x41, 0x3f, 0x19, 0xfe, 0xc9, 0x3e, 0xbc, 0xe0, 0x42, 0xbf,
  0xbe, 0x2b, 0x4c, 0x3e, 0x59, 0x08, 0x35, 0x3f, 0xe5, 0xda, 0x66, 0xbe,
  0x40, 0x81, 0x52, 0x3f, 0x2e, 0xd4, 0x0e, 0x3e, 0xf5, 0x17, 0xcb, 0xbd,
  0xf4, 0xc1, 0xab, 0x3e, 0xc3, 0x6a, 0x6a, 0x3f, 0x8a, 0xae, 0x29, 0x3f,
  0x75, 0x23, 0x2f, 0x3e, 0xa4, 0x19, 0x58, 0x3e, 0x5e, 0xd2, 0x2e, 0x3f,
  0x39, 0x85, 0x1d, 0x3e, 0x13, 0x53, 0x2e, 0x3f, 0xcf, 0x2f, 0x23, 0x3d,
  0x79, 0x60, 0x10, 0xbf, 0xf8, 0x8a, 0xa5, 0x3e, 0xb6, 0x46, 0x68, 0x3e,
  0xc9, 0x1e, 0xca, 0x3e, 0x60, 0x9a, 0x87, 0x3f, 0xdb, 0xa1, 0x0b, 0x3e,
  0x36, 0x1e, 0x06, 0x3f, 0x27, 0x5d, 0xe0, 0xbe, 0x45, 0x67, 0x3e, 0x3f,
  0x52, 0x19, 0xfc, 0xbc, 0xc4, 0xc3, 0x79, 0xbe, 0xe8, 0xe0, 0x98, 0x3c,
  0x1e, 0xf2, 0x32, 0xbe, 0xb8, 0xba, 0xbc, 0x3e, 0x0a, 0x3e, 0x01, 0x3f,
  0xcf, 0xe5, 0x89, 0x3d, 0x3f, 0x2f, 0x76, 0x3f, 0x1d, 0xa5, 0x6e, 0x3f,
  0xc2, 0xa2, 0xc0, 0x3e, 0x56, 0xd5, 0x4d, 0x3d, 0x58, 0xc6, 0x80, 0x3d,
  0xb0, 0x8c, 0x87, 0x3f, 0x13, 0x33, 0xa4, 0xbe, 0x83, 0xe2, 0xa4, 0x3e,
  0x3a, 0x6e, 0x7e, 0xbe, 0x7d, 0x9a, 0x72, 0xbe, 0xc1, 0x51, 0xe3, 0x3e,
  0x40, 0x5b, 0x41, 0x3f, 0x95, 0x2a, 0xa1, 0x3e, 0x5a, 0x4a, 0xba, 0x3f,
  0x31, 0xb3, 0x9d, 0x3e, 0xdb, 0xfc, 0x4e, 0x3e, 0x8c, 0xe2, 0x1c, 0x3f,
  0xc7, 0x0a, 0xb7, 0x3d, 0x26, 0x3c, 0x0d, 0x3f, 0x8e, 0xc6, 0xa2, 0xbc,
  0x9a, 0x7c, 0x3c, 0x3e, 0x6d, 0x5f, 0x85, 0xbd, 0xaa, 0x6b, 0x28, 0xbf,
  0x13, 0xdb, 0x44, 0x3f, 0xd1, 0xf9, 0x50, 0xbe, 0x90, 0x43, 0x5f, 0xbd,
  0x6a, 0x76, 0x79, 0xbd, 0x41, 0x42, 0x27, 0xbc, 0xf5, 0x43, 0xf3, 0xbe,
  0xa8, 0xe9, 0x5a, 0x3f, 0xfd, 0x88, 0x33, 0x3f, 0xc0, 0x40, 0xaf, 0x3d,
  0x50, 0x6e, 0x66, 0x3f, 0x25, 0x73, 0x21, 0xbd, 0xae, 0x5c, 0x02, 0xbf,
  0xd4, 0x54, 0x19, 0xbe, 0xb7, 0x45, 0x80, 0x3e, 0xf4, 0x4c, 0x52, 0xbd,
  0xf0, 0xc3, 0x23, 0x3f, 0x97, 0xdd, 0x94, 0xbf, 0x31, 0x24, 0x3f, 0xbf,
  0x82, 0xde, 0x0f, 0xbe, 0x25, 0xd6, 0xb3, 0x3f, 0x54, 0xf4, 0x1b, 0x3f,
  0x18, 0xe5, 0xed, 0xbc, 0x2d, 0x91, 0xa5, 0xbf, 0xb5, 0xf5, 0x03, 0x3f,
  0xfd, 0xb1, 0x13, 0x3e, 0x32, 0xda, 0xa4, 0xbe, 0x62, 0x93, 0x18, 0xbf,
  0x8c, 0xee, 0xbb, 0x3f, 0xea, 0x60, 0x79, 0xbe, 0xab, 0xf8, 0xe8, 0x3e,
  0xc7, 0xc4, 0xea, 0x3e, 0xf1, 0x48, 0x77, 0x3e, 0x02, 0x60, 0x35, 0xbf,
  0x37, 0xd0, 0xf2, 0x3e, 0x53, 0xa0, 0x1c, 0x3e, 0x2b, 0x1b, 0x96, 0x3e,
  0x7c, 0x6f, 0xaa, 0x3e, 0x04, 0x35, 0x55, 0x3f, 0x17, 0x24, 0x03, 0x3e,
  0xc1, 0x3d, 0xc4, 0x3d, 0x92, 0xd8, 0x7f, 0xbe, 0x81, 0x83, 0x68, 0x3e,
  0xb1, 0xbc, 0xcf, 0x3f, 0xdf, 0xbd, 0xce, 0x3d, 0x59, 0xd1, 0x94, 0xbc,
  0x78, 0x8c, 0x85, 0x3d, 0x91, 0x4f, 0x71, 0x3e, 0x3b, 0x8c, 0x6d, 0x3e,
  0xd7, 0xca, 0x81, 0xbf, 0xd4, 0xfd, 0xa6, 0x3e, 0x44, 0xe2, 0xc3, 0xbe,
  0x63, 0xa3, 0x1f, 0x3f, 0x3b, 0x56, 0xde, 0x3e, 0xba, 0x37, 0x93, 0x3e,
  0xc0, 0x16, 0x54, 0x3f, 0x8b, 0x3b, 0x0a, 0x3f, 0x8a, 0xa8, 0x8d, 0x3e,
  0x2e, 0xe6, 0xc1, 0xbe, 0x4b, 0x3f, 0xae, 0x3e, 0xcd, 0x30, 0x07, 0xbf,
  0x89, 0x09, 0x40, 0xbe, 0xcd, 0xac, 0x2a, 0x3e, 0x44, 0x36, 0xfa, 0x3e,
  0x62, 0x45, 0x6e, 0xbf, 0x74, 0xf4, 0xab, 0x3e, 0x36, 0x01, 0xdb, 0xbe,
  0x51, 0xe8, 0xd9, 0x3e, 0x40, 0x7f, 0x31, 0xbe, 0x28, 0xd7, 0x16, 0x3f,
  0x7d, 0x8d, 0x86, 0x3d, 0xfe, 0x53, 0x54, 0xbd, 0xf9, 0x6b, 0x99, 0xbe,
  0x51, 0xea, 0xa7, 0x3e, 0x6f, 0x0a, 0x9f, 0xbe, 0xdf, 0xc5, 0x7b, 0x3e,
  0xbd, 0xb9, 0x94, 0x3d, 0x5a, 0x15, 0x7a, 0x3e, 0x21, 0xb9, 0xe3, 0xbe,
  0x10, 0xaa, 0x1a, 0xbf, 0x78, 0xca, 0x33, 0x3f, 0x26, 0x27, 0xd2, 0x3d,
  0xfb, 0x67, 0xaf, 0xbe, 0x60, 0x1c, 0xdf, 0xbe, 0x39, 0x4e, 0xb7, 0xbe,
  0x13, 0xb1, 0xba, 0x3e, 0xda, 0x33, 0x20, 0xbf, 0x66, 0x7f, 0xe3, 0xbe,
  0x50, 0x40, 0xbb, 0xbe, 0x2b, 0x6b, 0x8d, 0x3d, 0x61, 0x7e, 0xff, 0xbd,
  0xcc, 0x3f, 0x8d, 0xbe, 0x7e, 0xa2, 0x51, 0x3f, 0x4b, 0xb0, 0x09, 0xbe,
  0x81, 0xa6, 0x85, 0xbf, 0xae, 0x0b, 0x07, 0xbf, 0x2f, 0x42, 0xb3, 0x3e,
  0xf0, 0xc9, 0x17, 0x3d, 0x6c, 0xd8, 0x3f, 0xbf, 0xcb, 0x69, 0x3f, 0xbe,
  0xa1, 0x57, 0x7a, 0xbe, 0x21, 0xbe, 0x70, 0x3c, 0x46, 0xe8, 0xc4, 0xbf,
  0x63, 0xca, 0xaa, 0x3e, 0x2d, 0xea, 0xe3, 0x3d, 0x61, 0xfc, 0x47, 0xbf,
  0xa9, 0x09, 0x0b, 0x3e, 0x37, 0x44, 0xe3, 0xbe, 0xf7, 0x22, 0xf9, 0xbe,
  0xd5, 0x84, 0x11, 0x3e, 0x47, 0xd3, 0x14, 0x3f, 0xdb, 0x6d, 0xbf, 0xbc,
  0x98, 0xe1, 0xf6, 0x3d, 0xf3, 0x46, 0x11, 0x3f, 0xc0, 0x28, 0x64, 0x3d,
  0xda, 0x44, 0x08, 0xbe, 0xbb, 0x25, 0x15, 0x3e, 0xea, 0xf3, 0xce, 0x3e,
  0x8a, 0xd0, 0x97, 0xbe, 0xa9, 0x00, 0x5e, 0xbf, 0xeb, 0x46, 0xa6, 0x3e,
  0x12, 0x31, 0x9c, 0x3e, 0xaa, 0x6e, 0x70, 0x3e, 0xd0, 0xcd, 0x59, 0xbf,
  0x2a, 0xb4, 0x87, 0x3e, 0x3c, 0x35, 0xc9, 0xbd, 0x22, 0x68, 0x89, 0xbd,
  0x9d, 0x8f, 0x0c, 0xbf, 0x65, 0x71, 0x76, 0x3b, 0x02, 0xe8, 0x4d, 0xbe,
  0xaa, 0x79, 0x50, 0xbe, 0x41, 0x43, 0x85, 0x3d, 0x22, 0xf8, 0xa7, 0xbd,
  0x40, 0xe4, 0x8d, 0x3f, 0x8d, 0xaa, 0x0e, 0xbe, 0xcc, 0x86, 0x98, 0xbe,
  0xca, 0x6c, 0x40, 0x3d, 0x99, 0x00, 0x3d, 0xbe, 0x10, 0xc4, 0x1c, 0xbe,
  0x3e, 0x5c, 0xec, 0xbe, 0xd6, 0x96, 0x94, 0x3e, 0x36, 0x3c, 0xc2, 0x3e,
  0x31, 0x82, 0x46, 0x3f, 0xbb, 0x5b, 0x24, 0xbf, 0xee, 0x84, 0x18, 0xbd,
  0x1f, 0x8c, 0xb7, 0x3e, 0xc5, 0x80, 0x2b, 0xbf, 0x88, 0x5e, 0x96, 0x3e,
  0xf7, 0x25, 0x67, 0xbe, 0xc5, 0x2e, 0x84, 0x3e, 0x6d, 0x16, 0xc9, 0xbe,
  0xa1, 0xda, 0xfc, 0x3d, 0x9a, 0xd1, 0x74, 0x3f, 0xb1, 0x2f, 0xdd, 0x3c,
  0x8b, 0xa1, 0xc1, 0x3e, 0x33, 0x3c, 0x9e, 0xbe, 0x78, 0x22, 0x60, 0xbe,
  0x22, 0x86, 0x01, 0xbe, 0x49, 0x97, 0xba, 0x3e, 0x3d, 0x58, 0x57, 0x3e,
  0x03, 0x1f, 0x05, 0xbf, 0x3d, 0x94, 0xd3, 0x3e, 0xec, 0xc2, 0xe7, 0x3c,
  0xfe, 0xd7, 0xa3, 0x3a, 0x5b, 0xf2, 0xd2, 0xbe, 0x0e, 0x56, 0xb0, 0xbd,
  0xca, 0xfa, 0xe5, 0xbd, 0x71, 0xca, 0xa1, 0xbd, 0xd4, 0x25, 0x73, 0x3c,
  0xf2, 0xb7, 0x19, 0xbe, 0x07, 0xc2, 0x35, 0xbe, 0x5a, 0x57, 0x15, 0xbd,
  0xce, 0x1e, 0x08, 0x3f, 0xd0, 0xa7, 0x80, 0x3e, 0x82, 0x18, 0xed, 0xbd,
  0x86, 0x87, 0x8b, 0xbe, 0x50, 0x06, 0xb0, 0x3e, 0x1b, 0x16, 0x11, 0x3e,
  0x4e, 0x0a, 0xbf, 0x3e, 0xf6, 0x52, 0x22, 0x3e, 0xfe, 0xd7, 0x20, 0x3f,
  0x68, 0x9c, 0x8e, 0x3f, 0xd4, 0x02, 0x24, 0x3f, 0xa8, 0x49, 0x17, 0x3f,
  0x27, 0x13, 0xe7, 0xbb, 0x74, 0x53, 0x7f, 0x3e, 0x8f, 0xa6, 0xd8, 0x3f,
  0x18, 0xcc, 0x29, 0x3f, 0x34, 0x2b, 0xb8, 0xbe, 0x79, 0xca, 0x85, 0x3e,
  0x75, 0x4c, 0x4a, 0x3e, 0xd3, 0xb4, 0x22, 0x3f, 0xeb, 0x15, 0x81, 0x3f,
  0x34, 0x9a, 0x4b, 0x3f, 0x79, 0xf8, 0xe6, 0x3d, 0x8c, 0xf2, 0x9a, 0xbd,
  0x4b, 0x06, 0x2c, 0xbd, 0x5c, 0x73, 0x08, 0x3d, 0x14, 0x44, 0x40, 0x3f,
  0xb8, 0xed, 0xbe, 0x3d, 0x46, 0x07, 0x57, 0x3e, 0x6c, 0xea, 0x30, 0x3e,
  0xfd, 0x8b, 0x9c, 0x3f, 0xbc, 0x7a, 0x04, 0x3f, 0x50, 0xbb, 0xb9, 0xbe,
  0x2d, 0x20, 0x0d, 0x3e, 0xad, 0xbd, 0x65, 0xbd, 0xd8, 0x00, 0x05, 0xbe,
  0x50, 0x21, 0x74, 0x3e, 0x5a, 0xb3, 0x49, 0xbd, 0xe0, 0x9c, 0x21, 0xbc,
  0x95, 0x1f, 0x93, 0x3e, 0x55, 0xfe, 0x1e, 0x3f, 0xe7, 0xd3, 0x65, 0x3f,
  0x4f, 0x8b, 0x76, 0xbe, 0xfb, 0x3e, 0x72, 0xbd, 0x77, 0xa4, 0x47, 0xbe,
  0xbd, 0xf0, 0x35, 0xbe, 0x1f, 0xc6, 0xec, 0xbe, 0x35, 0x2b, 0x53, 0x3f,
  0xf1, 0xb1, 0x49, 0xbd, 0x35, 0x1a, 0x2c, 0xbe, 0x6b, 0x80, 0xc0, 0xbd,
  0xc5, 0x3e, 0x8d, 0xbd, 0x0c, 0xb9, 0x2d, 0x3d, 0x30, 0x7f, 0x31, 0x3e,
  0xe1, 0x2f, 0xcf, 0x3e, 0xb4, 0xf7, 0xfe, 0x3e, 0x1d, 0x3f, 0xc4, 0x3d,
  0x43, 0x6b, 0x59, 0x3d, 0xb3, 0x32, 0x5c, 0x3d, 0x3b, 0x16, 0x0e, 0xbf,
  0x38, 0x39, 0x29, 0x3f, 0x62, 0x6b, 0x63, 0x3d, 0x23, 0xf9, 0x33, 0x3f,
  0x67, 0x39, 0x9e, 0x3e, 0x4b, 0xa3, 0x7e, 0xbe, 0x3c, 0x3e, 0xd2, 0xbc,
  0x21, 0xcc, 0x00, 0x3e, 0x5e, 0x18, 0xd5, 0x3d, 0x9f, 0x65, 0xaa, 0xbc,
  0xb6, 0x09, 0x9c, 0xbe, 0x99, 0x0c, 0xe7, 0xbe, 0x7d, 0xd8, 0x06, 0xbc,
  0xa0, 0x39, 0x04, 0x3f, 0x7c, 0x6c, 0x59, 0x3f, 0xd3, 0x6d, 0x18, 0xbe,
  0x83, 0x2a, 0x24, 0xbe, 0x2a, 0xc5, 0x19, 0x3d, 0xaa, 0x5f, 0x7f, 0x3f,
  0xfc, 0xd2, 0xa1, 0xbe, 0xb9, 0xf9, 0x00, 0x3d, 0x1d, 0xdf, 0x50, 0x3e,
  0xfa, 0xa9, 0xea, 0x3e, 0x35, 0xb6, 0xab, 0x3e, 0x11, 0x3a, 0x71, 0x3f,
  0xa3, 0xa3, 0x4f, 0x3e, 0x56, 0x82, 0x88, 0xbf, 0x83, 0xf2, 0xc0, 0x3e,
  0xd8, 0x99, 0x97, 0x3d, 0xa1, 0x34, 0x85, 0xbd, 0x9a, 0xfd, 0x11, 0x3f,
  0x36, 0xa1, 0x4f, 0xbf, 0x99, 0x3b, 0xe4, 0xbd, 0x6f, 0xc9, 0x7a, 0x3f,
  0x7a, 0x02, 0x1d, 0x3f, 0x24, 0x2c, 0xbe, 0xbe, 0x94, 0xc9, 0x0e, 0x3e,
  0x9b, 0x48, 0x02, 0xbf, 0xda, 0x9e, 0x4f, 0x3e, 0x14, 0x42, 0x58, 0xbe,
  0xc5, 0x7b, 0x4f, 0xbf, 0xaa, 0x55, 0x64, 0x3f, 0x4b, 0x82, 0x34, 0xbe,
  0x5d, 0x75, 0x47, 0x3f, 0xe5, 0xa6, 0x68, 0xbe, 0x6d, 0x4c, 0x57, 0xbe,
  0x45, 0x49, 0x46, 0xbf, 0x5a, 0x09, 0x8f, 0xbe, 0x75, 0x1c, 0x0e, 0xbf,
  0x79, 0xe8, 0xb7, 0xbf, 0x4c, 0x40, 0x23, 0xbd, 0xd9, 0xf4, 0xf0, 0xbc,
  0x37, 0xdd, 0xf1, 0x3e, 0x1e, 0xb4, 0x60, 0x3e, 0x54, 0x70, 0x97, 0xbe,
  0xca, 0x2e, 0xdc, 0xbe, 0x9f, 0xda, 0xd8, 0xbe, 0x85, 0xe3, 0x52, 0xbe,
  0xe7, 0x92, 0xd2, 0xbb, 0x95, 0xcb, 0xf6, 0xbe, 0xbd, 0xc0, 0xac, 0xbd,
  0x7b, 0x1a, 0x35, 0x3f, 0xc9, 0xaa, 0x4c, 0x3e, 0xb5, 0x23, 0x34, 0x3f,
  0xd1, 0x66, 0x84, 0x3e, 0xda, 0xda, 0x24, 0xbe, 0xbd, 0x5c, 0x2a, 0x3c,
  0x97, 0x59, 0x43, 0x3e, 0xd8, 0xec, 0x20, 0x3f, 0xb4, 0x2d, 0x16, 0xbf,
  0xf4, 0x44, 0x1f, 0xbe, 0xcd, 0x18, 0xc9, 0xbe, 0x56, 0xd0, 0xc4, 0xbe,
  0x31, 0x51, 0x0f, 0x3f, 0xd4, 0x3e, 0xeb, 0xbe, 0x5f, 0xb6, 0xba, 0xbe,
  0xeb, 0x42, 0x07, 0xbf, 0xbb, 0x7d, 0x8b, 0xbe, 0x61, 0xe5, 0xd1, 0x3e,
  0x0d, 0xaf, 0xc1, 0xbd, 0x92, 0x6f, 0x48, 0xbf, 0x81, 0xa0, 0xb8, 0x3d,
  0x03, 0x2a, 0x01, 0xbf, 0x23, 0x97, 0x0f, 0xbf, 0x02, 0xdd, 0x27, 0x3f,
  0xee, 0xda, 0x89, 0xbf, 0x3e, 0xe8, 0x2d, 0x3e, 0x0b, 0xda, 0xef, 0x3d,
  0x77, 0x56, 0x17, 0x3f, 0x1d, 0xf7, 0xe3, 0xbe, 0xf6, 0xb0, 0x02, 0xbf,
  0x54, 0x4e, 0x31, 0x3f, 0xb0, 0x57, 0xf4, 0x3e, 0x28, 0xb9, 0xae, 0xb9,
  0xda, 0xe5, 0x5e, 0x3f, 0x77, 0xe7, 0xe5, 0x3d, 0x1b, 0x45, 0x2e, 0xbd,
  0xb3, 0x35, 0xcc, 0xbe, 0x2c, 0x91, 0xe5, 0xbd, 0x1b, 0x8f, 0x44, 0x3d,
  0xe3, 0xa5, 0x7d, 0xbd, 0x1b, 0xba, 0xb7, 0xbe, 0x56, 0xc1, 0x6c, 0x3d,
  0x19, 0xc1, 0xa1, 0xbd, 0xb7, 0x77, 0xb4, 0x3d, 0xb5, 0x73, 0x21, 0x3f,
  0x5e, 0xa5, 0xde, 0xbe, 0xbc, 0xee, 0x02, 0xbf, 0xae, 0xf8, 0x44, 0x3e,
  0xe5, 0x33, 0x7a, 0x3f, 0x2f, 0xb2, 0x93, 0x3e, 0x14, 0xf3, 0x3a, 0xbd,
  0xf4, 0xeb, 0x5e, 0xbe, 0x0e, 0x1e, 0x1a, 0xbe, 0x54, 0xea, 0x1f, 0x3c,
  0xe1, 0xde, 0x31, 0xbe, 0x3f, 0xcf, 0xb1, 0xbe, 0xb7, 0x4d, 0xad, 0xbe,
  0xb7, 0x27, 0x4d, 0xbe, 0x40, 0x9a, 0x55, 0xbf, 0x7b, 0x7c, 0x25, 0x3f,
  0xa4, 0xaf, 0x76, 0x3e, 0x29, 0x86, 0x6b, 0x3e, 0xf0, 0x37, 0x9f, 0xbe,
  0x6d, 0x34, 0xd4, 0xbe, 0x38, 0x2a, 0xfb, 0xbe, 0xc1, 0x86, 0x53, 0x3d,
  0x7c, 0x52, 0x87, 0xbb, 0x59, 0x18, 0x7d, 0x3d, 0xf7, 0x31, 0xa6, 0xbd,
  0x4c, 0xb6, 0xa8, 0x3e, 0xf4, 0xe4, 0x46, 0xc0, 0x2d, 0x7d, 0x16, 0x3e,
  0xa4, 0xbe, 0x47, 0xbe, 0xdd, 0xb5, 0xc0, 0xbd, 0x22, 0x36, 0x89, 0xbf,
  0x46, 0x92, 0xff, 0xbe, 0x95, 0x22, 0xc4, 0x3e, 0x00, 0x34, 0xfc, 0x3d,
  0x43, 0x7f, 0xb2, 0xbd, 0x6c, 0x34, 0x24, 0x3e, 0xea, 0xc7, 0x0f, 0xbf,
  0x50, 0x0e, 0x0d, 0x3e, 0xc4, 0x24, 0x24, 0xbd, 0x92, 0x57, 0x98, 0xbe,
  0x26, 0xbd, 0xa0, 0xbe, 0xe7, 0x7e, 0xcb, 0xbd, 0x93, 0x94, 0xba, 0x3c,
  0x15, 0x44, 0x85, 0x3d, 0x5d, 0xeb, 0xec, 0x3d, 0x88, 0x77, 0xa6, 0xbd,
  0x48, 0xaf, 0xa6, 0xbd, 0xaf, 0x4b, 0x94, 0xbe, 0x8d, 0x75, 0xa0, 0xbd,
  0x1c, 0x08, 0x15, 0xbf, 0xf3, 0x74, 0x64, 0xbf, 0x06, 0xc3, 0x1a, 0x3e,
  0x0d, 0x2f, 0x62, 0x3c, 0x2d, 0xbc, 0xa0, 0x3c, 0x63, 0x55, 0xea, 0xbc,
  0xe2, 0x56, 0x03, 0x3d, 0xfe, 0x38, 0x2e, 0xbf, 0x67, 0x25, 0x05, 0x3e,
  0xa8, 0xe1, 0x78, 0x3e, 0x13, 0x17, 0x2d, 0x3e, 0x9c, 0xfc, 0x33, 0x3c,
  0x35, 0xb9, 0xdc, 0xbd, 0xab, 0x65, 0x15, 0x3f, 0x93, 0x68, 0xec, 0x3e,
  0x59, 0xf6, 0x2a, 0x3f, 0x8a, 0xe4, 0x0d, 0x3f, 0x07, 0x05, 0x4e, 0x3f,
  0xa9, 0x98, 0xe1, 0x3d, 0xf1, 0x4c, 0x36, 0x3d, 0xb5, 0xb5, 0x45, 0x3d,
  0xc4, 0x1e, 0x3e, 0x3f, 0xbc, 0xfa, 0x19, 0x3f, 0x31, 0x37, 0x2e, 0xbf,
  0x07, 0x8c, 0x08, 0x3e, 0xfe, 0xa6, 0xd6, 0xbe, 0x98, 0x89, 0x20, 0x3e,
  0x2f, 0xf7, 0xf0, 0xbd, 0xcd, 0x76, 0xc0, 0x3e, 0xf7, 0x7a, 0x0d, 0x3e,
  0x97, 0x84, 0xed, 0xbd, 0x10, 0x45, 0x0a, 0xbf, 0x55, 0xca, 0x1b, 0x3e,
  0xc8, 0x67, 0xbd, 0x3e, 0x66, 0xb1, 0xe3, 0x3e, 0x88, 0xce, 0xb1, 0xbe,
  0x39, 0xa0, 0xbe, 0x3c, 0xb6, 0xf1, 0xdd, 0x3c, 0xe0, 0xf0, 0x83, 0x3f,
  0x86, 0xbd, 0x7b, 0xbc, 0xed, 0x18, 0x88, 0xbe, 0x8e, 0x40, 0x1e, 0x3e,
  0xc5, 0x1f, 0x2e, 0x3f, 0x81, 0x1a, 0xbb, 0x3e, 0x8e, 0x4d, 0x38, 0x3e,
  0x6b, 0x77, 0x94, 0xbe, 0x3c, 0xd6, 0x9c, 0x3f, 0x63, 0x7f, 0x11, 0x3e,
  0x62, 0xec, 0x8a, 0x3e, 0x75, 0x8b, 0x6a, 0x3d, 0x37, 0xe9, 0x0d, 0xbf,
  0x33, 0xc7, 0xe0, 0x3d, 0x15, 0xb0, 0xa7, 0x3f, 0xfa, 0x6a, 0xca, 0xbe,
  0x67, 0xa7, 0x82, 0x3f, 0x52, 0x1b, 0x2f, 0x3f, 0x54, 0x9c, 0x8f, 0x3c,
  0x78, 0x34, 0xfc, 0x3e, 0x7a, 0x62, 0xe9, 0xbe, 0x42, 0xb3, 0x35, 0xbe,
  0x7e, 0x4d, 0xde, 0x3d, 0x8c, 0xd2, 0x4e, 0x3e, 0x58, 0x9d, 0xb6, 0x3d,
  0x76, 0xa3, 0x12, 0x3e, 0x64, 0x21, 0xaf, 0xbe, 0xc9, 0xba, 0x66, 0x3e,
  0x89, 0xfa, 0x65, 0xbe, 0x53, 0xa5, 0x3e, 0xbe, 0xbe, 0xfb, 0xb6, 0x3e,
  0xce, 0x02, 0xc5, 0xbd, 0x58, 0xe3, 0xa9, 0xbd, 0x9a, 0x03, 0x8b, 0x3e,
  0xf0, 0xdb, 0xad, 0x3e, 0xf4, 0x83, 0x90, 0x3e, 0xcc, 0xaa, 0xcd, 0x3e,
  0x72, 0x01, 0x68, 0xbd, 0xfe, 0x16, 0x89, 0x3e, 0x21, 0x98, 0xb5, 0xbe,
  0x7c, 0xde, 0x48, 0x3e, 0x41, 0x3b, 0x80, 0x3f, 0x41, 0xca, 0x14, 0xbe,
  0x84, 0x43, 0x7b, 0x3e, 0xec, 0xaa, 0x12, 0xbf, 0x2a, 0x2d, 0xbe, 0x3d,
  0x52, 0x86, 0x70, 0x3d, 0xaa, 0x2d, 0xa9, 0xbe, 0x92, 0x3a, 0xf0, 0xbd,
  0x58, 0xb3, 0x57, 0xbf, 0x14, 0xb1, 0x4d, 0xbd, 0xbf, 0x3b, 0xd7, 0x3e,
  0x61, 0x6c, 0xb3, 0x3e, 0x3b, 0xb8, 0xbe, 0x3f, 0x0c, 0xdc, 0x20, 0x3e,
  0x03, 0x6c, 0xf8, 0x3c, 0x8d, 0x9c, 0x05, 0x3f, 0x7c, 0x97, 0x0c, 0x3f,
  0xc4, 0xf0, 0x29, 0x3b, 0xf8, 0xd5, 0xae, 0x3d, 0x6f, 0xbe, 0x1b, 0x3d,
  0x0f, 0x1f, 0xe8, 0x3d, 0xad, 0xa0, 0x88, 0xbe, 0x79, 0x71, 0x4b, 0x3f,
  0x57, 0x1b, 0x12, 0x3f, 0x0d, 0x33, 0x87, 0x3e, 0x73, 0x00, 0xf6, 0xbe,
  0xe2, 0x51, 0xd1, 0x3e, 0x73, 0x93, 0x17, 0xbe, 0x01, 0xf8, 0xe5, 0x3d,
  0x1a, 0x9c, 0x08, 0xbd, 0x79, 0xe1, 0x3f, 0x3f, 0x23, 0xc0, 0x53, 0x3f,
  0x2f, 0xd1, 0xc7, 0xbe, 0x81, 0x18, 0xab, 0xbe, 0xbd, 0xa8, 0x7e, 0x3e,
  0x8f, 0xfd, 0xb0, 0x3e, 0xe6, 0xac, 0xb0, 0x3b, 0x01, 0x1b, 0x93, 0x3e,
  0x42, 0x1c, 0x81, 0xbe, 0x3e, 0xe1, 0xaa, 0xbd, 0x45, 0x9f, 0x98, 0x3f,
  0x06, 0x3b, 0x64, 0xbd, 0x60, 0x1a, 0x81, 0xbe, 0x5f, 0xef, 0x1a, 0x3f,
  0xb5, 0x69, 0xae, 0x3e, 0xe3, 0x75, 0x35, 0xbd, 0x83, 0x67, 0xa7, 0x3e,
  0xf7, 0xf3, 0xd1, 0xbe, 0x8d, 0x10, 0xaa, 0xbf, 0xc1, 0xb4, 0x0d, 0xbf,
  0xec, 0x0a, 0x1e, 0x3f, 0x1a, 0x3a, 0xf9, 0x3d, 0xea, 0x0e, 0x61, 0x3d,
  0x8b, 0x41, 0x15, 0x3f, 0x83, 0x70, 0xeb, 0xbd, 0xfe, 0x58, 0x18, 0x3e,
  0x9a, 0xb6, 0x2b, 0x3e, 0x3f, 0x37, 0x35, 0xbe, 0x2b, 0xc1, 0x83, 0xbf,
  0xd7, 0x88, 0xb9, 0xbe, 0x7f, 0x2f, 0x24, 0xbe, 0x5a, 0x68, 0x8f, 0xbe,
  0x94, 0x02, 0x47, 0x3f, 0xb7, 0x6e, 0x05, 0x3f, 0x4a, 0xe9, 0xa3, 0x3f,
  0x12, 0xe4, 0x25, 0xbd, 0x13, 0x8e, 0x02, 0x3e, 0xde, 0x4d, 0xab, 0x3e,
  0x4a, 0xe1, 0xea, 0x3e, 0xd7, 0xe7, 0xc2, 0x3e, 0x6a, 0xf0, 0x30, 0xbe,
  0x9c, 0x57, 0x12, 0xbe, 0x09, 0xe4, 0xe5, 0x3e, 0x61, 0x7e, 0x19, 0x3e,
  0xd7, 0xf6, 0x41, 0xbe, 0xcb, 0x49, 0xaf, 0xbd, 0xab, 0x7e, 0xa2, 0x3f,
  0xd8, 0xe2, 0x6b, 0xbf, 0xd5, 0x9e, 0xc8, 0x3d, 0x3e, 0xf6, 0xaf, 0xbc,
  0x91, 0xea, 0xf9, 0x3e, 0x5f, 0x9c, 0x2e, 0x3c, 0x64, 0xe9, 0x39, 0xbe,
  0xaf, 0xf5, 0xe7, 0xbe, 0x3d, 0x6d, 0xba, 0xbd, 0x4f, 0xf4, 0x07, 0x3f,
  0x53, 0x35, 0x9d, 0x3f, 0xb8, 0x02, 0x97, 0x3f, 0x3d, 0xb6, 0xe6, 0x3e,
  0x88, 0xc2, 0x59, 0xbe, 0xc7, 0x77, 0xa9, 0x3e, 0x72, 0x08, 0x1d, 0xbf,
  0x6e, 0x45, 0x15, 0x3f, 0x6f, 0xaa, 0xcc, 0xbe, 0x8c, 0xd8, 0xd1, 0xbe,
  0xcc, 0xd1, 0xd3, 0x3e, 0x1e, 0x6a, 0x11, 0xbd, 0x9b, 0x72, 0x99, 0xbd,
  0x0c, 0x83, 0xf9, 0xbe, 0xc9, 0x31, 0x44, 0x3f, 0xcc, 0x69, 0xb6, 0x3e,
  0x08, 0x34, 0x84, 0x3f, 0x6a, 0x34, 0xb0, 0x3e, 0xe8, 0x8f, 0xf5, 0x3e,
  0xec, 0x76, 0xb0, 0x3f, 0xa1, 0xdf, 0x89, 0x3f, 0x1e, 0x4f, 0x2d, 0x3f,
  0x22, 0xd8, 0x15, 0x3f, 0x75, 0x28, 0xec, 0x3e, 0xb4, 0xbd, 0xf6, 0x3d,
  0xa0, 0xdd, 0xa6, 0x3e, 0x52, 0x95, 0x65, 0xbe, 0x35, 0x49, 0x4d, 0xbf,
  0x7e, 0xfb, 0x2e, 0xbf, 0x99, 0x82, 0xeb, 0x3e, 0x62, 0xce, 0x3a, 0x3e,
  0x09, 0x1d, 0x36, 0xbd, 0x7f, 0x75, 0x1a, 0x3f, 0xf3, 0x73, 0x37, 0x3f,
  0x29, 0x4d, 0x33, 0xbe, 0x47, 0xd5, 0x3c, 0xbf, 0x75, 0xfe, 0xeb, 0x3e,
  0x63, 0xfa, 0xa3, 0xbf, 0x8b, 0x79, 0xc1, 0x3e, 0xde, 0xc4, 0x79, 0x3e,
  0xa3, 0x10, 0xef, 0xbe, 0x47, 0xfe, 0x3d, 0x3c, 0xda, 0x25, 0x36, 0x3d,
  0x17, 0x5b, 0x0e, 0x3f, 0xdb, 0x9a, 0x8e, 0xbf, 0x3d, 0x67, 0x62, 0xbe,
  0x65, 0xd3, 0x5b, 0x3e, 0xcc, 0xe2, 0x9f, 0x3e, 0xeb, 0x0e, 0x76, 0xbf,
  0xae, 0xb3, 0x1e, 0xbe, 0x9f, 0x7c, 0xa6, 0x3d, 0x6f, 0x6a, 0x05, 0xbd,
  0x65, 0x9f, 0x83, 0x3d, 0x70, 0xc2, 0xd5, 0x3e, 0x0c, 0x62, 0x06, 0xbf,
  0x1e, 0x40, 0x64, 0xbe, 0x2b, 0x3a, 0x30, 0xbe, 0x9c, 0xf8, 0x7a, 0xbe,
  0xde, 0x1a, 0xd6, 0xbe, 0x5b, 0x11, 0xab, 0xbe, 0x70, 0xf5, 0xf4, 0xbd,
  0x75, 0xec, 0x4b, 0x3e, 0x09, 0x52, 0xa1, 0x3e, 0x1a, 0x7b, 0xe8, 0xbe,
  0x34, 0x78, 0xfc, 0x3e, 0xbd, 0xd5, 0x18, 0xbf, 0x05, 0x8b, 0x5e, 0x3f,
  0x69, 0x41, 0x3d, 0x3e, 0x4c, 0xee, 0xe0, 0xbd, 0x14, 0xa4, 0x89, 0xbe,
  0xd0, 0x29, 0x4b, 0xbe, 0x0d, 0xea, 0xe1, 0x3e, 0xe5, 0x97, 0x48, 0xbe,
  0x67, 0xf2, 0x90, 0xbe, 0x56, 0xe3, 0xd0, 0xbe, 0x9f, 0xd7, 0x8d, 0x3e,
  0xfe, 0xb1, 0xd2, 0x3e, 0xf3, 0xb2, 0x06, 0xbf, 0xce, 0x56, 0x4f, 0x3e,
  0x61, 0x0f, 0x93, 0xbf, 0xac, 0x5c, 0x09, 0x3f, 0x05, 0x49, 0x72, 0xbe,
  0x23, 0x80, 0x08, 0xbf, 0x2c, 0xf8, 0x5a, 0xbf, 0xba, 0x9c, 0xfb, 0xbb,
  0x5b, 0x12, 0x39, 0xbf, 0x0a, 0x01, 0x7a, 0xbe, 0x53, 0xc7, 0x41, 0x3f,
  0xf9, 0x23, 0x18, 0xbe, 0xcc, 0xb8, 0xbc, 0xbd, 0x8f, 0xa4, 0x2e, 0x3f,
  0xab, 0x5a, 0xfe, 0xbe, 0xd3, 0x74, 0x86, 0xbf, 0x87, 0xc2, 0x58, 0x3e,
  0xd9, 0x46, 0xed, 0x3d, 0xce, 0x94, 0x6d, 0xbd, 0xd6, 0x63, 0x9a, 0x3e,
  0x21, 0xc1, 0xb8, 0x3e, 0xe6, 0xd1, 0x5d, 0x3e, 0xdd, 0x97, 0xa8, 0x3e,
  0xec, 0xe2, 0x4f, 0x3e, 0xea, 0xf1, 0xb8, 0xbc, 0xda, 0x49, 0x1e, 0x3d,
  0xa0, 0x2b, 0xef, 0xbe, 0x8f, 0x16, 0x30, 0xbe, 0xc5, 0x61, 0xca, 0xbd,
  0x1d, 0x48, 0x48, 0xbe, 0xeb, 0x55, 0x23, 0x3f, 0xca, 0x3e, 0xf2, 0x3e,
  0x44, 0x64, 0x24, 0x3f, 0xa9, 0x5b, 0xa1, 0xbe, 0x84, 0x06, 0xad, 0x3d,
  0x61, 0x55, 0x1a, 0x3f, 0x65, 0x17, 0x14, 0xbe, 0x19, 0xb9, 0x72, 0x3d,
  0x29, 0x91, 0xbf, 0xbe, 0x2e, 0x04, 0x3c, 0x3b, 0x82, 0xeb, 0xab, 0xbd,
  0xc2, 0x01, 0x01, 0xbf, 0xd5, 0x2a, 0xdd, 0x3e, 0x72, 0xc9, 0x36, 0x3d,
  0xa6, 0x8a, 0xd6, 0xbf, 0x78, 0x96, 0xea, 0xbd, 0x3d, 0xa5, 0x0e, 0x3f,
  0x3c, 0x2a, 0xe7, 0x3e, 0xe2, 0x59, 0x99, 0x3e, 0x8f, 0x8e, 0x9a, 0xbe,
  0xfa, 0xdc, 0xcd, 0xbe, 0xaa, 0x51, 0x68, 0x3c, 0x43, 0xef, 0x07, 0xbf,
  0x03, 0x3e, 0x2e, 0x3f, 0x78, 0x66, 0xc3, 0x3d, 0x1b, 0xca, 0x8f, 0xbf,
  0x76, 0x9f, 0xca, 0xbe, 0xa1, 0x3f, 0x35, 0x3f, 0x0c, 0x63, 0x35, 0x3e,
  0x01, 0xed, 0x71, 0xbe, 0x6c, 0xfe, 0x88, 0xbf, 0x9f, 0x65, 0x90, 0x3e,
  0x4b, 0x21, 0x9d, 0xbb, 0xa0, 0x1b, 0x01, 0x3f, 0x07, 0xd0, 0x97, 0xbe,
  0x51, 0x31, 0xa8, 0x3e, 0x10, 0xe2, 0x9a, 0x3e, 0x7d, 0x4f, 0x05, 0x3e,
  0xf9, 0xb7, 0x8d, 0xbe, 0x4c, 0x7d, 0x72, 0xbd, 0x84, 0x7d, 0xc1, 0x3f,
  0x83, 0x3c, 0x53, 0xbe, 0x0f, 0xe9, 0x55, 0xbe, 0x1d, 0x7a, 0x56, 0xbf,
  0x5a, 0x0a, 0x05, 0xbf, 0x99, 0xa1, 0xdb, 0xbc, 0x38, 0x0e, 0x08, 0x3d,
  0x84, 0xdf, 0x90, 0xbd, 0xad, 0x1b, 0x9d, 0x3d, 0x29, 0x33, 0x40, 0x3e,
  0xcd, 0x99, 0xe4, 0xbd, 0x81, 0xa8, 0x70, 0x3e, 0x45, 0xcd, 0xd5, 0xbc,
  0x13, 0x43, 0x36, 0x3f, 0x0f, 0x6a, 0xf8, 0x3e, 0xaf, 0xb0, 0x19, 0xbe,
  0x70, 0x9c, 0x3b, 0xbf, 0x93, 0x1a, 0xb3, 0xbd, 0xe7, 0xd8, 0x2d, 0xbf,
  0x65, 0xb8, 0x8a, 0xbd, 0xc3, 0xb9, 0x1b, 0xbf, 0xa0, 0x82, 0xfe, 0x3e,
  0x04, 0xf3, 0x43, 0xbe, 0x42, 0xef, 0x44, 0xbf, 0xeb, 0x04, 0x19, 0x3f,
  0xff, 0x13, 0xbb, 0x3e, 0xb7, 0x12, 0xb0, 0x3c, 0x34, 0x6a, 0x10, 0x3e,
  0xb0, 0x74, 0xd3, 0xbe, 0xb5, 0x72, 0xf2, 0xbe, 0xc3, 0x37, 0xa3, 0xbe,
  0xca, 0xaa, 0xe0, 0x3e, 0x79, 0x58, 0x43, 0xbd, 0xd5, 0xc1, 0x99, 0x3c,
  0xdb, 0x09, 0x62, 0x3e, 0x7a, 0x51, 0xc3, 0x3d, 0x4c, 0xa1, 0x95, 0x3e,
  0x1d, 0x6c, 0xcb, 0xbe, 0x4d, 0x21, 0xf9, 0xbd, 0x20, 0x90, 0x46, 0xbf,
  0x14, 0xaa, 0xae, 0x3d, 0xc7, 0x0c, 0xc0, 0xbe, 0xb8, 0xb5, 0xed, 0x3e,
  0x01, 0x60, 0xe8, 0x3d, 0xc9, 0x28, 0x23, 0x3f, 0x44, 0xaa, 0xb2, 0x3d,
  0xc0, 0x29, 0xb4, 0x3c, 0x1e, 0x7e, 0x7f, 0x3d, 0x64, 0x4e, 0x6b, 0xbd,
  0x0e, 0xf1, 0xdd, 0xbe, 0xc7, 0x15, 0x84, 0x3f, 0xa7, 0x7d, 0x23, 0xbf,
  0xec, 0xa6, 0xe2, 0x3d, 0xfe, 0x5a, 0x64, 0x3e, 0x4f, 0xd3, 0xb4, 0x3e,
  0xd0, 0x8e, 0x1d, 0xbf, 0xd4, 0x60, 0x87, 0x3e, 0x33, 0xe6, 0x43, 0xbe,
  0x0e, 0xb1, 0x2b, 0x3d, 0x0c, 0x43, 0x47, 0x3d, 0x7c, 0x3e, 0x83, 0x3f,
  0x26, 0xc8, 0xb6, 0x3e, 0x0f, 0x35, 0x0a, 0x3e, 0x98, 0x53, 0xb0, 0xbd,
  0x59, 0x16, 0xbf, 0x3f, 0xbe, 0xe2, 0x6e, 0x3e, 0xf0, 0x18, 0x03, 0x3f,
  0xf3, 0xde, 0x2a, 0x3e, 0x7f, 0xbd, 0x40, 0x3e, 0x26, 0x6d, 0x57, 0xbe,
  0xc5, 0x70, 0x88, 0xbd, 0x3a, 0x04, 0x41, 0x3f, 0xbe, 0xe5, 0x00, 0xbd,
  0xbf, 0x3c, 0x1f, 0xbe, 0xcf, 0x43, 0x7f, 0x3f, 0x9c, 0xb0, 0x96, 0x3e,
  0x12, 0x1f, 0x75, 0x3d, 0x43, 0xa1, 0xcd, 0x3e, 0x59, 0x77, 0x84, 0x3e,
  0x4e, 0xfd, 0x16, 0x3f, 0x10, 0xbb, 0x93, 0x3f, 0x2b, 0x1a, 0xa7, 0x3c,
  0xe3, 0xbb, 0x2d, 0xbd, 0xea, 0x6e, 0xe2, 0xbc, 0x0c, 0x82, 0x1a, 0xbe,
  0x73, 0x69, 0x28, 0xbf, 0xa5, 0x51, 0x0a, 0x3f, 0xe9, 0x4a, 0x16, 0xbf,
  0x20, 0xa4, 0x80, 0x3f, 0x3c, 0x72, 0x78, 0xbf, 0xce, 0xe7, 0x79, 0x3e,
  0x3c, 0xd7, 0x8f, 0xbd, 0x68, 0x86, 0xa9, 0x3f, 0x28, 0x6c, 0x33, 0x3e,
  0x32, 0x20, 0x66, 0xbe, 0x72, 0xfc, 0x66, 0xbe, 0xdb, 0x2e, 0x1f, 0xbf,
  0x03, 0x60, 0xbc, 0xbd, 0x5b, 0x3d, 0xfe, 0x3e, 0x06, 0x8c, 0x3b, 0x3e,
  0xf9, 0x44, 0x67, 0x3e, 0x9b, 0x2d, 0x43, 0xbe, 0x33, 0xbb, 0xc5, 0x3d,
  0xc2, 0xa1, 0x2a, 0x3e, 0xde, 0x4a, 0xd5, 0xbd, 0x50, 0xc9, 0xb9, 0xbe,
  0x5d, 0x1c, 0xd5, 0xbd, 0xa4, 0x9f, 0x25, 0x3e, 0x81, 0x90, 0x45, 0xbe,
  0xe7, 0x6f, 0x3a, 0x3f, 0x6a, 0x1b, 0x0f, 0xbf, 0xbb, 0x27, 0x6a, 0x3f,
  0x00, 0x9f, 0x20, 0x3e, 0xd2, 0x4f, 0xbc, 0x3d, 0x20, 0x30, 0x1e, 0xbf,
  0x4b, 0x9f, 0x58, 0x3e, 0x43, 0x0e, 0xd7, 0x3e, 0x25, 0x41, 0xaa, 0x3e,
  0x05, 0xfb, 0xf2, 0x3e, 0xe1, 0xf6, 0x06, 0x3f, 0xf5, 0x23, 0xeb, 0x3e,
  0x9c, 0x38, 0xaa, 0x3e, 0x8f, 0x97, 0x61, 0xbe, 0xaa, 0x0a, 0xfe, 0x3e,
  0x97, 0x87, 0xdd, 0x3e, 0x3a, 0x39, 0x4a, 0x3f, 0x5b, 0x7d, 0x97, 0x3d,
  0x92, 0xb9, 0xca, 0xbe, 0x50, 0x0d, 0x98, 0x3f, 0x3d, 0x6b, 0x64, 0x3f,
  0x33, 0x19, 0x05, 0xbf, 0xa0, 0x9d, 0xbd, 0xbe, 0x67, 0xc5, 0x39, 0xbd,
  0x5c, 0xbf, 0x8c, 0x3e, 0xd4, 0x5a, 0x11, 0x3e, 0x86, 0xec, 0xd6, 0x3e,
  0xa5, 0x8e, 0x8e, 0xbd, 0x17, 0x8d, 0xe1, 0xbe, 0x80, 0x89, 0x46, 0xbf,
  0x53, 0x7a, 0xad, 0xbe, 0xe4, 0xa2, 0x6d, 0x3d, 0x47, 0xad, 0x09, 0x3e,
  0xb3, 0x15, 0x2c, 0x3f, 0x66, 0x59, 0xbd, 0x3c, 0xce, 0xeb, 0x5f, 0xbf,
  0x19, 0x00, 0x6f, 0x3e, 0x70, 0x1f, 0x05, 0xbf, 0x8f, 0xbe, 0xf8, 0x3d,
  0x62, 0x53, 0x07, 0xbf, 0xd1, 0xd6, 0xe3, 0x3d, 0xa4, 0x63, 0xd0, 0x3e,
  0xd5, 0x50, 0x22, 0x3f, 0xe4, 0xe7, 0x83, 0x3f, 0x42, 0xc0, 0xd0, 0xbe,
  0xd0, 0xe2, 0x15, 0xbf, 0xb7, 0x14, 0xd1, 0xbe, 0x96, 0x1d, 0x74, 0xbe,
  0x4f, 0x1a, 0x54, 0x3e, 0x5e, 0x44, 0x6a, 0xbf, 0xaa, 0xc4, 0xd5, 0x3e,
  0x83, 0x99, 0xd3, 0xbe, 0x75, 0x79, 0x93, 0x3b, 0xd7, 0x7f, 0x4b, 0x3f,
  0x32, 0xe1, 0xc5, 0x3e, 0xdd, 0x24, 0x3b, 0x3f, 0xc0, 0x57, 0x7b, 0x3e,
  0xec, 0x63, 0xca, 0x3e, 0x29, 0x51, 0x44, 0xbe, 0x13, 0x5b, 0xe2, 0x3e,
  0x5c, 0x4a, 0x65, 0x3e, 0x92, 0xaa, 0x9b, 0x3b, 0x9f, 0x35, 0xef, 0x3e,
  0x4d, 0x66, 0x4e, 0x3f, 0xd5, 0x2f, 0xb7, 0x3d, 0xc7, 0xf0, 0x68, 0x3e,
  0x16, 0x3d, 0x9a, 0x3e, 0xd6, 0x23, 0x8d, 0xbe, 0x90, 0xbb, 0xaa, 0x3d,
  0xbe, 0x57, 0x14, 0x3e, 0x69, 0xa2, 0xa9, 0xbf, 0xd4, 0xa5, 0x6a, 0xbe,
  0x53, 0xf6, 0x6a, 0xbc, 0x9a, 0xac, 0x52, 0x3e, 0x07, 0x6e, 0x23, 0xbf,
  0x2d, 0xc3, 0x26, 0x3f, 0x37, 0xb6, 0xa2, 0xbe, 0x2e, 0x7f, 0x76, 0x3f,
  0x2b, 0xf1, 0x1f, 0x3f, 0x86, 0xfb, 0x41, 0x3f, 0x21, 0x20, 0x44, 0xbe,
  0xd5, 0x13, 0x9c, 0x3a, 0xbc, 0x39, 0x17, 0x3f, 0xd3, 0x04, 0xd4, 0x3e,
  0x3d, 0x20, 0x31, 0xbf, 0xb5, 0xae, 0x15, 0x3d, 0x1a, 0x0c, 0x6a, 0xbf,
  0x7c, 0x29, 0xc9, 0xbe, 0xe3, 0x45, 0x43, 0xbe, 0x0e, 0x84, 0x6b, 0xbe,
  0x14, 0xab, 0xad, 0x3e, 0x35, 0xc8, 0xe0, 0x3d, 0x13, 0xfa, 0x94, 0xbf,
  0xe5, 0xb1, 0x34, 0xbd, 0xfe, 0xb5, 0xd7, 0x3d, 0xb2, 0x6f, 0xbe, 0x3d,
  0xe3, 0xf5, 0x75, 0x3f, 0x1d, 0x61, 0x28, 0x3f, 0xd7, 0x20, 0x0b, 0xbf,
  0xf1, 0x2e, 0xc9, 0x3d, 0x76, 0xe1, 0x81, 0xbe, 0x46, 0xf5, 0x71, 0xbf,
  0xd5, 0xf0, 0xb2, 0x3e, 0x12, 0x35, 0x67, 0xbe, 0x6e, 0x5b, 0x13, 0xbd,
  0x05, 0xa6, 0xa4, 0xbe, 0xb7, 0xf4, 0x4d, 0xbf, 0x6b, 0x49, 0x26, 0x3d,
  0x2a, 0x36, 0x2b, 0xbf, 0x48, 0x3c, 0x09, 0x3e, 0x3c, 0x84, 0x93, 0xbd,
  0xa6, 0x73, 0xab, 0x3e, 0x6b, 0x31, 0xfa, 0xbc, 0xb7, 0x0b, 0x17, 0xbe,
  0x50, 0x37, 0x6a, 0x3e, 0xde, 0x31, 0x5c, 0x3c, 0xbc, 0x5b, 0x0a, 0x3d,
  0x69, 0x63, 0x07, 0x3e, 0x24, 0xf4, 0x5d, 0x3d, 0xb1, 0x56, 0x57, 0xbe,
  0xe7, 0x3d, 0xd4, 0xbc, 0x63, 0xeb, 0x14, 0xbf, 0x60, 0x64, 0xdf, 0x3c,
  0x04, 0xd6, 0xbf, 0x3c, 0x52, 0x1c, 0x30, 0x3f, 0x63, 0xd5, 0x8f, 0xbd,
  0x85, 0xfe, 0x99, 0x3e, 0xea, 0xe8, 0x2b, 0x3e, 0xed, 0x09, 0x9e, 0x3e,
  0xf4, 0x06, 0xdd, 0xbe, 0xd7, 0xb0, 0xc4, 0x3e, 0xc5, 0xf8, 0x6c, 0xbd,
  0xd0, 0xc2, 0xa5, 0xbe, 0x57, 0x5f, 0xac, 0xbe, 0xbb, 0xca, 0x80, 0x3d,
  0x3a, 0x98, 0x8f, 0xbd, 0xf3, 0x6a, 0xf6, 0x3c, 0xdf, 0xf9, 0x99, 0xbe,
  0xbd, 0xcb, 0xb7, 0xbe, 0x47, 0x56, 0x2d, 0x3f, 0xb5, 0xd3, 0x11, 0x3e,
  0xf4, 0x9a, 0x05, 0xbf, 0x9d, 0xf6, 0x17, 0xbd, 0x6f, 0x00, 0x06, 0xbf,
  0xf5, 0x93, 0x75, 0xbd, 0xf5, 0xdc, 0x03, 0xbf, 0xf6, 0x0d, 0x0f, 0xbe,
  0x96, 0xe3, 0x2c, 0x3e, 0x25, 0xa1, 0x43, 0xbe, 0x60, 0x74, 0x08, 0x3e,
  0xfc, 0x5a, 0x01, 0xbf, 0xd7, 0xc0, 0x39, 0xbf, 0x5f, 0xda, 0x9c, 0xbd,
  0x09, 0x56, 0xf6, 0x3c, 0x4a, 0x33, 0xc1, 0x3b, 0x43, 0x26, 0xff, 0x3e,
  0x7d, 0xe3, 0x48, 0xbf, 0x62, 0x72, 0x41, 0x3d, 0x76, 0xc1, 0x28, 0x3e,
  0x44, 0x3e, 0x9c, 0xbd, 0x19, 0x46, 0xc7, 0x3d, 0xee, 0xa0, 0x80, 0x3d,
  0xd6, 0x6a, 0x82, 0xbe, 0xfa, 0x4e, 0x25, 0x3e, 0x55, 0x94, 0x21, 0x3d,
  0x80, 0xb5, 0x73, 0x3e, 0x95, 0x8f, 0x8d, 0x3e, 0x51, 0x9c, 0xfb, 0x3d,
  0xd5, 0x5e, 0x9b, 0x3e, 0x8d, 0x94, 0x9a, 0xbe, 0x20, 0x72, 0x0e, 0x3c,
  0xc7, 0x8b, 0x96, 0x3f, 0x30, 0xf1, 0x49, 0x3e, 0x10, 0xf3, 0x7e, 0x3e,
  0x3e, 0xaf, 0x1d, 0xbf, 0xa1, 0x87, 0x1a, 0x3c, 0xf4, 0x0d, 0x5f, 0x3d,
  0xcd, 0x6b, 0xca, 0x3d, 0x2d, 0x30, 0x6e, 0x3f, 0xa2, 0xec, 0xae, 0xbf,
  0x67, 0x36, 0xd3, 0xbb, 0xc5, 0x7b, 0xc0, 0x3d, 0x9f, 0xcb, 0x9f, 0x3e,
  0x1b, 0x11, 0xfe, 0x3d, 0x3d, 0xb5, 0x22, 0x3f, 0x9b, 0x46, 0x1a, 0xbf,
  0x39, 0x07, 0x97, 0xbe, 0x53, 0x95, 0x33, 0xbe, 0x30, 0x7d, 0x8b, 0x3f,
  0x8d, 0xfc, 0x9b, 0x3d, 0x35, 0x4c, 0x92, 0x3e, 0x4a, 0x5d, 0xf7, 0xbe,
  0x56, 0x41, 0x08, 0xbd, 0xb0, 0x08, 0x32, 0x3e, 0xbe, 0x96, 0x42, 0x3f,
  0xa2, 0x24, 0xbc, 0xbe, 0xe6, 0x84, 0xe1, 0x3d, 0xa3, 0x0a, 0x76, 0x3e,
  0xb6, 0x8a, 0xc0, 0xbe, 0x4f, 0x80, 0x18, 0x3e, 0xcb, 0x5d, 0xa4, 0xbe,
  0x8b, 0xb3, 0xb0, 0xbe, 0xf7, 0x04, 0xb7, 0xbe, 0xe7, 0x47, 0x5b, 0xbd,
  0x90, 0x95, 0x96, 0x3e, 0x74, 0xd4, 0x4b, 0xbf, 0xb7, 0x4e, 0x3b, 0x3d,
  0xbd, 0x1e, 0x30, 0xbf, 0x59, 0xd0, 0x9a, 0xbe, 0x2a, 0x96, 0x4e, 0xbf,
  0x3d, 0x7a, 0x7e, 0xbe, 0xe2, 0x52, 0x08, 0xbe, 0xd4, 0x40, 0xa3, 0x3e,
  0x83, 0xd6, 0x31, 0xbd, 0xd4, 0x11, 0x80, 0xbf, 0x36, 0x99, 0x30, 0x3f,
  0x87, 0xe1, 0x36, 0xbc, 0x10, 0x19, 0x0c, 0x3e, 0xbf, 0xd2, 0x6d, 0xbe,
  0x9c, 0xb4, 0x9c, 0xbd, 0x52, 0x99, 0x68, 0xbe, 0xf7, 0xb4, 0x60, 0x3f,
  0x61, 0x8e, 0xef, 0xbe, 0x46, 0x55, 0xe4, 0x3c, 0x51, 0xd0, 0x59, 0x3f,
  0x03, 0xfd, 0xd1, 0x3e, 0x3a, 0xde, 0x11, 0x3e, 0x63, 0x27, 0x5c, 0xbe,
  0xf8, 0x9e, 0x1a, 0x3e, 0x12, 0x07, 0x30, 0xbf, 0x29, 0x3f, 0x57, 0xbf,
  0x30, 0x60, 0x9d, 0xbe, 0x29, 0x31, 0x69, 0xbe, 0x13, 0x42, 0xc2, 0x3e,
  0x1f, 0xa9, 0x88, 0x3e, 0xa6, 0x10, 0x73, 0xbe, 0xce, 0xf8, 0xf9, 0xbe,
  0x0d, 0xef, 0xad, 0x3e, 0x35, 0x3a, 0x40, 0xbd, 0x85, 0xed, 0xf1, 0xbe,
  0x8f, 0xf9, 0x50, 0x3d, 0x23, 0xa9, 0x14, 0xbd, 0x26, 0x1b, 0x30, 0xbe,
  0x18, 0x70, 0x48, 0x3c, 0x08, 0x46, 0xa5, 0xbd, 0x98, 0x5a, 0x6c, 0xbf,
  0x36, 0x8c, 0x61, 0x3e, 0xec, 0x0b, 0x9d, 0x3e, 0x44, 0x1c, 0x09, 0x3e,
  0x85, 0x4f, 0xc5, 0x3e, 0xdd, 0x75, 0x85, 0x3e, 0xcf, 0xda, 0xa8, 0x3e,
  0x59, 0x69, 0x84, 0x3e, 0x05, 0x3e, 0x57, 0xbd, 0x8d, 0x86, 0x31, 0x3d,
  0xf6, 0x6e, 0x05, 0x3d, 0xde, 0xf5, 0x08, 0xbb, 0xfa, 0x6a, 0x78, 0x3d,
  0x47, 0xb0, 0x1c, 0x3e, 0x1c, 0xdb, 0x85, 0xbe, 0xa8, 0xa1, 0xad, 0x3e,
  0x99, 0x92, 0xbd, 0x3c, 0x13, 0x9d, 0x0d, 0x3e, 0x60, 0x16, 0x57, 0xbd,
  0x08, 0x0f, 0xcc, 0x3e, 0xe6, 0xeb, 0xb6, 0x3e, 0x98, 0x4b, 0xf3, 0x3e,
  0xcd, 0xed, 0x7f, 0x3e, 0xd7, 0xf5, 0x12, 0x3e, 0xe3, 0x51, 0xd8, 0xbd,
  0x3c, 0x0e, 0x09, 0xbf, 0xf4, 0xc3, 0x1f, 0x3e, 0xb8, 0xa9, 0x6d, 0x3d,
  0xd9, 0x76, 0x0b, 0xbe, 0x08, 0xed, 0xf7, 0x3e, 0x62, 0xd8, 0xf2, 0xbe,
  0x0c, 0x92, 0x04, 0xbf, 0x46, 0x1e, 0x0b, 0x3f, 0x6d, 0xca, 0xb3, 0x3e,
  0x3a, 0x06, 0xad, 0x3e, 0x1b, 0xcc, 0xa5, 0xbd, 0x5a, 0x0e, 0x5d, 0x3e,
  0x4a, 0xb0, 0x9a, 0x3e, 0x4c, 0xa9, 0xc3, 0xbe, 0x52, 0x6c, 0x36, 0xbd,
  0x65, 0x4e, 0xe9, 0xbe, 0xb3, 0xe9, 0x0a, 0x3e, 0xf3, 0xee, 0xe2, 0xbd,
  0xc2, 0x42, 0x04, 0xbe, 0xde, 0x28, 0xd1, 0xbe, 0xbf, 0x06, 0x01, 0x3e,
  0x6c, 0xfa, 0x7c, 0xbf, 0x00, 0x99, 0x5c, 0xbb, 0xc6, 0x30, 0x9f, 0x3e,
  0xce, 0xb3, 0x2a, 0xbe, 0x9c, 0x6c, 0x7f, 0xbd, 0x68, 0x69, 0xf2, 0x3d,
  0x85, 0xcb, 0xfb, 0xbd, 0xea, 0xe4, 0xb1, 0x3e, 0x00, 0x52, 0x00, 0x3f,
  0x05, 0x6d, 0x52, 0xbe, 0x73, 0xeb, 0x4d, 0x3e, 0x17, 0x74, 0x8d, 0xbe,
  0x13, 0x11, 0xc8, 0xbf, 0x9c, 0x50, 0x0b, 0x3e, 0xbc, 0xd6, 0x7a, 0xbe,
  0x8e, 0x4e, 0x5a, 0xbe, 0x61, 0xfc, 0x17, 0x3f, 0x52, 0x64, 0x9d, 0x3d,
  0x97, 0xad, 0xab, 0xbe, 0xd9, 0xdc, 0xf6, 0x3d, 0x4c, 0x18, 0x58, 0x3e,
  0xe0, 0xe1, 0x4f, 0xbf, 0x57, 0x57, 0xda, 0xbe, 0xa0, 0x00, 0x4f, 0x3e,
  0xd3, 0xc0, 0x98, 0x3e, 0x72, 0x75, 0xdd, 0xbe, 0xd3, 0xde, 0x50, 0xbe,
  0x31, 0x03, 0x82, 0xbf, 0x8c, 0xe0, 0x10, 0x3e, 0xe2, 0x59, 0x83, 0x3e,
  0xe0, 0x16, 0x5f, 0xbf, 0x60, 0xc5, 0x16, 0xbe, 0xf6, 0xb8, 0x06, 0x3d,
  0x69, 0x53, 0x6b, 0xbe, 0x6f, 0x07, 0x08, 0xbf, 0x4c, 0x9c, 0x15, 0xbf,
  0x46, 0x21, 0x06, 0x3f, 0x7b, 0x7c, 0x90, 0x3e, 0xb9, 0xbd, 0xff, 0x3b,
  0xcf, 0xaa, 0xfe, 0x3d, 0xfe, 0x86, 0x44, 0x3f, 0x14, 0x44, 0xe3, 0x3e,
  0xe6, 0xc0, 0x25, 0x3d, 0xb3, 0xae, 0xfe, 0xbe, 0x7f, 0x7e, 0x1c, 0xbe,
  0xe6, 0xe5, 0x82, 0x3e, 0x24, 0xe3, 0x6f, 0xbd, 0x81, 0xa0, 0x43, 0xbf,
  0x22, 0x4f, 0x06, 0xbe, 0x18, 0xc2, 0x3e, 0xbf, 0x5a, 0x80, 0xb9, 0xbe,
  0x7b, 0x4d, 0x61, 0xbe, 0xa2, 0x31, 0x04, 0x3f, 0x08, 0xe0, 0x35, 0xbe,
  0x5e, 0xd1, 0xce, 0x3d, 0x74, 0x54, 0x8d, 0xbf, 0x8c, 0x60, 0x94, 0xbe,
  0x7c, 0x63, 0x32, 0xbf, 0x1f, 0x65, 0x4f, 0xbe, 0x37, 0x03, 0x26, 0x3d,
  0xbe, 0x5f, 0x68, 0xbc, 0x42, 0x72, 0x23, 0x3f, 0x4c, 0xe3, 0xa4, 0xbe,
  0x42, 0x8f, 0x0e, 0x3e, 0xa0, 0xa3, 0x94, 0x3e, 0xf7, 0x9d, 0x39, 0x3d,
  0x41, 0x88, 0xa8, 0x3d, 0x32, 0xc5, 0x44, 0xbf, 0x9d, 0xf8, 0x31, 0xbf,
  0x5c, 0x42, 0x0b, 0x3f, 0xd8, 0x59, 0x07, 0xbf, 0x2f, 0x5a, 0x9e, 0xbd,
  0x8c, 0xc4, 0x38, 0x3f, 0x37, 0x0a, 0x37, 0xbf, 0x23, 0x48, 0x30, 0xbf,
  0xbc, 0x16, 0xf7, 0x3d, 0x03, 0xb7, 0xb5, 0x3d, 0x4c, 0x0a, 0x10, 0x3e,
  0xf4, 0xae, 0x3d, 0xbf, 0x5e, 0xe0, 0xab, 0xbb, 0x84, 0xb7, 0x31, 0x3f,
  0xaa, 0x1c, 0xa4, 0x3c, 0x87, 0xbe, 0xf4, 0xbc, 0xca, 0x4d, 0x03, 0x3d,
  0xd2, 0x4c, 0x37, 0x3e, 0xed, 0x0a, 0x89, 0x3d, 0x55, 0x1c, 0x24, 0x3f,
  0x30, 0x97, 0x5b, 0xbe, 0xec, 0xf4, 0x1c, 0x3f, 0x44, 0x97, 0xbc, 0x3e,
  0x78, 0x99, 0x1c, 0x3f, 0x41, 0xdc, 0x9f, 0xbe, 0x76, 0x5b, 0xeb, 0xbe,
  0xb1, 0x07, 0x31, 0x3e, 0xe2, 0x86, 0x85, 0x3e, 0xa7, 0x9c, 0xd3, 0x3d,
  0xb5, 0xd9, 0x8d, 0xbe, 0x00, 0x22, 0xba, 0xbe, 0x61, 0xb3, 0x37, 0xbf,
  0x28, 0x7b, 0x83, 0xbf, 0x3d, 0x5d, 0xb6, 0xbe, 0xd1, 0x8a, 0xbb, 0x3e,
  0x46, 0x33, 0x0d, 0x3c, 0x6c, 0x77, 0x2e, 0xbf, 0x8e, 0x7d, 0x07, 0xbe,
  0xb4, 0xc2, 0xa8, 0x3d, 0x6b, 0x94, 0x04, 0xbe, 0x96, 0x8d, 0x5e, 0x3f,
  0xe0, 0x17, 0x7a, 0xbc, 0xff, 0x5c, 0x98, 0x3d, 0x22, 0x75, 0x0d, 0x3f,
  0xad, 0x24, 0x6b, 0x3d, 0x12, 0x83, 0x71, 0x3f, 0x45, 0x50, 0xfb, 0xbc,
  0x3f, 0xb6, 0xb8, 0x3e, 0x01, 0xf6, 0x6a, 0xbe, 0xa5, 0xac, 0xa3, 0x3e,
  0xca, 0x92, 0xb6, 0x3e, 0xac, 0x42, 0x0c, 0x3f, 0x74, 0x38, 0x3e, 0xbe,
  0xe7, 0xbf, 0x2a, 0x3f, 0x43, 0x05, 0x04, 0xbf, 0xe4, 0x10, 0x6e, 0x3e,
  0xf1, 0xe8, 0x09, 0xbf, 0x49, 0x09, 0xc7, 0xbd, 0x32, 0xdc, 0xde, 0x3e,
  0x10, 0xf4, 0xc7, 0x3e, 0xf3, 0x3a, 0xe7, 0xbc, 0xf0, 0x10, 0x0f, 0xbe,
  0x4a, 0x01, 0x26, 0x3f, 0x3e, 0x8d, 0x12, 0xbf, 0x54, 0x16, 0x66, 0xbe,
  0x66, 0xfc, 0xff, 0xff, 0x04, 0x00, 0x00, 0x00, 0x00, 0x03, 0x00, 0x00,
  0xc9, 0x1b, 0x19, 0xba, 0x93, 0x00, 0x85, 0xbe, 0xb2, 0x14, 0x9d, 0x3b,
  0xcd, 0x1b, 0x2c, 0xb8, 0xad, 0xc4, 0xc6, 0xbb, 0x3e, 0x9b, 0x11, 0x3c,
  0x7f, 0x36, 0x2c, 0xbd, 0xd4, 0x3e, 0x04, 0xbc, 0x82, 0x47, 0x8a, 0x3c,
  0x7f, 0x6c, 0xc7, 0x3b, 0x41, 0x19, 0x59, 0xbc, 0xbb, 0x9d, 0xa2, 0xbd,
  0xdc, 0x56, 0x2d, 0xbb, 0xde, 0xeb, 0x6f, 0x3a, 0x21, 0x40, 0xcc, 0xbb,
  0x42, 0xc9, 0x15, 0x3e, 0x98, 0xa6, 0x7b, 0xbd, 0x23, 0x24, 0x39, 0x3b,
  0x45, 0x73, 0xd8, 0x39, 0x1a, 0xdd, 0x7a, 0xbe, 0xa3, 0x44, 0x30, 0x3c,
  0xc5, 0x38, 0xf5, 0xbb, 0xd2, 0xc7, 0x9e, 0x3c, 0xe6, 0x9a, 0x26, 0x3b,
  0xc2, 0x69, 0x42, 0x3d, 0x95, 0x41, 0x18, 0xbc, 0x5b, 0xfd, 0x6a, 0x3a,
  0x01, 0xa4, 0xd6, 0x3c, 0x7e, 0xd4, 0x4e, 0xbd, 0x8f, 0x0a, 0x45, 0xbb,
  0x21, 0xdf, 0x80, 0x3c, 0x17, 0xf8, 0xd8, 0x3b, 0xb1, 0x00, 0xac, 0xba,
  0x1c, 0x30, 0xe3, 0x3d, 0xf5, 0xc4, 0xc9, 0xb6, 0xd9, 0xef, 0xa9, 0x39,
  0xd7, 0x74, 0xa3, 0xbb, 0x5b, 0x8c, 0x5d, 0x3b, 0xea, 0xbb, 0x3b, 0xbc,
  0x1a, 0x75, 0x97, 0xba, 0xb0, 0x7c, 0xf8, 0xbb, 0xce, 0x23, 0xf7, 0x3a,
  0x78, 0x85, 0x7e, 0x3d, 0xc8, 0xc5, 0xc5, 0x3d, 0x4d, 0xc4, 0xdf, 0xb9,
  0x36, 0xec, 0xda, 0x39, 0x7f, 0x37, 0x08, 0xba, 0x3e, 0x19, 0x9c, 0x3d,
  0xf1, 0x77, 0x67, 0xbc, 0x18, 0x2f, 0x27, 0xbb, 0x19, 0x0a, 0x52, 0x3b,
  0x1b, 0xfe, 0x1e, 0x3d, 0xca, 0xd8, 0x98, 0x3c, 0x45, 0x5f, 0x62, 0xbb,
  0xbd, 0x80, 0x54, 0x3c, 0xe1, 0x87, 0xe6, 0x3a, 0x29, 0x3d, 0xc3, 0xbd,
  0xbb, 0x8c, 0x80, 0xbd, 0xd3, 0xfd, 0x24, 0xbd, 0x92, 0xd2, 0x34, 0x3c,
  0x52, 0x0b, 0xd0, 0xbb, 0xe4, 0xca, 0x71, 0x3a, 0x60, 0xda, 0xf8, 0xbd,
  0x24, 0xfc, 0xa8, 0x3d, 0x7b, 0x54, 0xc6, 0x38, 0x04, 0xdc, 0xcd, 0x3d,
  0x63, 0x7e, 0x16, 0xbc, 0x7b, 0xce, 0x16, 0xbb, 0x70, 0x4b, 0x01, 0x3c,
  0xb8, 0xaf, 0x5b, 0xbc, 0x85, 0x38, 0x70, 0x3b, 0xe9, 0xe5, 0x31, 0x3c,
  0x51, 0xfb, 0x04, 0x3c, 0x9f, 0xf9, 0x57, 0xbc, 0xfa, 0x1a, 0xd7, 0x3b,
  0x1d, 0xf7, 0x5d, 0xbc, 0xfd, 0xa4, 0xc5, 0xb8, 0x4f, 0x68, 0x73, 0x39,
  0x2c, 0x20, 0x18, 0x3c, 0x39, 0x7f, 0x6d, 0xbd, 0x62, 0x92, 0x15, 0xbc,
  0xa6, 0x35, 0x1a, 0x3a, 0xf8, 0xb8, 0x84, 0x3a, 0x50, 0xde, 0x1c, 0x3b,
  0x6e, 0xc9, 0x13, 0x3c, 0x31, 0xd9, 0xe7, 0x3b, 0xbb, 0x32, 0x8a, 0xbc,
  0x81, 0x44, 0x96, 0xbb, 0x7b, 0xaa, 0xb5, 0xbc, 0xce, 0xba, 0x83, 0xbc,
  0x0f, 0x57, 0x02, 0xbb, 0x19, 0x50, 0x5e, 0xbc, 0x61, 0x4b, 0x3d, 0xbd,
  0xb7, 0x8a, 0xb8, 0x3b, 0xc7, 0x59, 0x1b, 0x3c, 0x6d, 0xe4, 0x7c, 0xbc,
  0x15, 0x30, 0xc7, 0x39, 0x08, 0x1f, 0x30, 0xbd, 0xfe, 0xbe, 0x1e, 0xbb,
  0x4e, 0xf2, 0x96, 0xba, 0xbb, 0xf7, 0x60, 0x3b, 0x4d, 0xab, 0x7c, 0xbb,
  0x53, 0xe7, 0x27, 0xbd, 0xe5, 0x87, 0x6c, 0x3b, 0x10, 0xae, 0x11, 0x3c,
  0x0d, 0xc9, 0x6a, 0xbb, 0x2a, 0xcf, 0x08, 0xbd, 0x4a, 0x49, 0x70, 0x3c,
  0xd6, 0x2d, 0x15, 0xbb, 0xac, 0x75, 0x60, 0xba, 0x16, 0x90, 0x48, 0x3b,
  0x0f, 0xbb, 0x23, 0x3e, 0x6d, 0xee, 0x88, 0xbc, 0x57, 0x3a, 0xf4, 0x3a,
  0xd4, 0x70, 0x31, 0xba, 0xbe, 0xe8, 0x9f, 0xbd, 0x94, 0x58, 0x62, 0x3b,
  0x3f, 0xa1, 0x0d, 0x3b, 0xcb, 0x38, 0x28, 0x3e, 0x43, 0xa5, 0x51, 0xbb,
  0xc5, 0x17, 0xfc, 0xbd, 0x2a, 0x47, 0x62, 0x3e, 0x28, 0x7a, 0x7d, 0xbc,
  0xf1, 0x51, 0xea, 0x3c, 0x14, 0xf7, 0xd9, 0xbd, 0x8e, 0x2f, 0x49, 0x3b,
  0xfd, 0x06, 0x5e, 0xbd, 0xb6, 0x54, 0x08, 0xbd, 0x94, 0x66, 0x4e, 0xba,
  0x19, 0xc7, 0x18, 0xbe, 0xec, 0xec, 0xa6, 0xba, 0x6b, 0x51, 0x50, 0xba,
  0xa0, 0x8c, 0x4c, 0x3b, 0x8c, 0xd7, 0x68, 0xbb, 0x2d, 0xb1, 0x75, 0xbc,
  0xb8, 0x1c, 0x65, 0x3b, 0xb8, 0x8f, 0x03, 0x3d, 0xa0, 0x10, 0xd4, 0xba,
  0x6e, 0x53, 0x78, 0x3d, 0x61, 0xf5, 0x2a, 0x3e, 0xf9, 0x9f, 0x02, 0xbb,
  0xa7, 0x7e, 0x10, 0xba, 0x52, 0xa5, 0x8e, 0x3b, 0x0f, 0xf6, 0x28, 0x3e,
  0x91, 0xa3, 0xf5, 0xbc, 0x91, 0x7b, 0x41, 0xb8, 0x2c, 0xab, 0xa0, 0x39,
  0xec, 0x5a, 0xed, 0xbc, 0xdb, 0xd5, 0x9c, 0x3c, 0x4f, 0x5a, 0xb5, 0x3a,
  0x00, 0x71, 0xa0, 0x3d, 0x9a, 0x17, 0xd0, 0xba, 0x3f, 0x6b, 0x07, 0xbe,
  0xd1, 0xad, 0x01, 0x3c, 0x7a, 0x05, 0xce, 0x3c, 0x65, 0xd4, 0xbd, 0x3b,
  0xb0, 0x17, 0x08, 0xbd, 0xfe, 0x1f, 0x28, 0x3b, 0x7f, 0xf3, 0x85, 0x3d,
  0x63, 0x2a, 0xba, 0xbc, 0x19, 0x0a, 0xfa, 0x3a, 0x6a, 0x76, 0xae, 0x3b,
  0x21, 0x0b, 0x27, 0xbb, 0x37, 0xe6, 0x93, 0x39, 0x70, 0xf1, 0x82, 0x3b,
  0x70, 0x89, 0x48, 0xbb, 0x7f, 0xac, 0xcf, 0xba, 0x05, 0xee, 0xe1, 0x3a,
  0x94, 0x57, 0x11, 0x3c, 0x25, 0x6a, 0x62, 0xbb, 0x9c, 0x87, 0x52, 0xbc,
  0x80, 0x64, 0x27, 0xbc, 0x3d, 0x46, 0xda, 0x3a, 0x16, 0x8b, 0x6f, 0x3a,
  0xc3, 0xee, 0xd3, 0x38, 0x0d, 0xda, 0x16, 0x3e, 0x29, 0xe6, 0x7c, 0xbb,
  0x34, 0x0e, 0x40, 0x3c, 0xb4, 0x35, 0x83, 0x3a, 0x29, 0x5b, 0x87, 0x3c,
  0x1e, 0x42, 0xbc, 0xbc, 0xa5, 0x01, 0x96, 0x3b, 0x30, 0x8d, 0x29, 0x3e,
  0x58, 0x88, 0x0d, 0xbb, 0x98, 0x96, 0xa4, 0xbd, 0xf6, 0x11, 0x54, 0xba,
  0x3c, 0xef, 0x89, 0x3c, 0xcf, 0x1f, 0xa6, 0x3c, 0xa4, 0x26, 0x20, 0xbe,
  0xa1, 0x68, 0xbf, 0x3a, 0x8a, 0x3a, 0xf3, 0x3c, 0x3d, 0x15, 0x9f, 0x3c,
  0x72, 0xff, 0xff, 0xff, 0x04, 0x00, 0x00, 0x00, 0x80, 0x00, 0x00, 0x00,
  0xd2, 0xf3, 0x42, 0xbf, 0x94, 0x9f, 0xea, 0xbe, 0xfa, 0x7d, 0x0d, 0xbf,
  0x6e, 0x39, 0x16, 0xbf, 0x6d, 0x43, 0xbf, 0xbf, 0x9b, 0xf3, 0x2a, 0x3f,
  0xcc, 0xa3, 0x5f, 0xbe, 0xbd, 0xd5, 0x80, 0xbf, 0x54, 0xca, 0x86, 0xbf,
  0xa9, 0xb8, 0x42, 0xbf, 0x80, 0x3b, 0x50, 0xbf, 0x67, 0x0d, 0x99, 0xbf,
  0x17, 0x82, 0x0c, 0xbf, 0xa8, 0x3f, 0x67, 0xbf, 0xb9, 0xdc, 0x51, 0xbf,
  0x1e, 0x90, 0xc9, 0xbe, 0x31, 0x9a, 0x9a, 0xbe, 0x57, 0x93, 0x66, 0xbf,
  0x1e, 0x06, 0xd4, 0xbe, 0x09, 0x82, 0x79, 0xbf, 0x4b, 0x42, 0xf4, 0xbe,
  0xfc, 0x7d, 0xf3, 0xbf, 0x8c, 0x5a, 0xe9, 0xbe, 0x98, 0xc5, 0x80, 0xbf,
  0x1f, 0x2b, 0x01, 0xbf, 0x0d, 0xd5, 0x31, 0xbf, 0x3a, 0xe3, 0x48, 0xbf,
  0xff, 0xd8, 0x8e, 0xbe, 0x18, 0xa7, 0x12, 0xbf, 0x1c, 0xd9, 0x8f, 0x3c,
  0x97, 0x13, 0x71, 0xbf, 0xe2, 0x6e, 0x4c, 0xbf, 0x00, 0x00, 0x06, 0x00,
  0x08, 0x00, 0x04, 0x00, 0x06, 0x00, 0x00, 0x00, 0x04, 0x00, 0x00, 0x00,
  0x18, 0x00, 0x00, 0x00, 0xe5, 0x41, 0xd8, 0xbd, 0x17, 0x9f, 0x7f, 0xbd,
  0x28, 0x3e, 0xd6, 0xbd, 0x2a, 0x26, 0x8f, 0xbf, 0x8d, 0x19, 0x77, 0xbf,
  0x67, 0xee, 0x81, 0xbf, 0xa8, 0xfa, 0xff, 0xff, 0xac, 0xfa, 0xff, 0xff,
  0x0f, 0x00, 0x00, 0x00, 0x4d, 0x4c, 0x49, 0x52, 0x20, 0x43, 0x6f, 0x6e,
  0x76, 0x65, 0x72, 0x74, 0x65, 0x64, 0x2e, 0x00, 0x01, 0x00, 0x00, 0x00,
  0x14, 0x00, 0x00, 0x00, 0x00, 0x00, 0x0e, 0x00, 0x18, 0x00, 0x14, 0x00,
  0x10, 0x00, 0x0c, 0x00, 0x08, 0x00, 0x04, 0x00, 0x0e, 0x00, 0x00, 0x00,
  0x14, 0x00, 0x00, 0x00, 0x1c, 0x00, 0x00, 0x00, 0xec, 0x00, 0x00, 0x00,
  0xf0, 0x00, 0x00, 0x00, 0xf4, 0x00, 0x00, 0x00, 0x04, 0x00, 0x00, 0x00,
  0x6d, 0x61, 0x69, 0x6e, 0x00, 0x00, 0x00, 0x00, 0x03, 0x00, 0x00, 0x00,
  0x90, 0x00, 0x00, 0x00, 0x48, 0x00, 0x00, 0x00, 0x04, 0x00, 0x00, 0x00,
  0x8a, 0xff, 0xff, 0xff, 0x1c, 0x00, 0x00, 0x00, 0x00, 0x00, 0x00, 0x08,
  0x1c, 0x00, 0x00, 0x00, 0x20, 0x00, 0x00, 0x00, 0x00, 0x00, 0x0a, 0x00,
  0x08, 0x00, 0x00, 0x00, 0x00, 0x00, 0x07, 0x00, 0x0a, 0x00, 0x00, 0x00,
  0x00, 0x00, 0x00, 0x01, 0x01, 0x00, 0x00, 0x00, 0x09, 0x00, 0x00, 0x00,
  0x03, 0x00, 0x00, 0x00, 0x08, 0x00, 0x00, 0x00, 0x03, 0x00, 0x00, 0x00,
  0x01, 0x00, 0x00, 0x00, 0xca, 0xff, 0xff, 0xff, 0x10, 0x00, 0x00, 0x00,
  0x00, 0x00, 0x00, 0x08, 0x10, 0x00, 0x00, 0x00, 0x14, 0x00, 0x00, 0x00,
  0xba, 0xff, 0xff, 0xff, 0x00, 0x00, 0x01, 0x01, 0x01, 0x00, 0x00, 0x00,
  0x08, 0x00, 0x00, 0x00, 0x03, 0x00, 0x00, 0x00, 0x07, 0x00, 0x00, 0x00,
  0x04, 0x00, 0x00, 0x00, 0x02, 0x00, 0x00, 0x00, 0x00, 0x00, 0x0e, 0x00,
  0x16, 0x00, 0x00, 0x00, 0x10, 0x00, 0x0c, 0x00, 0x0b, 0x00, 0x04, 0x00,
  0x0e, 0x00, 0x00, 0x00, 0x1c, 0x00, 0x00, 0x00, 0x00, 0x00, 0x00, 0x08,
  0x1c, 0x00, 0x00, 0x00, 0x20, 0x00, 0x00, 0x00, 0x00, 0x00, 0x0a, 0x00,
  0x08, 0x00, 0x07, 0x00, 0x00, 0x00, 0x06, 0x00, 0x0a, 0x00, 0x00, 0x00,
  0x00, 0x00, 0x01, 0x01, 0x01, 0x00, 0x00, 0x00, 0x07, 0x00, 0x00, 0x00,
  0x03, 0x00, 0x00, 0x00, 0x00, 0x00, 0x00, 0x00, 0x05, 0x00, 0x00, 0x00,
  0x06, 0x00, 0x00, 0x00, 0x01, 0x00, 0x00, 0x00, 0x09, 0x00, 0x00, 0x00,
  0x01, 0x00, 0x00, 0x00, 0x00, 0x00, 0x00, 0x00, 0x0a, 0x00, 0x00, 0x00,
  0x00, 0x04, 0x00, 0x00, 0x84, 0x03, 0x00, 0x00, 0x08, 0x03, 0x00, 0x00,
  0x9c, 0x02, 0x00, 0x00, 0x34, 0x02, 0x00, 0x00, 0xcc, 0x01, 0x00, 0x00,
  0x50, 0x01, 0x00, 0x00, 0xd0, 0x00, 0x00, 0x00, 0x50, 0x00, 0x00, 0x00,
  0x04, 0x00, 0x00, 0x00, 0x3e, 0xfc, 0xff, 0xff, 0x00, 0x00, 0x00, 0x01,
  0x10, 0x00, 0x00, 0x00, 0x10, 0x00, 0x00, 0x00, 0x0a, 0x00, 0x00, 0x00,
  0x28, 0x00, 0x00, 0x00, 0x28, 0xfc, 0xff, 0xff, 0x19, 0x00, 0x00, 0x00,
  0x53, 0x74, 0x61, 0x74, 0x65, 0x66, 0x75, 0x6c, 0x50, 0x61, 0x72, 0x74,
  0x69, 0x74, 0x69, 0x6f, 0x6e, 0x65, 0x64, 0x43, 0x61, 0x6c, 0x6c, 0x3a,
  0x30, 0x00, 0x00, 0x00, 0x02, 0x00, 0x00, 0x00, 0x01, 0x00, 0x00, 0x00,
  0x06, 0x00, 0x00, 0x00, 0x86, 0xfc, 0xff, 0xff, 0x00, 0x00, 0x00, 0x01,
  0x10, 0x00, 0x00, 0x00, 0x10, 0x00, 0x00, 0x00, 0x09, 0x00, 0x00, 0x00,
  0x5c, 0x00, 0x00, 0x00, 0x70, 0xfc, 0xff, 0xff, 0x4c, 0x00, 0x00, 0x00,
  0x5f, 0x5f, 0x6d, 0x61, 0x69, 0x6e, 0x5f, 0x5f, 0x2e, 0x65, 0x32, 0x65,
  0x4e, 0x65, 0x74, 0x77, 0x6f, 0x72, 0x6b, 0x2f, 0x74, 0x6f, 0x72, 0x63,
  0x68, 0x2e, 0x6e, 0x6e, 0x2e, 0x6d, 0x6f, 0x64, 0x75, 0x6c, 0x65, 0x73,
  0x2e, 0x6c, 0x69, 0x6e, 0x65, 0x61, 0x72, 0x2e, 0x4c, 0x69, 0x6e, 0x65,
  0x61, 0x72, 0x5f, 0x66, 0x63, 0x32, 0x3b, 0x3b, 0x5f, 0x5f, 0x6d, 0x61,
  0x69, 0x6e, 0x5f, 0x5f, 0x2e, 0x65, 0x32, 0x65, 0x4e, 0x65, 0x74, 0x77,
  0x6f, 0x72, 0x6b, 0x3b, 0x00, 0x00, 0x00, 0x00, 0x02, 0x00, 0x00, 0x00,
  0x01, 0x00, 0x00, 0x00, 0x20, 0x00, 0x00, 0x00, 0x02, 0xfd, 0xff, 0xff,
  0x00, 0x00, 0x00, 0x01, 0x10, 0x00, 0x00, 0x00, 0x10, 0x00, 0x00, 0x00,
  0x08, 0x00, 0x00, 0x00, 0x5c, 0x00, 0x00, 0x00, 0xec, 0xfc, 0xff, 0xff,
  0x4c, 0x00, 0x00, 0x00, 0x5f, 0x5f, 0x6d, 0x61, 0x69, 0x6e, 0x5f, 0x5f,
  0x2e, 0x65, 0x32, 0x65, 0x4e, 0x65, 0x74, 0x77, 0x6f, 0x72, 0x6b, 0x2f,
  0x74, 0x6f, 0x72, 0x63, 0x68, 0x2e, 0x6e, 0x6e, 0x2e, 0x6d, 0x6f, 0x64,
  0x75, 0x6c, 0x65, 0x73, 0x2e, 0x6c, 0x69, 0x6e, 0x65, 0x61, 0x72, 0x2e,
  0x4c, 0x69, 0x6e, 0x65, 0x61, 0x72, 0x5f, 0x66, 0x63, 0x31, 0x3b, 0x3b,
  0x5f, 0x5f, 0x6d, 0x61, 0x69, 0x6e, 0x5f, 0x5f, 0x2e, 0x65, 0x32, 0x65,
  0x4e, 0x65, 0x74, 0x77, 0x6f, 0x72, 0x6b, 0x3b, 0x00, 0x00, 0x00, 0x00,
  0x02, 0x00, 0x00, 0x00, 0x01, 0x00, 0x00, 0x00, 0x40, 0x00, 0x00, 0x00,
  0x7e, 0xfd, 0xff, 0xff, 0x00, 0x00, 0x00, 0x01, 0x10, 0x00, 0x00, 0x00,
  0x10, 0x00, 0x00, 0x00, 0x07, 0x00, 0x00, 0x00, 0x5c, 0x00, 0x00, 0x00,
  0x68, 0xfd, 0xff, 0xff, 0x4c, 0x00, 0x00, 0x00, 0x5f, 0x5f, 0x6d, 0x61,
  0x69, 0x6e, 0x5f, 0x5f, 0x2e, 0x65, 0x32, 0x65, 0x4e, 0x65, 0x74, 0x77,
  0x6f, 0x72, 0x6b, 0x3b, 0x3b, 0x5f, 0x5f, 0x6d, 0x61, 0x69, 0x6e, 0x5f,
  0x5f, 0x2e, 0x65, 0x32, 0x65, 0x4e, 0x65, 0x74, 0x77, 0x6f, 0x72, 0x6b,
  0x2f, 0x74, 0x6f, 0x72, 0x63, 0x68, 0x2e, 0x6e, 0x6e, 0x2e, 0x6d, 0x6f,
  0x64, 0x75, 0x6c, 0x65, 0x73, 0x2e, 0x6c, 0x69, 0x6e, 0x65, 0x61, 0x72,
  0x2e, 0x4c, 0x69, 0x6e, 0x65, 0x61, 0x72, 0x5f, 0x66, 0x63, 0x31, 0x3b,
  0x00, 0x00, 0x00, 0x00, 0x01, 0x00, 0x00, 0x00, 0x40, 0x00, 0x00, 0x00,
  0xf6, 0xfd, 0xff, 0xff, 0x00, 0x00, 0x00, 0x01, 0x10, 0x00, 0x00, 0x00,
  0x10, 0x00, 0x00, 0x00, 0x06, 0x00, 0x00, 0x00, 0x44, 0x00, 0x00, 0x00,
  0xe0, 0xfd, 0xff, 0xff, 0x37, 0x00, 0x00, 0x00, 0x5f, 0x5f, 0x6d, 0x61,
  0x69, 0x6e, 0x5f, 0x5f, 0x2e, 0x65, 0x32, 0x65, 0x4e, 0x65, 0x74, 0x77,
  0x6f, 0x72, 0x6b, 0x2f, 0x74, 0x6f, 0x72, 0x63, 0x68, 0x2e, 0x6e, 0x6e,
  0x2e, 0x6d, 0x6f, 0x64, 0x75, 0x6c, 0x65, 0x73, 0x2e, 0x6c, 0x69, 0x6e,
  0x65, 0x61, 0x72, 0x2e, 0x4c, 0x69, 0x6e, 0x65, 0x61, 0x72, 0x5f, 0x66,
  0x63, 0x31, 0x3b, 0x00, 0x02, 0x00, 0x00, 0x00, 0x40, 0x00, 0x00, 0x00,
  0x0f, 0x00, 0x00, 0x00, 0x5a, 0xfe, 0xff, 0xff, 0x00, 0x00, 0x00, 0x01,
  0x10, 0x00, 0x00, 0x00, 0x10, 0x00, 0x00, 0x00, 0x05, 0x00, 0x00, 0x00,
  0x44, 0x00, 0x00, 0x00, 0x44, 0xfe, 0xff, 0xff, 0x37, 0x00, 0x00, 0x00,
  0x5f, 0x5f, 0x6d, 0x61, 0x69, 0x6e, 0x5f, 0x5f, 0x2e, 0x65, 0x32, 0x65,
  0x4e, 0x65, 0x74, 0x77, 0x6f, 0x72, 0x6b, 0x2f, 0x74, 0x6f, 0x72, 0x63,
  0x68, 0x2e, 0x6e, 0x6e, 0x2e, 0x6d, 0x6f, 0x64, 0x75, 0x6c, 0x65, 0x73,
  0x2e, 0x6c, 0x69, 0x6e, 0x65, 0x61, 0x72, 0x2e, 0x4c, 0x69, 0x6e, 0x65,
  0x61, 0x72, 0x5f, 0x66, 0x63, 0x32, 0x3b, 0x00, 0x02, 0x00, 0x00, 0x00,
  0x20, 0x00, 0x00, 0x00, 0x40, 0x00, 0x00, 0x00, 0xbe, 0xfe, 0xff, 0xff,
  0x00, 0x00, 0x00, 0x01, 0x10, 0x00, 0x00, 0x00, 0x10, 0x00, 0x00, 0x00,
  0x04, 0x00, 0x00, 0x00, 0x48, 0x00, 0x00, 0x00, 0xa8, 0xfe, 0xff, 0xff,
  0x38, 0x00, 0x00, 0x00, 0x5f, 0x5f, 0x6d, 0x61, 0x69, 0x6e, 0x5f, 0x5f,
  0x2e, 0x65, 0x32, 0x65, 0x4e, 0x65, 0x74, 0x77, 0x6f, 0x72, 0x6b, 0x2f,
  0x74, 0x6f, 0x72, 0x63, 0x68, 0x2e, 0x6e, 0x6e, 0x2e, 0x6d, 0x6f, 0x64,
  0x75, 0x6c, 0x65, 0x73, 0x2e, 0x6c, 0x69, 0x6e, 0x65, 0x61, 0x72, 0x2e,
  0x4c, 0x69, 0x6e, 0x65, 0x61, 0x72, 0x5f, 0x66, 0x63, 0x33, 0x3b, 0x31,
  0x00, 0x00, 0x00, 0x00, 0x02, 0x00, 0x00, 0x00, 0x06, 0x00, 0x00, 0x00,
  0x20, 0x00, 0x00, 0x00, 0x26, 0xff, 0xff, 0xff, 0x00, 0x00, 0x00, 0x01,
  0x10, 0x00, 0x00, 0x00, 0x10, 0x00, 0x00, 0x00, 0x03, 0x00, 0x00, 0x00,
  0x5c, 0x00, 0x00, 0x00, 0x10, 0xff, 0xff, 0xff, 0x4c, 0x00, 0x00, 0x00,
  0x5f, 0x5f, 0x6d, 0x61, 0x69, 0x6e, 0x5f, 0x5f, 0x2e, 0x65, 0x32, 0x65,
  0x4e, 0x65, 0x74, 0x77, 0x6f, 0x72, 0x6b, 0x3b, 0x3b, 0x5f, 0x5f, 0x6d,
  0x61, 0x69, 0x6e, 0x5f, 0x5f, 0x2e, 0x65, 0x32, 0x65, 0x4e, 0x65, 0x74,
  0x77, 0x6f, 0x72, 0x6b, 0x2f, 0x74, 0x6f, 0x72, 0x63, 0x68, 0x2e, 0x6e,
  0x6e, 0x2e, 0x6d, 0x6f, 0x64, 0x75, 0x6c, 0x65, 0x73, 0x2e, 0x6c, 0x69,
  0x6e, 0x65, 0x61, 0x72, 0x2e, 0x4c, 0x69, 0x6e, 0x65, 0x61, 0x72, 0x5f,
  0x66, 0x63, 0x32, 0x3b, 0x00, 0x00, 0x00, 0x00, 0x01, 0x00, 0x00, 0x00,
  0x20, 0x00, 0x00, 0x00, 0x9e, 0xff, 0xff, 0xff, 0x00, 0x00, 0x00, 0x01,
  0x10, 0x00, 0x00, 0x00, 0x10, 0x00, 0x00, 0x00, 0x02, 0x00, 0x00, 0x00,
  0x44, 0x00, 0x00, 0x00, 0x88, 0xff, 0xff, 0xff, 0x37, 0x00, 0x00, 0x00,
  0x5f, 0x5f, 0x6d, 0x61, 0x69, 0x6e, 0x5f, 0x5f, 0x2e, 0x65, 0x32, 0x65,
  0x4e, 0x65, 0x74, 0x77, 0x6f, 0x72, 0x6b, 0x2f, 0x74, 0x6f, 0x72, 0x63,
  0x68, 0x2e, 0x6e, 0x6e, 0x2e, 0x6d, 0x6f, 0x64, 0x75, 0x6c, 0x65, 0x73,
  0x2e, 0x6c, 0x69, 0x6e, 0x65, 0x61, 0x72, 0x2e, 0x4c, 0x69, 0x6e, 0x65,
  0x61, 0x72, 0x5f, 0x66, 0x63, 0x33, 0x3b, 0x00, 0x01, 0x00, 0x00, 0x00,
  0x06, 0x00, 0x00, 0x00, 0x00, 0x00, 0x16, 0x00, 0x18, 0x00, 0x14, 0x00,
  0x00, 0x00, 0x10, 0x00, 0x0c, 0x00, 0x08, 0x00, 0x00, 0x00, 0x00, 0x00,
  0x00, 0x00, 0x07, 0x00, 0x16, 0x00, 0x00, 0x00, 0x00, 0x00, 0x00, 0x01,
  0x14, 0x00, 0x00, 0x00, 0x14, 0x00, 0x00, 0x00, 0x01, 0x00, 0x00, 0x00,
  0x2c, 0x00, 0x00, 0x00, 0x04, 0x00, 0x04, 0x00, 0x04, 0x00, 0x00, 0x00,
  0x18, 0x00, 0x00, 0x00, 0x73, 0x65, 0x72, 0x76, 0x69, 0x6e, 0x67, 0x5f,
  0x64, 0x65, 0x66, 0x61, 0x75, 0x6c, 0x74, 0x5f, 0x61, 0x72, 0x67, 0x73,
  0x5f, 0x30, 0x3a, 0x30, 0x00, 0x00, 0x00, 0x00, 0x02, 0x00, 0x00, 0x00,
  0x01, 0x00, 0x00, 0x00, 0x0f, 0x00, 0x00, 0x00, 0x01, 0x00, 0x00, 0x00,
  0x10, 0x00, 0x00, 0x00, 0x0c, 0x00, 0x10, 0x00, 0x0f, 0x00, 0x00, 0x00,
  0x08, 0x00, 0x04, 0x00, 0x0c, 0x00, 0x00, 0x00, 0x09, 0x00, 0x00, 0x00,
  0x05, 0x00, 0x00, 0x00, 0x00, 0x00, 0x00, 0x09
};
unsigned int gen_ppo_tflite_len = 15236;
