unsigned char gen_ppo_tflite[] = {
  0x1c, 0x00, 0x00, 0x00, 0x54, 0x46, 0x4c, 0x33, 0x14, 0x00, 0x20, 0x00,
  0x1c, 0x00, 0x18, 0x00, 0x14, 0x00, 0x10, 0x00, 0x0c, 0x00, 0x00, 0x00,
  0x08, 0x00, 0x04, 0x00, 0x14, 0x00, 0x00, 0x00, 0x1c, 0x00, 0x00, 0x00,
  0x90, 0x00, 0x00, 0x00, 0xe8, 0x00, 0x00, 0x00, 0xb0, 0x35, 0x00, 0x00,
  0xc0, 0x35, 0x00, 0x00, 0x2c, 0x3b, 0x00, 0x00, 0x03, 0x00, 0x00, 0x00,
  0x01, 0x00, 0x00, 0x00, 0x10, 0x00, 0x00, 0x00, 0x00, 0x00, 0x0a, 0x00,
  0x10, 0x00, 0x0c, 0x00, 0x08, 0x00, 0x04, 0x00, 0x0a, 0x00, 0x00, 0x00,
  0x0c, 0x00, 0x00, 0x00, 0x1c, 0x00, 0x00, 0x00, 0x3c, 0x00, 0x00, 0x00,
  0x0f, 0x00, 0x00, 0x00, 0x73, 0x65, 0x72, 0x76, 0x69, 0x6e, 0x67, 0x5f,
  0x64, 0x65, 0x66, 0x61, 0x75, 0x6c, 0x74, 0x00, 0x01, 0x00, 0x00, 0x00,
  0x04, 0x00, 0x00, 0x00, 0x98, 0xff, 0xff, 0xff, 0x09, 0x00, 0x00, 0x00,
  0x04, 0x00, 0x00, 0x00, 0x08, 0x00, 0x00, 0x00, 0x6f, 0x75, 0x74, 0x70,
  0x75, 0x74, 0x5f, 0x30, 0x00, 0x00, 0x00, 0x00, 0x01, 0x00, 0x00, 0x00,
  0x04, 0x00, 0x00, 0x00, 0xf6, 0xca, 0xff, 0xff, 0x04, 0x00, 0x00, 0x00,
  0x06, 0x00, 0x00, 0x00, 0x61, 0x72, 0x67, 0x73, 0x5f, 0x30, 0x00, 0x00,
  0x02, 0x00, 0x00, 0x00, 0x34, 0x00, 0x00, 0x00, 0x04, 0x00, 0x00, 0x00,
  0xdc, 0xff, 0xff, 0xff, 0x0c, 0x00, 0x00, 0x00, 0x04, 0x00, 0x00, 0x00,
  0x13, 0x00, 0x00, 0x00, 0x43, 0x4f, 0x4e, 0x56, 0x45, 0x52, 0x53, 0x49,
  0x4f, 0x4e, 0x5f, 0x4d, 0x45, 0x54, 0x41, 0x44, 0x41, 0x54, 0x41, 0x00,
  0x08, 0x00, 0x0c, 0x00, 0x08, 0x00, 0x04, 0x00, 0x08, 0x00, 0x00, 0x00,
  0x0b, 0x00, 0x00, 0x00, 0x04, 0x00, 0x00, 0x00, 0x13, 0x00, 0x00, 0x00,
  0x6d, 0x69, 0x6e, 0x5f, 0x72, 0x75, 0x6e, 0x74, 0x69, 0x6d, 0x65, 0x5f,
  0x76, 0x65, 0x72, 0x73, 0x69, 0x6f, 0x6e, 0x00, 0x0d, 0x00, 0x00, 0x00,
  0xc4, 0x34, 0x00, 0x00, 0xbc, 0x34, 0x00, 0x00, 0x94, 0x34, 0x00, 0x00,
  0xfc, 0x33, 0x00, 0x00, 0xec, 0x30, 0x00, 0x00, 0xdc, 0x10, 0x00, 0x00,
  0xcc, 0x01, 0x00, 0x00, 0xbc, 0x00, 0x00, 0x00, 0xb4, 0x00, 0x00, 0x00,
  0xac, 0x00, 0x00, 0x00, 0xa4, 0x00, 0x00, 0x00, 0x84, 0x00, 0x00, 0x00,
  0x04, 0x00, 0x00, 0x00, 0x9e, 0xcb, 0xff, 0xff, 0x04, 0x00, 0x00, 0x00,
  0x70, 0x00, 0x00, 0x00, 0x10, 0x00, 0x00, 0x00, 0x00, 0x00, 0x00, 0x00,
  0x08, 0x00, 0x0e, 0x00, 0x08, 0x00, 0x04, 0x00, 0x08, 0x00, 0x00, 0x00,
  0x10, 0x00, 0x00, 0x00, 0x24, 0x00, 0x00, 0x00, 0x00, 0x00, 0x06, 0x00,
  0x08, 0x00, 0x04, 0x00, 0x06, 0x00, 0x00, 0x00, 0x04, 0x00, 0x00, 0x00,
  0x00, 0x00, 0x00, 0x00, 0x0c, 0x00, 0x1c, 0x00, 0x18, 0x00, 0x14, 0x00,
  0x10, 0x00, 0x04, 0x00, 0x0c, 0x00, 0x00, 0x00, 0x65, 0xf3, 0x71, 0x9e,
  0x86, 0x9a, 0xb9, 0x4d, 0x00, 0x00, 0x00, 0x00, 0x01, 0x00, 0x00, 0x00,
  0x02, 0x00, 0x00, 0x00, 0x04, 0x00, 0x00, 0x00, 0x12, 0x00, 0x00, 0x00,
  0x32, 0x2e, 0x32, 0x31, 0x2e, 0x30, 0x2d, 0x64, 0x65, 0x76, 0x32, 0x30,
  0x32, 0x35, 0x30, 0x38, 0x31, 0x38, 0x00, 0x00, 0x1a, 0xcc, 0xff, 0xff,
  0x04, 0x00, 0x00, 0x00, 0x10, 0x00, 0x00, 0x00, 0x32, 0x2e, 0x30, 0x2e,
  0x30, 0x00, 0x00, 0x00, 0x00, 0x00, 0x00, 0x00, 0x00, 0x00, 0x00, 0x00,
  0xb4, 0xc6, 0xff, 0xff, 0xb8, 0xc6, 0xff, 0xff, 0xbc, 0xc6, 0xff, 0xff,
  0x42, 0xcc, 0xff, 0xff, 0x04, 0x00, 0x00, 0x00, 0x00, 0x01, 0x00, 0x00,
  0x65, 0xa7, 0xa3, 0xbf, 0x5c, 0x4a, 0x0a, 0xc0, 0x42, 0x8e, 0x4f, 0xc0,
  0x80, 0xb2, 0x9e, 0xbf, 0x5d, 0x7c, 0xa9, 0xbf, 0x45, 0x9a, 0x45, 0xc0,
  0xe0, 0x17, 0xf5, 0xbf, 0xfa, 0x3c, 0x47, 0xbf, 0x35, 0xc7, 0x0b, 0xbb,
  0x74, 0xc0, 0x3e, 0xc0, 0x81, 0x79, 0xe9, 0xbf, 0x65, 0xaa, 0x0e, 0xc0,
  0x8c, 0x71, 0x50, 0xc0, 0x7d, 0x87, 0x7c, 0xbf, 0xb3, 0x0a, 0x2c, 0xc0,
  0x17, 0x02, 0x20, 0xc0, 0x41, 0x46, 0x11, 0xc0, 0xf8, 0xef, 0x4c, 0xbf,
  0xec, 0x6b, 0x3c, 0xc0, 0x09, 0x44, 0x19, 0xc0, 0xec, 0x8a, 0xbe, 0xbf,
  0x74, 0xa4, 0x1a, 0xc0, 0x6a, 0xe4, 0x40, 0xbf, 0x60, 0x2f, 0x05, 0xc0,
  0xf2, 0xee, 0x56, 0xc0, 0x3d, 0x1d, 0x61, 0xc0, 0xa6, 0xce, 0xb0, 0xbf,
  0x93, 0xd5, 0x0f, 0xc0, 0xdc, 0xd6, 0x09, 0xc0, 0xe2, 0x48, 0x02, 0xc0,
  0x0c, 0xf5, 0xaa, 0xbf, 0xc9, 0x1f, 0x56, 0xc0, 0xc7, 0xda, 0x93, 0xbe,
  0x89, 0x53, 0x11, 0xbf, 0x00, 0x36, 0xb7, 0xbf, 0x49, 0x3f, 0x05, 0xc0,
  0x3a, 0xf6, 0xc0, 0xbf, 0xc0, 0xd2, 0x36, 0xbf, 0x57, 0xf1, 0xad, 0xbf,
  0x52, 0xc1, 0x9a, 0xbf, 0x0d, 0x35, 0x55, 0xbf, 0x91, 0xa8, 0xae, 0xbf,
  0xa3, 0x5c, 0x98, 0xbf, 0x96, 0x38, 0x18, 0xc0, 0x01, 0x74, 0x35, 0xbf,
  0x19, 0x1e, 0x04, 0xc0, 0x00, 0xd5, 0xb9, 0xbf, 0x14, 0x04, 0xf7, 0xbf,
  0x0a, 0xd9, 0x15, 0xc0, 0x45, 0xe3, 0x44, 0xc0, 0x7b, 0x4f, 0x7a, 0xbf,
  0xbe, 0xe2, 0x2a, 0xbf, 0x81, 0xa2, 0x19, 0xbf, 0xd5, 0x5f, 0x37, 0xc0,
  0xdb, 0x5d, 0x2d, 0xc0, 0xa2, 0x40, 0x1c, 0x3e, 0x4a, 0x71, 0x4c, 0xbf,
  0xd5, 0xfa, 0x53, 0xbf, 0xa7, 0x13, 0x25, 0xc0, 0x7f, 0x30, 0x18, 0xbe,
  0x4c, 0x87, 0x2d, 0xbf, 0x87, 0xad, 0x06, 0xc0, 0xb4, 0x50, 0x5c, 0xc0,
  0x42, 0xe6, 0x03, 0xbf, 0x4e, 0xcd, 0xff, 0xff, 0x04, 0x00, 0x00, 0x00,
  0x00, 0x0f, 0x00, 0x00, 0x55, 0x1b, 0xaa, 0x3e, 0x20, 0x90, 0x87, 0x3f,
  0x4a, 0xed, 0x1b, 0xbe, 0xaf, 0xde, 0x2d, 0xbf, 0x3d, 0x71, 0x85, 0xbf,
  0x8e, 0xa1, 0x9c, 0xbf, 0x04, 0xd0, 0xa5, 0x3f, 0xfa, 0x9c, 0x3f, 0xbf,
  0x58, 0x29, 0x34, 0xc0, 0xeb, 0xd9, 0x86, 0xbe, 0x1e, 0x50, 0x82, 0xbf,
  0x15, 0xd3, 0xd2, 0xbd, 0xde, 0xba, 0xb5, 0xbe, 0x1e, 0xb3, 0x1a, 0xbe,
  0x21, 0xe5, 0x07, 0x3e, 0xc1, 0xee, 0x05, 0x3f, 0x67, 0x12, 0xa9, 0x3c,
  0x2f, 0x99, 0xc3, 0xbf, 0xdb, 0x5c, 0x2f, 0xbe, 0x7d, 0xc7, 0x24, 0xbf,
  0x31, 0xb0, 0xa7, 0x3f, 0x80, 0x1e, 0x53, 0x3e, 0xa9, 0xfe, 0xc8, 0x3e,
  0x0b, 0x42, 0x29, 0x40, 0x7f, 0xde, 0x0e, 0xbf, 0x09, 0xe4, 0x09, 0xbf,
  0x36, 0xb9, 0x02, 0x3f, 0x24, 0x8c, 0x23, 0xbf, 0xd9, 0xab, 0x9f, 0x3e,
  0xe8, 0x73, 0xc3, 0x3f, 0x9d, 0x83, 0xb9, 0x3f, 0xc5, 0xf5, 0xdf, 0x3d,
  0x00, 0xcd, 0x4b, 0x3f, 0xc7, 0xa1, 0x09, 0xbf, 0x4d, 0x51, 0x98, 0xbe,
  0xee, 0xe8, 0x66, 0xc0, 0x99, 0x34, 0x53, 0x3e, 0xa1, 0x46, 0x41, 0xbe,
  0x0b, 0x37, 0x8f, 0xbf, 0xab, 0x4c, 0x19, 0xbf, 0x2e, 0x49, 0x10, 0xbd,
  0xe9, 0x08, 0x81, 0xbf, 0xa2, 0xc9, 0x81, 0xbe, 0x64, 0x2b, 0x94, 0x3c,
  0x46, 0xa0, 0xef, 0x3d, 0x46, 0xf2, 0x89, 0xbe, 0xa1, 0x3a, 0xa8, 0xbf,
  0xac, 0xe5, 0x87, 0xbe, 0xed, 0x3e, 0xd3, 0x3c, 0x10, 0xc4, 0x87, 0x3f,
  0x89, 0x2e, 0x30, 0xbf, 0x99, 0xc8, 0x1e, 0xbf, 0x43, 0x85, 0x03, 0x3f,
  0x4d, 0x7f, 0x87, 0x40, 0xe0, 0x54, 0x48, 0x3d, 0x5e, 0x74, 0x9a, 0x3f,
  0x9c, 0xc8, 0x2c, 0xbd, 0x7b, 0x7f, 0x8e, 0xbe, 0x6f, 0x05, 0x12, 0xbf,
  0xba, 0xf5, 0x61, 0x3e, 0x20, 0x30, 0xa6, 0xbe, 0x02, 0x77, 0x36, 0x3e,
  0xc2, 0x59, 0x99, 0xbe, 0x20, 0x91, 0xe8, 0x3e, 0x81, 0x9e, 0xee, 0x3e,
  0x4b, 0x8a, 0x41, 0xbd, 0x30, 0x23, 0x8c, 0xbe, 0x28, 0xdb, 0x3a, 0x3f,
  0x46, 0x08, 0x82, 0xc0, 0x06, 0x6d, 0xde, 0x3c, 0xae, 0x5b, 0x3b, 0xbe,
  0x60, 0x63, 0x4e, 0xbe, 0xbf, 0x60, 0x97, 0x3e, 0xbb, 0x91, 0xaa, 0xbd,
  0x4d, 0x00, 0x03, 0xbf, 0x26, 0x42, 0x86, 0xbf, 0x9c, 0xba, 0x16, 0x3f,
  0x07, 0xfe, 0x1d, 0xbd, 0x29, 0xe7, 0x86, 0x3e, 0x7d, 0x2e, 0x65, 0xbf,
  0x84, 0x6e, 0x27, 0x40, 0x3e, 0x88, 0xab, 0x3f, 0x97, 0x0a, 0x82, 0xbe,
  0x1d, 0x25, 0x45, 0xbf, 0x1e, 0x5e, 0x47, 0x3f, 0xb3, 0x99, 0x0c, 0xbf,
  0x02, 0x82, 0xd7, 0xbe, 0x86, 0xa8, 0x25, 0x3f, 0x4a, 0xe8, 0x2c, 0xbe,
  0xb9, 0xb3, 0x18, 0x3d, 0x5d, 0xb6, 0x09, 0xbf, 0x7f, 0xc7, 0xf6, 0x3d,
  0xc7, 0xfa, 0x8d, 0x3f, 0x1e, 0x2e, 0xb1, 0x3f, 0x41, 0xed, 0x25, 0x3f,
  0xce, 0xb3, 0x9b, 0x40, 0x3c, 0xab, 0x13, 0xbf, 0xcc, 0x00, 0xe1, 0x3d,
  0x61, 0x04, 0x63, 0x3e, 0x57, 0xe3, 0x03, 0x3f, 0x5b, 0x12, 0xbc, 0x3e,
  0x0e, 0x80, 0x9d, 0xbe, 0x5e, 0x2b, 0xf2, 0xbe, 0xf5, 0x6d, 0xcc, 0x3e,
  0x3f, 0x7b, 0x38, 0x3b, 0xc9, 0x2d, 0x91, 0x3f, 0x28, 0x61, 0x75, 0x3f,
  0xf3, 0x7d, 0xd1, 0x3e, 0x41, 0x86, 0x25, 0x3f, 0xd3, 0xac, 0x65, 0x3d,
  0x64, 0x36, 0x3f, 0x3f, 0x01, 0x02, 0x5a, 0xbe, 0x13, 0x6f, 0xc5, 0x3e,
  0xea, 0x47, 0x20, 0xbf, 0x4d, 0x90, 0xfd, 0xbe, 0x8e, 0x44, 0x4c, 0xbf,
  0x5b, 0x71, 0xad, 0xbf, 0xd1, 0x71, 0x1d, 0x3c, 0x99, 0xd3, 0x2a, 0x3b,
  0x63, 0x18, 0x84, 0xbd, 0xdb, 0x77, 0x6e, 0xbd, 0x15, 0xf9, 0x95, 0xbf,
  0xc0, 0xa2, 0xe1, 0xbe, 0xcd, 0x73, 0xc7, 0xbd, 0x34, 0x2b, 0x80, 0xbf,
  0x5b, 0xca, 0x96, 0x3e, 0xb6, 0x4c, 0x0b, 0x3e, 0x3c, 0x37, 0x80, 0xbd,
  0x5e, 0xe0, 0x36, 0x40, 0x2e, 0xd7, 0x12, 0xbe, 0x01, 0xfa, 0x63, 0x3f,
  0x1f, 0xde, 0xd7, 0x3f, 0x2c, 0x05, 0x95, 0xbe, 0x87, 0x50, 0x03, 0x3f,
  0xf9, 0xe0, 0x82, 0x3e, 0x74, 0x62, 0x99, 0x3e, 0x5a, 0xc7, 0x5e, 0xbf,
  0x0e, 0xc0, 0x37, 0x3e, 0xfd, 0x7e, 0x14, 0xbf, 0xb7, 0x1d, 0x19, 0x3f,
  0x2e, 0xa7, 0xaf, 0x3e, 0x74, 0xea, 0x41, 0xbf, 0x95, 0x5d, 0x07, 0xbf,
  0x05, 0x5c, 0x15, 0x40, 0x06, 0x48, 0xa0, 0xbe, 0x9e, 0xb1, 0x56, 0x3f,
  0xe2, 0xad, 0x20, 0xbe, 0x6b, 0x0e, 0x60, 0x3e, 0x7e, 0xe7, 0x96, 0xbe,
  0xc0, 0x90, 0x07, 0xbf, 0xb5, 0x66, 0x4d, 0x3f, 0x70, 0x0f, 0x34, 0x3e,
  0x04, 0xe8, 0x24, 0x3f, 0x4d, 0x61, 0x45, 0x3f, 0x23, 0x18, 0x31, 0xbe,
  0x06, 0x9a, 0x2f, 0xc0, 0xb2, 0x8a, 0x7c, 0x3f, 0xa7, 0x1d, 0x62, 0x3f,
  0xf1, 0xb4, 0x33, 0x3f, 0x08, 0xc5, 0x76, 0xbf, 0x22, 0xad, 0x99, 0x3e,
  0xc8, 0x7c, 0xe1, 0x3e, 0x89, 0x81, 0xc5, 0xbe, 0x47, 0xb3, 0xb1, 0xbe,
  0x50, 0x78, 0x4c, 0x3e, 0x53, 0xd6, 0xce, 0x3e, 0x1d, 0xde, 0x34, 0xbf,
  0x2b, 0x48, 0x56, 0x3e, 0x64, 0x9f, 0x45, 0x3f, 0x53, 0x01, 0xd1, 0xbe,
  0xe1, 0x1f, 0x70, 0xc0, 0xec, 0x22, 0x48, 0x3f, 0x0f, 0x9c, 0x27, 0x3f,
  0x41, 0x9b, 0x50, 0x40, 0x58, 0xd9, 0x0e, 0xbf, 0xbd, 0xb2, 0xb0, 0x3d,
  0x93, 0xf4, 0x19, 0xbd, 0x9b, 0xc2, 0x88, 0xbf, 0x46, 0xd7, 0x8d, 0xbe,
  0xce, 0xbc, 0x9f, 0x3d, 0xd1, 0xe6, 0x0c, 0xbd, 0x8e, 0x1c, 0xfd, 0x3e,
  0x37, 0xc1, 0x1d, 0x40, 0x11, 0x6e, 0x96, 0xbe, 0x1d, 0x4f, 0x9a, 0x3d,
  0xbc, 0xb6, 0xfd, 0xbe, 0x25, 0x12, 0x23, 0x3e, 0xfd, 0xa0, 0x36, 0xbe,
  0xc6, 0xdb, 0x35, 0x3d, 0xe8, 0x54, 0xd2, 0xbd, 0xc3, 0x8b, 0x85, 0xbd,
  0x65, 0x3e, 0xc4, 0xbf, 0x0b, 0x69, 0x9f, 0x3d, 0xba, 0x9b, 0xd7, 0xbc,
  0xbf, 0xb1, 0x7c, 0xbd, 0x4a, 0x69, 0x09, 0xbf, 0xc5, 0xd3, 0x09, 0x3f,
  0xc3, 0x79, 0x82, 0xbf, 0x01, 0xd2, 0xfb, 0x3e, 0x4f, 0x61, 0xe0, 0xbd,
  0x90, 0x7b, 0xd8, 0xbe, 0xb3, 0x1f, 0xb9, 0xbe, 0xe9, 0xef, 0x23, 0x3f,
  0x3f, 0x0d, 0x3e, 0xc0, 0x58, 0x5a, 0x91, 0xbc, 0x1c, 0x95, 0x02, 0xbf,
  0x68, 0xf0, 0xec, 0xbe, 0xd4, 0xab, 0x96, 0x3e, 0xe0, 0x73, 0x6b, 0xbd,
  0x30, 0x9f, 0x69, 0x3f, 0x84, 0x2f, 0x8a, 0xbe, 0x8f, 0x05, 0x0a, 0x3f,
  0x0a, 0x07, 0xed, 0xbe, 0xcb, 0xf6, 0x35, 0xbe, 0x4b, 0x6d, 0x6b, 0x3e,
  0x07, 0xaa, 0x02, 0xbf, 0xf3, 0x63, 0xa4, 0xbe, 0xc9, 0xee, 0xe5, 0xbc,
  0xaa, 0x44, 0xbb, 0x3e, 0x18, 0xd9, 0xd3, 0x3d, 0xf2, 0x61, 0x40, 0xbe,
  0x0c, 0xff, 0x40, 0x3f, 0xe4, 0x56, 0x54, 0xbe, 0x71, 0xcf, 0x10, 0x3e,
  0x72, 0x01, 0xba, 0xbd, 0xf9, 0x52, 0x5c, 0xbf, 0xe8, 0x7b, 0x76, 0xbe,
  0xda, 0x4c, 0x13, 0xbf, 0x8f, 0x50, 0x95, 0xbe, 0x42, 0x83, 0x3f, 0x3f,
  0xd0, 0x45, 0xcd, 0x3f, 0xaf, 0x5a, 0x38, 0xbf, 0x51, 0xea, 0x58, 0xbd,
  0x26, 0x53, 0x31, 0x40, 0xf4, 0xd1, 0xf8, 0x3e, 0x86, 0x85, 0x60, 0x3e,
  0x71, 0x93, 0x53, 0xbe, 0x82, 0x2d, 0xb2, 0xbc, 0x29, 0x65, 0x85, 0xbd,
  0xd7, 0x78, 0x0b, 0x3f, 0xba, 0x1c, 0x2a, 0x3f, 0x82, 0xd0, 0x9f, 0xbe,
  0xd9, 0x11, 0x3c, 0x3f, 0x90, 0x5b, 0xc7, 0x3d, 0x93, 0x6e, 0x02, 0x3f,
  0x74, 0xb8, 0x62, 0xc0, 0xd7, 0xd0, 0x66, 0xbf, 0x0c, 0x4b, 0x35, 0xbd,
  0xc0, 0x48, 0xd2, 0x3d, 0x52, 0x43, 0xce, 0xbe, 0xda, 0xd7, 0x63, 0x3e,
  0xec, 0x5f, 0xc3, 0xbe, 0x3a, 0x0b, 0x27, 0x3f, 0xa6, 0x3a, 0x60, 0xbd,
  0x3f, 0xdf, 0xe1, 0xbc, 0xba, 0xff, 0x82, 0x3e, 0x26, 0x2b, 0x14, 0x3c,
  0xe4, 0x5e, 0x49, 0x3f, 0xd8, 0x74, 0xc6, 0x3e, 0x0c, 0x4a, 0x6e, 0x3f,
  0xa3, 0xd2, 0x96, 0xbf, 0x79, 0x7c, 0x2b, 0xbf, 0x67, 0x18, 0x02, 0x3e,
  0xc4, 0x54, 0x12, 0x40, 0x8e, 0xa5, 0x07, 0xbe, 0x8d, 0x50, 0x1c, 0x3f,
  0x13, 0x78, 0x43, 0xbe, 0x33, 0x94, 0x9c, 0x3d, 0xab, 0xe5, 0xf9, 0x3a,
  0x44, 0x30, 0x1e, 0xbf, 0x36, 0xcf, 0xff, 0x3f, 0x97, 0xe9, 0xc4, 0x3e,
  0x3b, 0xee, 0x46, 0x3f, 0x2e, 0x05, 0x0d, 0x3e, 0x8a, 0xfe, 0x45, 0xbe,
  0x62, 0xc7, 0xc5, 0xbe, 0x8e, 0x70, 0x2e, 0xbe, 0xb1, 0xb7, 0x9a, 0xbd,
  0xad, 0x9e, 0xf1, 0xbd, 0xba, 0x70, 0xee, 0xbe, 0xbc, 0x38, 0xa1, 0xbd,
  0xa1, 0xa8, 0x66, 0x3c, 0x28, 0x1e, 0x98, 0xbc, 0xdb, 0x36, 0x20, 0x3b,
  0xb3, 0x30, 0x89, 0x3d, 0x12, 0xca, 0x42, 0x3f, 0x09, 0x3b, 0x27, 0xbf,
  0x43, 0x5a, 0xc4, 0x3e, 0xd0, 0x75, 0x1b, 0xbf, 0xfd, 0xb0, 0x7e, 0xbf,
  0x06, 0x60, 0x7d, 0xc0, 0x57, 0xa2, 0xf9, 0x3e, 0x02, 0xb7, 0xd9, 0xbf,
  0x84, 0x28, 0x6a, 0xbd, 0x85, 0x51, 0x1c, 0xbf, 0x6f, 0xe0, 0xe9, 0x3e,
  0x00, 0x44, 0xa6, 0xbe, 0x28, 0xae, 0x89, 0xbe, 0xa2, 0x88, 0x00, 0x3f,
  0xd0, 0x98, 0x03, 0xbd, 0x69, 0x84, 0x43, 0xbd, 0x08, 0x6e, 0x0a, 0xbe,
  0x04, 0xcc, 0x0b, 0x3e, 0xf1, 0x4b, 0xa0, 0xbf, 0xe1, 0x3e, 0x5d, 0x3f,
  0xd9, 0xd5, 0xf6, 0xbe, 0xcf, 0xbd, 0xc7, 0xbe, 0x98, 0x8e, 0x0b, 0xbf,
  0x99, 0xd2, 0x8d, 0x40, 0x98, 0x22, 0xf0, 0xbb, 0x7c, 0xcb, 0xbc, 0xbd,
  0x49, 0x25, 0xb3, 0xbe, 0x56, 0xfb, 0x24, 0x3f, 0x0f, 0x2e, 0x71, 0x3c,
  0x8a, 0x33, 0x75, 0xbd, 0x3e, 0x6d, 0x32, 0x3d, 0x6c, 0x8a, 0xc9, 0x3e,
  0xfb, 0xb8, 0x11, 0x3f, 0x45, 0xba, 0xa8, 0xbe, 0x78, 0xb6, 0x44, 0xbb,
  0xf9, 0x06, 0xf3, 0x3e, 0x6d, 0x0d, 0x52, 0xbd, 0xb8, 0x0d, 0xac, 0x3e,
  0x12, 0x14, 0x87, 0xc0, 0x00, 0x05, 0x62, 0xbe, 0x99, 0x20, 0xfe, 0x3d,
  0xa7, 0xaa, 0x15, 0xbf, 0xfe, 0xeb, 0xfd, 0x3d, 0x19, 0x9f, 0x93, 0x3d,
  0x10, 0x3e, 0x64, 0xbd, 0xe9, 0x9a, 0x87, 0xbf, 0x49, 0x16, 0x1d, 0xbf,
  0x21, 0x71, 0x00, 0xbf, 0xfe, 0x90, 0xa4, 0xbf, 0xb8, 0xfe, 0x79, 0xbf,
  0xf8, 0xb2, 0x6c, 0x40, 0xeb, 0x92, 0x46, 0x3e, 0x5d, 0x9d, 0x46, 0xbf,
  0xcb, 0x60, 0x83, 0x40, 0x33, 0x49, 0x0b, 0x3f, 0x95, 0xbe, 0xfa, 0x3e,
  0x42, 0x49, 0x86, 0x3e, 0xf7, 0xdd, 0x95, 0x3e, 0xf3, 0xdb, 0xd2, 0xb8,
  0x25, 0x1e, 0xee, 0x3e, 0x82, 0x07, 0x7c, 0x3f, 0x78, 0x5b, 0x82, 0x3f,
  0x15, 0x62, 0xfe, 0xbe, 0x44, 0x06, 0x2b, 0xbf, 0x42, 0x62, 0x26, 0xbe,
  0x01, 0x21, 0x89, 0xbd, 0x35, 0x8c, 0x1e, 0xbe, 0xcf, 0xe6, 0x72, 0x3e,
  0x97, 0xcd, 0xbf, 0xbf, 0x81, 0x6c, 0xed, 0x3d, 0xf2, 0x0b, 0x9c, 0xbe,
  0xec, 0x49, 0x9e, 0x3e, 0xa0, 0x1d, 0xb4, 0xbd, 0x82, 0x2a, 0x3a, 0xbf,
  0x75, 0xf5, 0x0f, 0x3f, 0x60, 0xa9, 0x98, 0xbf, 0x9e, 0xd9, 0x03, 0x40,
  0x5e, 0xdc, 0x31, 0x3f, 0xda, 0x77, 0xd4, 0xbe, 0x95, 0x70, 0x84, 0xbd,
  0xcf, 0xf8, 0x2d, 0x3f, 0xc6, 0xfb, 0x7c, 0x3d, 0x5c, 0x99, 0x9b, 0x3e,
  0x79, 0xd1, 0x08, 0xc0, 0x94, 0x7d, 0x28, 0x3f, 0x42, 0x0f, 0x32, 0xbf,
  0xef, 0xcb, 0x18, 0xbf, 0xf5, 0xb1, 0xb7, 0xbd, 0x9c, 0x52, 0xd1, 0xbc,
  0xfc, 0xcf, 0x05, 0xbc, 0xb7, 0x9d, 0x39, 0x3f, 0xab, 0x6f, 0x17, 0x40,
  0xbf, 0x35, 0x8b, 0x3f, 0x11, 0x65, 0xe4, 0x3d, 0xf8, 0xd6, 0xa1, 0xbd,
  0x56, 0x82, 0x9f, 0xbe, 0x2a, 0x9c, 0xad, 0xbd, 0xb4, 0x6d, 0x71, 0x3e,
  0xca, 0x34, 0x96, 0xbf, 0x3d, 0x78, 0xe3, 0xbe, 0x43, 0x91, 0x67, 0xbf,
  0x8e, 0x6a, 0x9c, 0xbe, 0x71, 0xfe, 0xf5, 0x3d, 0xb5, 0x26, 0x6c, 0x3d,
  0x16, 0xa1, 0x51, 0x3e, 0x63, 0x81, 0x29, 0x3f, 0x62, 0x5a, 0x1b, 0x3d,
  0x67, 0x68, 0x84, 0x3e, 0xae, 0x52, 0x14, 0xbf, 0x6d, 0x34, 0x65, 0x3f,
  0x67, 0x29, 0x89, 0xc0, 0x12, 0x98, 0x90, 0xbf, 0xf3, 0xfa, 0x00, 0xbf,
  0x97, 0xae, 0xde, 0xbf, 0x22, 0xc9, 0xae, 0xbe, 0xd1, 0x3a, 0x6e, 0xbe,
  0xf2, 0xa4, 0xfa, 0xbe, 0x99, 0xe1, 0x42, 0x3e, 0x1d, 0x18, 0x83, 0x3e,
  0xbc, 0xbf, 0x88, 0xbd, 0x11, 0x88, 0x5c, 0x3d, 0x7d, 0xf4, 0x34, 0x3f,
  0xc3, 0x90, 0x04, 0x3e, 0xc5, 0x03, 0x44, 0xbf, 0x71, 0xec, 0x14, 0x3f,
  0x19, 0xfe, 0x68, 0x3f, 0x68, 0x75, 0xc6, 0xbf, 0x58, 0xbd, 0x75, 0xbf,
  0xd8, 0x73, 0x89, 0xc0, 0xbe, 0x19, 0x31, 0x3d, 0xf3, 0x58, 0x55, 0xbf,
  0x91, 0xb8, 0x0e, 0xbf, 0x1e, 0xd6, 0x0d, 0xbf, 0x2f, 0x49, 0x3d, 0x3d,
  0x67, 0x7c, 0xbd, 0x3e, 0x02, 0xc8, 0x03, 0xbf, 0x20, 0xbc, 0x2a, 0xbf,
  0x20, 0xd9, 0x64, 0xbf, 0xd2, 0x4a, 0xd8, 0x3f, 0xf5, 0x79, 0x8f, 0xbf,
  0x90, 0x69, 0x10, 0x40, 0xb6, 0xdf, 0x52, 0x3d, 0x9f, 0x22, 0xcf, 0x3d,
  0x49, 0xd4, 0x93, 0x40, 0x56, 0x8d, 0xd0, 0x3e, 0xb7, 0x45, 0x44, 0x3f,
  0xef, 0xb5, 0x8c, 0x3e, 0x31, 0xb5, 0x4c, 0xbf, 0x76, 0x7f, 0x12, 0x3f,
  0x9b, 0x6a, 0x94, 0xbe, 0xcb, 0x13, 0x12, 0xc0, 0x70, 0x9c, 0x6e, 0xbd,
  0x2f, 0x7f, 0xa9, 0x3d, 0x6d, 0x30, 0x24, 0x3f, 0xe4, 0x19, 0xd1, 0xbd,
  0xdc, 0x76, 0x10, 0xc0, 0x9e, 0xf1, 0x9f, 0x3e, 0x6c, 0x3d, 0x4d, 0x3f,
  0xd4, 0xca, 0xff, 0xbe, 0x30, 0xa7, 0x9f, 0x3e, 0x21, 0x6d, 0x57, 0xbd,
  0x7c, 0x82, 0x66, 0x3f, 0xd1, 0x7e, 0x32, 0x3a, 0xb7, 0x64, 0xd8, 0xbe,
  0xa6, 0x29, 0xbb, 0x3c, 0x95, 0x4f, 0x3c, 0x3e, 0xf8, 0xec, 0x55, 0xbf,
  0xe1, 0xba, 0xf7, 0x3e, 0xc5, 0x87, 0x72, 0x3f, 0x05, 0x33, 0x2b, 0xbf,
  0xc9, 0x8f, 0x88, 0xba, 0x6c, 0x2a, 0x36, 0xbf, 0xe2, 0x06, 0xf6, 0x3e,
  0xfe, 0xf0, 0x59, 0x40, 0xc7, 0x20, 0xbe, 0xba, 0x65, 0xe1, 0x3b, 0x3f,
  0xfb, 0x8c, 0xd0, 0x3d, 0xbd, 0x34, 0x01, 0xbf, 0x3c, 0x40, 0x6a, 0xbc,
  0x66, 0x60, 0x11, 0xbf, 0x04, 0xec, 0x13, 0xbf, 0x67, 0xb9, 0x0b, 0xbf,
  0xb8, 0xcc, 0xb6, 0x3e, 0xe5, 0x90, 0xb4, 0xbf, 0x9b, 0x31, 0x0f, 0xbf,
  0xfb, 0xa6, 0x47, 0x40, 0x7b, 0xf6, 0xe5, 0x3e, 0x32, 0x5a, 0xe8, 0xbe,
  0x97, 0xa2, 0xfb, 0x3f, 0xd2, 0xea, 0x9d, 0x3e, 0x38, 0x94, 0xa7, 0x3e,
  0x16, 0xc5, 0xa2, 0xbf, 0xcd, 0xaf, 0x48, 0x3f, 0x33, 0xfe, 0x93, 0xbe,
  0x1e, 0xc2, 0xa3, 0xbd, 0x72, 0x59, 0x8d, 0x3f, 0xe1, 0x11, 0x90, 0x3f,
  0x2a, 0xf4, 0x66, 0xbf, 0x31, 0x2e, 0xad, 0x3e, 0x7b, 0x2e, 0x77, 0xbd,
  0x17, 0x50, 0x29, 0xc0, 0x04, 0x80, 0x17, 0x3e, 0xfc, 0x11, 0xf2, 0x3e,
  0xf1, 0x49, 0x47, 0xc0, 0xf6, 0x51, 0x39, 0xbf, 0x33, 0x5c, 0x59, 0xbf,
  0xd9, 0x6a, 0x91, 0x3f, 0x09, 0xb1, 0x24, 0x3f, 0xf8, 0x27, 0x82, 0xbe,
  0xe3, 0x46, 0xae, 0x3d, 0xc1, 0x3f, 0x26, 0x3e, 0xbb, 0x2e, 0x45, 0xc0,
  0xd7, 0xff, 0xe0, 0xbc, 0xcd, 0x9d, 0xca, 0x3e, 0xf8, 0x94, 0xd0, 0x3c,
  0x48, 0xdd, 0x5d, 0x3f, 0x7a, 0xc2, 0xca, 0x3e, 0x04, 0xd8, 0x81, 0x3e,
  0x20, 0xbc, 0x9a, 0x40, 0xa7, 0xa2, 0xbb, 0x3e, 0xbe, 0x0c, 0xdb, 0x3f,
  0x34, 0xa0, 0x0a, 0xbe, 0x83, 0xb2, 0x6b, 0xbe, 0x12, 0xa2, 0xa5, 0x3d,
  0x9c, 0x54, 0x87, 0x3e, 0x68, 0x3f, 0x05, 0x3f, 0x86, 0xb6, 0x9e, 0x3d,
  0xf2, 0x1d, 0xa2, 0xbd, 0x7b, 0xb4, 0x46, 0xbf, 0x64, 0x48, 0xc8, 0x3e,
  0x0b, 0x80, 0x07, 0xc0, 0x02, 0x85, 0xc1, 0xbe, 0x16, 0xd3, 0x00, 0xba,
  0xe7, 0x36, 0x24, 0xbf, 0x7f, 0x2d, 0x8d, 0x3e, 0xde, 0x24, 0x9c, 0xbd,
  0x3c, 0xa5, 0x8a, 0x3f, 0x87, 0x09, 0x02, 0x3f, 0x0b, 0xf6, 0x1d, 0xbf,
  0x8b, 0x11, 0xda, 0x3d, 0xe2, 0xcb, 0x1d, 0xbf, 0x79, 0x75, 0xe3, 0x3e,
  0x13, 0x6e, 0x92, 0x3d, 0x19, 0x01, 0xac, 0xbe, 0x15, 0x81, 0x7e, 0xbe,
  0xfc, 0x17, 0x52, 0x40, 0x89, 0xee, 0x98, 0x3d, 0xba, 0xff, 0x67, 0xbe,
  0x6f, 0xc7, 0x6e, 0x3f, 0x32, 0xcd, 0xc2, 0x3e, 0x28, 0x01, 0x76, 0x3e,
  0xb1, 0x61, 0x08, 0x3e, 0xe6, 0x45, 0x91, 0x3f, 0x1e, 0x67, 0x98, 0x3e,
  0xbf, 0xbb, 0x53, 0x3f, 0x41, 0x88, 0x11, 0xbd, 0x05, 0x18, 0xee, 0x3d,
  0x15, 0x40, 0x3e, 0x3f, 0x46, 0x76, 0x17, 0x3f, 0x48, 0x0a, 0x07, 0x3f,
  0x61, 0x79, 0x70, 0xc0, 0x7b, 0xb2, 0x89, 0x3e, 0x1e, 0x37, 0x02, 0x3f,
  0x67, 0xd2, 0xd7, 0xbf, 0x01, 0x15, 0x2d, 0xbf, 0x0c, 0xa7, 0x14, 0xbf,
  0xc9, 0x4d, 0x72, 0xbf, 0x14, 0xfb, 0x5d, 0x3e, 0x54, 0x7c, 0x83, 0xbe,
  0x0b, 0xf0, 0x30, 0x3e, 0xa0, 0x02, 0x80, 0x3f, 0xf4, 0xcf, 0x1f, 0xbf,
  0xea, 0x3b, 0xe2, 0xbe, 0xe2, 0x36, 0x00, 0x3f, 0x6f, 0xef, 0x03, 0xbf,
  0x28, 0xd1, 0x28, 0xc0, 0xcf, 0x88, 0xf1, 0x3e, 0x21, 0x15, 0x0c, 0x3f,
  0x22, 0x6a, 0xca, 0x3f, 0xd8, 0xbc, 0xe4, 0xbe, 0xa4, 0x13, 0xf2, 0x3e,
  0x83, 0xa0, 0xd0, 0xbc, 0x84, 0x14, 0xae, 0xbe, 0xfa, 0x59, 0x51, 0xbf,
  0xe8, 0xc5, 0xb4, 0x3e, 0x43, 0x9d, 0x4b, 0xbf, 0x95, 0x56, 0x7f, 0x3e,
  0x95, 0xab, 0x4a, 0xbf, 0x8a, 0xf8, 0xcd, 0x3e, 0xe8, 0x8e, 0x8b, 0x3f,
  0xe6, 0xe1, 0x42, 0x40, 0x6a, 0xe4, 0x79, 0xbf, 0x07, 0xac, 0x33, 0x3f,
  0x93, 0x1f, 0xfc, 0xbe, 0xed, 0x67, 0x57, 0x3e, 0x61, 0x97, 0x9d, 0xbc,
  0x73, 0xbd, 0xbb, 0x3d, 0xd9, 0xa8, 0xd7, 0xbe, 0xa9, 0xfd, 0xce, 0xbe,
  0xad, 0x54, 0x28, 0x3e, 0xe7, 0xa5, 0xc9, 0xbf, 0xf1, 0x3f, 0x27, 0x3f,
  0xcc, 0x38, 0x84, 0xbf, 0x85, 0xab, 0x9b, 0x3e, 0xd4, 0x69, 0x66, 0xbf,
  0x7b, 0xcb, 0xe0, 0xbc, 0x68, 0xae, 0x25, 0x3f, 0xc0, 0x6b, 0x02, 0x3e,
  0x66, 0x33, 0x24, 0xc0, 0x93, 0x85, 0x9f, 0x3e, 0x16, 0x14, 0x8a, 0x3e,
  0xcf, 0x03, 0x03, 0x3f, 0xf2, 0xd2, 0x8a, 0x3e, 0xcb, 0x1b, 0x15, 0xbe,
  0x7b, 0xb1, 0xaa, 0x3f, 0x8f, 0x90, 0xde, 0xbe, 0xfa, 0x0e, 0x73, 0x3f,
  0x72, 0x3e, 0x2c, 0x3f, 0xc4, 0x4b, 0x19, 0x3e, 0x82, 0xad, 0x7e, 0xbf,
  0x00, 0x07, 0x11, 0x40, 0xb2, 0x76, 0x4d, 0x3f, 0xa0, 0xfd, 0xce, 0x3e,
  0x22, 0x01, 0x8d, 0xc0, 0xef, 0xac, 0x49, 0x3f, 0xc5, 0xa3, 0xff, 0xbe,
  0xfd, 0xae, 0xab, 0xbe, 0x39, 0xa3, 0xfc, 0x3e, 0x1e, 0x3f, 0x47, 0xbe,
  0x4a, 0xb5, 0x8d, 0x3e, 0x32, 0x5d, 0x7c, 0x3d, 0xbd, 0x9b, 0x70, 0x3f,
  0x2e, 0x1e, 0xb6, 0x3e, 0xe9, 0x56, 0xe7, 0x3e, 0xd3, 0xb5, 0x8c, 0x3f,
  0x6c, 0x6d, 0x0c, 0x3f, 0x7e, 0x7e, 0x15, 0xbf, 0x76, 0x64, 0x33, 0x3f,
  0x27, 0x54, 0x6a, 0xc0, 0x84, 0x7e, 0x88, 0xbe, 0x84, 0x53, 0xdf, 0xbe,
  0x16, 0xb5, 0xa9, 0x3f, 0x6d, 0x63, 0x8a, 0x3e, 0xe0, 0xec, 0x35, 0x3e,
  0x97, 0xe2, 0xe2, 0xbe, 0x18, 0x11, 0x7f, 0xbf, 0x92, 0xee, 0xf9, 0x3d,
  0xcc, 0x99, 0x09, 0xbe, 0x70, 0xd6, 0xbb, 0xbf, 0xe2, 0x9b, 0xc3, 0x3e,
  0x23, 0x74, 0x8e, 0x40, 0xf1, 0x6a, 0x4b, 0xbf, 0x39, 0xea, 0xb4, 0xbf,
  0xfa, 0x42, 0x53, 0xbd, 0x95, 0xe6, 0x1b, 0x3f, 0x1a, 0x8e, 0x53, 0xbd,
  0xa9, 0xc9, 0x33, 0xbe, 0xc0, 0xce, 0x9d, 0x3d, 0x41, 0x29, 0xcc, 0xbe,
  0x49, 0x69, 0x02, 0xbe, 0x52, 0x2d, 0xb5, 0xba, 0x09, 0x81, 0x07, 0xbf,
  0x0a, 0x2e, 0x21, 0x3f, 0xc7, 0x25, 0x34, 0xbb, 0x07, 0x25, 0xaf, 0xbe,
  0x91, 0xb1, 0x3c, 0x40, 0x9c, 0x37, 0x79, 0xbd, 0x53, 0x60, 0xfe, 0xbe,
  0xd1, 0xd1, 0xc1, 0xbf, 0xfb, 0x97, 0xa3, 0x3e, 0x76, 0x96, 0x80, 0x3f,
  0x8c, 0x54, 0x7d, 0xbf, 0xc6, 0x4a, 0xe5, 0x3e, 0xae, 0xa0, 0x8d, 0xbd,
  0x6d, 0xbb, 0x38, 0x3d, 0x15, 0x64, 0x75, 0xc0, 0x1e, 0xe2, 0x8e, 0x3e,
  0xc8, 0x2f, 0xf0, 0xbc, 0x76, 0x59, 0x45, 0x3f, 0x39, 0x4b, 0x2b, 0x3d,
  0x44, 0xe8, 0x77, 0x40, 0x05, 0x0c, 0x84, 0xbe, 0xaa, 0x86, 0x7f, 0xbd,
  0xf9, 0xd9, 0x45, 0x3f, 0x64, 0x99, 0xbd, 0x3f, 0x74, 0xc3, 0xfe, 0xbd,
  0x57, 0x45, 0xa8, 0x3e, 0x47, 0x7e, 0xaa, 0xbd, 0xfe, 0xfa, 0x52, 0x3e,
  0x85, 0x1d, 0x84, 0xbd, 0x9d, 0x3c, 0xd5, 0x3e, 0x3f, 0x9d, 0x2a, 0x3f,
  0x80, 0x37, 0x24, 0x40, 0x5d, 0x5a, 0x3e, 0xbe, 0xa4, 0x8a, 0x5e, 0x3e,
  0x31, 0xf8, 0x87, 0x3f, 0xaf, 0x48, 0x08, 0xbd, 0x21, 0xf8, 0x22, 0xbe,
  0x77, 0xf9, 0xa1, 0x3f, 0x9c, 0x76, 0x34, 0x3f, 0x6f, 0x94, 0x11, 0xbf,
  0x2a, 0x8a, 0x9a, 0xbf, 0x8b, 0x44, 0xd2, 0x3c, 0x66, 0xb7, 0x89, 0x3d,
  0x44, 0x7c, 0x09, 0x3e, 0x0c, 0x63, 0x85, 0xbf, 0xfc, 0xe0, 0x63, 0xbe,
  0xa8, 0xb1, 0x67, 0xbf, 0xd1, 0x48, 0x8b, 0xbe, 0x7a, 0x43, 0x8a, 0x3f,
  0xd9, 0x8a, 0x66, 0x40, 0x65, 0x95, 0x77, 0xbf, 0x92, 0xc9, 0xcf, 0xbe,
  0x9b, 0xb5, 0x34, 0x3f, 0x57, 0x88, 0x01, 0x3f, 0xa0, 0xb8, 0x41, 0x3c,
  0x4c, 0x91, 0x1c, 0x3e, 0xa2, 0x44, 0xf4, 0xbe, 0x39, 0x36, 0x8c, 0xbe,
  0x12, 0x34, 0x5d, 0xbe, 0x25, 0xc3, 0x13, 0x3f, 0x00, 0x01, 0x8b, 0xbf,
  0x2e, 0xd6, 0x28, 0xbf, 0x70, 0xcd, 0xc5, 0xbf, 0xe4, 0x83, 0xcc, 0xbe,
  0xad, 0xfb, 0xde, 0xbf, 0x86, 0x16, 0x95, 0x3f, 0xef, 0x7a, 0x05, 0xbf,
  0xe2, 0xd8, 0x54, 0x40, 0x18, 0x1b, 0xce, 0xbe, 0x62, 0xda, 0x52, 0x3f,
  0xdd, 0x27, 0x70, 0x3f, 0xad, 0xa6, 0xe7, 0x3e, 0x03, 0x42, 0xc7, 0x3e,
  0x33, 0xd8, 0x60, 0xbe, 0xc7, 0x8c, 0x06, 0xbe, 0xa3, 0x02, 0x34, 0xbf,
  0x75, 0xd7, 0x11, 0x3f, 0x6b, 0x76, 0x20, 0xbb, 0x97, 0x22, 0x0d, 0xbf,
  0x56, 0xa2, 0x5e, 0x40, 0x71, 0x19, 0x5a, 0x3f, 0x74, 0xc3, 0x83, 0x3e,
  0x0f, 0xfb, 0x2b, 0x40, 0x39, 0x5a, 0xa7, 0xbe, 0x2f, 0x67, 0x5c, 0xbe,
  0x71, 0x28, 0x86, 0xbf, 0xec, 0x37, 0x4f, 0x3e, 0x99, 0x39, 0x01, 0x3f,
  0x70, 0x29, 0xc8, 0x3d, 0x72, 0x0d, 0xfe, 0xbe, 0x10, 0xd5, 0x69, 0x3c,
  0x58, 0xec, 0x27, 0xbf, 0x86, 0x85, 0x76, 0xbf, 0xbe, 0xa3, 0x9e, 0xbf,
  0xa4, 0x6a, 0x3b, 0x3e, 0xa1, 0x4d, 0x27, 0x3f, 0x82, 0x2d, 0xe6, 0xbc,
  0x3d, 0x36, 0x27, 0xc0, 0x71, 0x88, 0x4e, 0x3d, 0x05, 0xcb, 0x4c, 0xbf,
  0x45, 0x9d, 0x6f, 0xbe, 0x65, 0xd3, 0x95, 0xbe, 0xe3, 0x4d, 0xe2, 0xbe,
  0x3c, 0xf5, 0xc5, 0x3f, 0xf9, 0xb6, 0xad, 0x3e, 0x5c, 0x30, 0x63, 0xc0,
  0x6c, 0xed, 0x09, 0x3d, 0x8b, 0xd2, 0xbc, 0x3e, 0xd2, 0x96, 0x93, 0x3d,
  0xf2, 0x4f, 0x80, 0xbf, 0x40, 0x68, 0x63, 0x3e, 0x82, 0xf5, 0xdb, 0x3e,
  0x54, 0xc2, 0xee, 0x3f, 0xa7, 0x6e, 0xac, 0xbe, 0xbf, 0xc6, 0x7c, 0x3f,
  0xae, 0x93, 0xf1, 0xbe, 0x8a, 0xf0, 0x49, 0xbe, 0x96, 0x49, 0xe9, 0xbd,
  0x1a, 0x9a, 0x9e, 0xbd, 0x80, 0xdb, 0x89, 0x3e, 0x8e, 0xcb, 0xa9, 0xbe,
  0x6c, 0xf9, 0x06, 0xbf, 0x67, 0x04, 0xc5, 0xbe, 0x3f, 0xe7, 0x94, 0xbf,
  0x47, 0xc6, 0xd1, 0xbf, 0x55, 0x99, 0x0a, 0x3f, 0xa1, 0xf8, 0x7d, 0xbe,
  0x9b, 0xf5, 0xe6, 0x3f, 0xdc, 0x7e, 0xe6, 0xbe, 0xe5, 0xe3, 0xea, 0x3c,
  0xe2, 0xd4, 0xb3, 0xbe, 0x6d, 0x95, 0xe0, 0xbc, 0x42, 0x09, 0x89, 0x3e,
  0x0c, 0x95, 0x85, 0x3e, 0xad, 0x68, 0x21, 0xbf, 0xa3, 0xd0, 0x39, 0xbe,
  0xeb, 0x25, 0x7a, 0xbe, 0x68, 0x9b, 0x5c, 0x3f, 0xf8, 0xd4, 0x2a, 0xbe,
  0x0d, 0x4a, 0xde, 0x3f, 0x8f, 0xd3, 0x24, 0x3f, 0x9c, 0x79, 0x0d, 0xbf,
  0x9d, 0x8c, 0xf1, 0x3e, 0x37, 0x5e, 0x0f, 0xbf, 0xd3, 0xb8, 0x26, 0x3f,
  0xd8, 0xac, 0x00, 0x40, 0x33, 0x60, 0x4f, 0x3d, 0x82, 0x7a, 0x60, 0x3e,
  0xb9, 0x3b, 0xa9, 0x3e, 0x40, 0xc1, 0x9b, 0x3f, 0xe8, 0x40, 0xdd, 0x3f,
  0xf8, 0x42, 0xb3, 0xbf, 0x38, 0x94, 0x22, 0x3f, 0x06, 0xa2, 0x8d, 0xbe,
  0xb5, 0x56, 0x89, 0xbf, 0xfc, 0x40, 0xc0, 0x3c, 0x42, 0x0c, 0x96, 0x3d,
  0xba, 0x87, 0xb2, 0xbf, 0x02, 0x44, 0x8d, 0xbe, 0xbe, 0x4b, 0x32, 0xbf,
  0xc2, 0x9b, 0xc5, 0x3e, 0x57, 0x77, 0x53, 0x3e, 0xdc, 0x74, 0x6b, 0xbe,
  0x92, 0x9c, 0x84, 0x3e, 0xd1, 0x6f, 0xa5, 0xbe, 0xbb, 0x54, 0x33, 0xbf,
  0xeb, 0x4c, 0x34, 0xbf, 0x32, 0xc3, 0x0c, 0xbe, 0x86, 0xcf, 0xfa, 0xbe,
  0x67, 0x29, 0x89, 0x3f, 0x93, 0x53, 0x9a, 0x3e, 0x47, 0x1a, 0x64, 0xbf,
  0x5c, 0x21, 0xf1, 0xbe, 0x8b, 0xda, 0x50, 0xbe, 0xe4, 0x32, 0x52, 0x3d,
  0x85, 0xf5, 0xe3, 0x3e, 0x80, 0xfd, 0xa6, 0x3e, 0x77, 0x4d, 0xd9, 0xbd,
  0xee, 0x6a, 0xee, 0x3e, 0x0f, 0x8e, 0xc4, 0xbe, 0x51, 0x9d, 0xce, 0xbe,
  0x5e, 0xb7, 0x9a, 0xbf, 0x94, 0xf3, 0xdc, 0x3e, 0x35, 0xcf, 0xc2, 0xbe,
  0xe0, 0x28, 0x71, 0x3e, 0xd6, 0x8e, 0x41, 0x3e, 0x73, 0x48, 0xa5, 0x3e,
  0x66, 0x4e, 0xc6, 0x3e, 0x2c, 0xc7, 0xf9, 0x3d, 0xf5, 0x79, 0x1f, 0x3e,
  0x17, 0xcd, 0x40, 0x3f, 0xb0, 0xcc, 0x2a, 0xbe, 0x34, 0xf5, 0x81, 0x3b,
  0x1f, 0xb9, 0x85, 0x3d, 0x5b, 0xc4, 0x9b, 0x3f, 0x4b, 0xc2, 0x90, 0x3f,
  0x75, 0x4e, 0x64, 0x3e, 0x58, 0x1d, 0x8f, 0x3e, 0x19, 0x58, 0x18, 0xbe,
  0x5c, 0xc3, 0xc1, 0xbf, 0xac, 0x3d, 0x24, 0x3f, 0x4b, 0xdb, 0xe3, 0x3d,
  0xd7, 0x14, 0xa0, 0x3f, 0x05, 0xef, 0xe2, 0xbe, 0xe0, 0x84, 0x6e, 0x3d,
  0x35, 0x2b, 0x04, 0x3f, 0xe6, 0x44, 0x12, 0xbd, 0x1d, 0x7e, 0x48, 0xbc,
  0x43, 0x45, 0x6b, 0xbd, 0x7f, 0xe6, 0xc5, 0xbb, 0x9e, 0x47, 0x2c, 0xbd,
  0x56, 0x6a, 0xb5, 0xc0, 0x41, 0x56, 0xb6, 0x3e, 0xb1, 0x87, 0x9b, 0x3e,
  0xfe, 0x9d, 0xef, 0x3d, 0x1b, 0xb7, 0xe1, 0x3e, 0x90, 0xa3, 0x00, 0x3f,
  0xca, 0xe2, 0x05, 0x3e, 0x4f, 0xaa, 0x67, 0x3a, 0x98, 0x92, 0x1f, 0x3d,
  0x51, 0x95, 0x98, 0x3f, 0x78, 0x53, 0xdc, 0xbd, 0x91, 0x4b, 0x79, 0xbc,
  0x80, 0x73, 0x13, 0xbd, 0xff, 0x8b, 0x3d, 0x3e, 0x6e, 0x18, 0x30, 0x3f,
  0x8d, 0xa9, 0x3f, 0x3e, 0xc1, 0x5c, 0x2c, 0xbd, 0x8e, 0xfa, 0xf9, 0x3e,
  0x92, 0xf4, 0xb7, 0xbf, 0x0c, 0xd4, 0x72, 0xbe, 0xa0, 0xbe, 0x6e, 0xbe,
  0xf7, 0xae, 0xee, 0xbf, 0x5b, 0x08, 0x00, 0x3e, 0xa7, 0x56, 0x19, 0xbe,
  0x96, 0xaa, 0xa3, 0xbe, 0x7d, 0x7a, 0x23, 0x3f, 0xc4, 0x74, 0x32, 0xbe,
  0x09, 0x39, 0x8e, 0xbe, 0x96, 0x62, 0xf1, 0xbe, 0xa7, 0xdf, 0x72, 0xbf,
  0xe7, 0x00, 0x16, 0x3e, 0x10, 0xd3, 0x82, 0x3f, 0x89, 0x8b, 0xad, 0x3e,
  0x2b, 0x12, 0x2b, 0x3f, 0x23, 0x41, 0xb3, 0x3d, 0x3b, 0x5f, 0xef, 0x3e,
  0x78, 0x7d, 0xd0, 0x3f, 0xd6, 0xa2, 0x21, 0x3e, 0x98, 0xd4, 0xb2, 0x3e,
  0xe3, 0x53, 0x6e, 0x3d, 0xa2, 0x02, 0xae, 0xbd, 0x9f, 0x6a, 0x8f, 0x3d,
  0xaa, 0x9f, 0x0e, 0xbe, 0x50, 0xdc, 0xf7, 0xbf, 0xfd, 0x6e, 0x42, 0x3f,
  0x38, 0xd1, 0x9e, 0xbe, 0x34, 0x41, 0x27, 0x3f, 0x26, 0x3f, 0x89, 0x3d,
  0x25, 0xa1, 0x96, 0x40, 0xaa, 0x48, 0x1f, 0x3e, 0x15, 0x04, 0xbe, 0x3e,
  0x2b, 0xa1, 0x6a, 0xbf, 0xea, 0xa2, 0x9b, 0x3f, 0xb5, 0x57, 0xc6, 0xbe,
  0xf7, 0x26, 0x1c, 0x3f, 0x4b, 0xfe, 0x08, 0x3e, 0xe4, 0xa3, 0x3d, 0x3f,
  0xd2, 0x98, 0x04, 0xbe, 0xb9, 0xdf, 0x85, 0x3f, 0x47, 0x4f, 0x64, 0x3f,
  0x9d, 0xe1, 0x0f, 0xbe, 0x3d, 0xa6, 0xdc, 0xbf, 0xd4, 0xfb, 0xdb, 0x3e,
  0x55, 0xdd, 0x57, 0xc0, 0xb6, 0x70, 0x3e, 0xbf, 0x2f, 0x20, 0xc0, 0xbf,
  0x2d, 0x57, 0x4d, 0xc0, 0x14, 0x55, 0xf1, 0xbe, 0x4d, 0x44, 0xd7, 0xbe,
  0x9d, 0x3d, 0x52, 0x3e, 0x9b, 0xbb, 0xca, 0xbd, 0x82, 0x25, 0x96, 0x3e,
  0x75, 0x03, 0xd7, 0x3e, 0x95, 0xad, 0x28, 0x40, 0xaf, 0xc6, 0x02, 0x3f,
  0xa2, 0x89, 0x43, 0x3f, 0xfc, 0xbe, 0x09, 0xbe, 0xab, 0x8f, 0xbf, 0x3d,
  0x4f, 0x69, 0xff, 0xbf, 0x85, 0x1d, 0xd3, 0xbe, 0xda, 0x6f, 0x28, 0x3e,
  0x12, 0x6b, 0x85, 0xbe, 0x75, 0x8d, 0xa2, 0xbf, 0xb5, 0x9f, 0xb6, 0xbe,
  0x73, 0x76, 0x3b, 0xbe, 0x96, 0x15, 0x8e, 0x3e, 0x44, 0xbb, 0x00, 0xbe,
  0x79, 0x56, 0xdc, 0x3e, 0xad, 0x2c, 0xac, 0x3f, 0x5e, 0xad, 0xf8, 0x3d,
  0x52, 0x37, 0x3b, 0xbd, 0x84, 0x3e, 0xe4, 0x3d, 0x97, 0x0b, 0x9b, 0x3e,
  0x98, 0x76, 0xc3, 0x3d, 0x04, 0x9c, 0x6d, 0xbe, 0xb1, 0x4d, 0xcd, 0xbc,
  0x1d, 0x3f, 0x1b, 0x3e, 0x1b, 0x56, 0x5b, 0xbe, 0x48, 0xfb, 0x47, 0xbf,
  0x45, 0x5e, 0x57, 0x40, 0xef, 0xb9, 0xa9, 0xbe, 0x6a, 0xfd, 0xc6, 0xbd,
  0xaa, 0xb1, 0x5c, 0xbe, 0x5a, 0xdc, 0xff, 0xff, 0x04, 0x00, 0x00, 0x00,
  0x00, 0x20, 0x00, 0x00, 0x8f, 0xc6, 0x19, 0xbe, 0x31, 0xc6, 0xf0, 0xbc,
  0x72, 0xc4, 0x8c, 0xbf, 0x32, 0xe6, 0x28, 0xbe, 0x7d, 0x16, 0xe5, 0x3e,
  0xa8, 0x02, 0x9f, 0x3e, 0xd7, 0xb0, 0xd3, 0xbe, 0x19, 0x22, 0xc8, 0xbe,
  0xc9, 0x57, 0x5e, 0xbf, 0xc9, 0xd7, 0xba, 0xbe, 0xfa, 0xb2, 0x37, 0xbd,
  0x8a, 0xf5, 0xc4, 0xbe, 0xd7, 0xb2, 0x2a, 0xbf, 0xcd, 0xeb, 0x2f, 0xbf,
  0xec, 0x6b, 0x40, 0xbe, 0x3f, 0x77, 0x80, 0xbf, 0xc6, 0x64, 0x9a, 0xbf,
  0x61, 0xb4, 0xe9, 0x3e, 0x97, 0x72, 0x07, 0x3c, 0x8c, 0xc2, 0x79, 0xbd,
  0x4a, 0x71, 0x02, 0x3d, 0x36, 0x20, 0x16, 0x3f, 0xe8, 0xa7, 0xe1, 0xbd,
  0x9a, 0x23, 0x6b, 0x3d, 0xb4, 0x43, 0xf6, 0x3e, 0x1e, 0x76, 0x8a, 0xbd,
  0xf8, 0xe8, 0x77, 0xbf, 0x8a, 0x98, 0xe1, 0x3d, 0x63, 0x74, 0xe5, 0xbe,
  0x9e, 0x11, 0x07, 0xbf, 0x98, 0x7b, 0x7b, 0xbf, 0x17, 0x8e, 0x26, 0xbf,
  0x9e, 0x08, 0x49, 0xbf, 0x0b, 0x0a, 0x9d, 0xbe, 0x11, 0x74, 0x90, 0xbf,
  0xf7, 0x4e, 0x5b, 0xbf, 0x2e, 0x17, 0x1d, 0xbf, 0xfd, 0x4c, 0x72, 0xbe,
  0xd1, 0xf3, 0xd7, 0x3d, 0x9e, 0x9e, 0x7a, 0xbd, 0x3e, 0xa5, 0x72, 0xbe,
  0x6b, 0x3c, 0x38, 0xbf, 0x29, 0xe4, 0x3e, 0xbf, 0x30, 0xb9, 0xa6, 0xbf,
  0x80, 0x94, 0x2e, 0xbd, 0xe4, 0x8b, 0x43, 0xbe, 0xef, 0xab, 0x52, 0xbf,
  0x85, 0x89, 0xae, 0x3e, 0xe7, 0x66, 0xba, 0x3e, 0x40, 0x0b, 0xc7, 0x3e,
  0x45, 0x89, 0x23, 0x3f, 0xfc, 0xc4, 0x83, 0xbe, 0xae, 0x4e, 0x43, 0xbf,
  0x26, 0x0c, 0xb1, 0xbe, 0x09, 0xd4, 0x60, 0xbc, 0xd1, 0xea, 0x2e, 0xbf,
  0x7c, 0xd9, 0xd4, 0xbd, 0xab, 0xc9, 0x7a, 0xbf, 0x15, 0x3d, 0x12, 0xbf,
  0xc0, 0x6b, 0x09, 0xbf, 0x26, 0x57, 0xc1, 0xbf, 0x59, 0xc7, 0x3f, 0xbf,
  0x2b, 0x36, 0x34, 0x3f, 0x20, 0x32, 0x8e, 0x3d, 0x3e, 0x4c, 0x89, 0xbe,
  0x3b, 0x15, 0xc5, 0x3b, 0xa7, 0xae, 0x15, 0xbe, 0x51, 0xcf, 0xd6, 0xbe,
  0x06, 0x0d, 0x7f, 0xbd, 0x4e, 0xbc, 0x88, 0x3d, 0x66, 0xe0, 0x94, 0xbd,
  0x57, 0x7a, 0x1c, 0xbd, 0x7e, 0xdc, 0x12, 0xbe, 0xbc, 0x10, 0x03, 0xbe,
  0xc3, 0xb9, 0xbd, 0x3d, 0xbd, 0x9f, 0x20, 0xbd, 0x90, 0x77, 0x10, 0xbe,
  0x84, 0x73, 0xcf, 0xbe, 0xe2, 0x9c, 0x32, 0xbe, 0xfb, 0x5d, 0x10, 0xbd,
  0x38, 0xc4, 0x41, 0xbd, 0x41, 0xd8, 0x01, 0xbf, 0xb8, 0x50, 0x16, 0xbe,
  0xb5, 0x26, 0x3c, 0xbd, 0xfc, 0x4a, 0x94, 0xbe, 0x8d, 0xbd, 0xf2, 0x39,
  0x5f, 0xb4, 0xb1, 0x3c, 0x54, 0x50, 0xfb, 0x3d, 0xcf, 0xa7, 0x22, 0xbe,
  0x2f, 0xe2, 0x86, 0xbd, 0x55, 0x55, 0xe0, 0x3d, 0x43, 0xc9, 0x03, 0xbd,
  0x0d, 0x13, 0x03, 0xbc, 0xa2, 0x86, 0xa7, 0x3e, 0xd1, 0xae, 0x89, 0xbd,
  0x5e, 0xae, 0x90, 0x3c, 0x6b, 0xd1, 0x04, 0xbf, 0xde, 0xd4, 0x02, 0x3b,
  0x6e, 0x7b, 0xc0, 0xbe, 0x7a, 0xe7, 0x0f, 0xbe, 0x7f, 0xf5, 0x29, 0xbe,
  0x6c, 0x70, 0xc5, 0xbe, 0x71, 0xed, 0x30, 0xbe, 0xdd, 0xbd, 0xc4, 0xbe,
  0x7e, 0x68, 0xd4, 0xbc, 0x84, 0x1d, 0xe1, 0x3d, 0xdf, 0x9c, 0x08, 0xbe,
  0xf6, 0x1d, 0xb7, 0xbe, 0x20, 0x7a, 0x06, 0xbd, 0xb1, 0x93, 0x30, 0xbe,
  0x25, 0xc2, 0xf3, 0xbe, 0x37, 0x15, 0x15, 0xbe, 0xf8, 0x1d, 0xd5, 0xbd,
  0x1b, 0xee, 0x14, 0x3d, 0x98, 0xfb, 0x16, 0xbf, 0xf0, 0x4c, 0xab, 0xbe,
  0x69, 0x6f, 0x2f, 0xbd, 0xf3, 0xf8, 0x62, 0xbd, 0x61, 0xfb, 0xa6, 0x3c,
  0xe4, 0x1a, 0xf7, 0xbe, 0x25, 0x15, 0xf3, 0xbe, 0xad, 0x3e, 0xdd, 0xbd,
  0xfe, 0x3b, 0xf9, 0xbd, 0x32, 0xba, 0xbb, 0xbe, 0x25, 0x7e, 0xa9, 0xbe,
  0x20, 0x74, 0x17, 0xbe, 0xc2, 0x4e, 0x13, 0xbe, 0xd8, 0x9f, 0x19, 0xbd,
  0xee, 0x62, 0xad, 0xbf, 0x4b, 0x14, 0xc3, 0x3e, 0x81, 0x25, 0x1a, 0xbf,
  0xb8, 0xa4, 0xc9, 0xbf, 0x75, 0x5f, 0x33, 0xbe, 0x37, 0x50, 0xd7, 0xbc,
  0x16, 0x8d, 0x48, 0xbf, 0x22, 0xe8, 0xfd, 0xbe, 0xc6, 0x20, 0xa2, 0xbe,
  0x14, 0xce, 0xee, 0xbe, 0x4f, 0xda, 0xdc, 0xbf, 0x43, 0x50, 0x04, 0xbf,
  0x4c, 0x2e, 0x80, 0x3d, 0x0c, 0x6d, 0xaf, 0xbf, 0x7b, 0xba, 0xce, 0xbe,
  0x12, 0xf4, 0xa7, 0xbd, 0x15, 0xb8, 0x8b, 0xbf, 0x84, 0x17, 0x27, 0xbf,
  0xb6, 0x37, 0x13, 0xbf, 0x14, 0xa1, 0xbe, 0xbd, 0xa5, 0x8a, 0xc4, 0x3d,
  0xdd, 0xa4, 0x02, 0x3f, 0xa1, 0x9f, 0xe8, 0x3e, 0x83, 0xda, 0x13, 0xbf,
  0x9c, 0x28, 0xc2, 0xbe, 0x27, 0x81, 0x5e, 0xbe, 0x62, 0x51, 0xc3, 0xbd,
  0xbb, 0x67, 0x07, 0xbf, 0x07, 0xe4, 0x85, 0x3e, 0x5b, 0x09, 0x88, 0xbf,
  0x0a, 0x58, 0x9b, 0xbe, 0xfc, 0xe0, 0xb5, 0xbf, 0x59, 0xed, 0x7d, 0xbf,
  0x93, 0x20, 0x02, 0xbf, 0xf3, 0xc9, 0x2a, 0xbe, 0x89, 0xeb, 0xf1, 0xbf,
  0x53, 0x63, 0x68, 0x3e, 0xdf, 0x73, 0xe1, 0xbf, 0xe0, 0x1d, 0x71, 0xbf,
  0x91, 0x69, 0xab, 0x3d, 0x24, 0x6b, 0x67, 0xbf, 0x59, 0x75, 0xae, 0xbd,
  0x37, 0xa5, 0x5b, 0xbf, 0x38, 0x31, 0xc3, 0xbe, 0x33, 0x4e, 0x68, 0xbf,
  0x22, 0x86, 0x1c, 0xbe, 0x7e, 0xf8, 0x43, 0xbf, 0xb9, 0x5d, 0xf5, 0xbd,
  0x1e, 0xec, 0xe8, 0xbe, 0x67, 0xeb, 0x1d, 0xbf, 0x3e, 0x32, 0x03, 0xbf,
  0xe6, 0x40, 0x7e, 0xbf, 0x23, 0x67, 0xc5, 0xbe, 0x87, 0x79, 0xf9, 0x3d,
  0x86, 0x07, 0x1d, 0xbf, 0x1e, 0xb2, 0x84, 0xbe, 0x3b, 0x60, 0x45, 0xbf,
  0x84, 0xfe, 0x25, 0xbf, 0xde, 0xc9, 0xdf, 0xbf, 0x3c, 0x0e, 0x15, 0xc0,
  0x62, 0x89, 0x37, 0x3e, 0xe7, 0xf9, 0xa5, 0xbf, 0x8e, 0x05, 0xd3, 0xbe,
  0xe3, 0xfa, 0xc6, 0xbe, 0x5f, 0x65, 0x85, 0x3d, 0xd6, 0x8b, 0x2b, 0x3f,
  0xa7, 0xaa, 0x7c, 0xbf, 0x4a, 0x25, 0xed, 0xbf, 0x6b, 0x66, 0x3a, 0xbf,
  0xef, 0xdf, 0x08, 0xc0, 0x16, 0x06, 0x83, 0xbf, 0xcf, 0xce, 0x85, 0xbf,
  0x49, 0x19, 0x23, 0x3f, 0xf5, 0xb0, 0x01, 0x3f, 0xbe, 0x50, 0xa5, 0xbe,
  0x25, 0x3f, 0x38, 0x3f, 0x7c, 0xa1, 0x06, 0xc0, 0x95, 0x0e, 0x56, 0x3d,
  0x57, 0xa3, 0x04, 0xc0, 0x0a, 0x12, 0x07, 0xbf, 0x2a, 0xf1, 0xaa, 0xbd,
  0x46, 0x9f, 0x00, 0xc0, 0x12, 0x0f, 0xcb, 0xbe, 0xb7, 0xc0, 0x15, 0x3d,
  0x37, 0x7e, 0x82, 0x3d, 0x06, 0x70, 0x8a, 0x3e, 0x0e, 0x24, 0x71, 0xbe,
  0x38, 0x98, 0x24, 0xbf, 0x7a, 0xf2, 0xc0, 0xbf, 0xfb, 0x59, 0xf3, 0xbf,
  0x8e, 0x55, 0x79, 0xbf, 0x76, 0xf3, 0x3a, 0x3e, 0x05, 0xb8, 0x1a, 0x3e,
  0x77, 0x1b, 0x2e, 0x3e, 0x48, 0x2a, 0x12, 0xc0, 0x3a, 0x88, 0x8e, 0xbf,
  0x22, 0xd8, 0x25, 0xbe, 0x55, 0xa0, 0xde, 0x3c, 0xc5, 0x44, 0x96, 0x3e,
  0x5c, 0x32, 0xe4, 0xbf, 0x3b, 0xf6, 0x19, 0xbf, 0x0b, 0xe2, 0x15, 0xbe,
  0x37, 0x34, 0xf2, 0xbf, 0x74, 0x78, 0x8d, 0x3f, 0x93, 0x48, 0x9b, 0xbe,
  0x73, 0x36, 0xc3, 0xbf, 0x05, 0xab, 0x8d, 0xbd, 0x33, 0x92, 0x57, 0xbf,
  0x9d, 0xc5, 0x8d, 0xbe, 0xff, 0xb5, 0x83, 0x3d, 0xfb, 0x74, 0x92, 0xbf,
  0x29, 0x40, 0x16, 0x3e, 0xc9, 0xab, 0xae, 0x3e, 0x4b, 0x70, 0xf1, 0x3c,
  0x50, 0x24, 0x3c, 0xbf, 0x02, 0xfb, 0x92, 0x3d, 0xc5, 0xb0, 0x0f, 0xbf,
  0x43, 0x30, 0xfd, 0xbd, 0x8c, 0xe4, 0x1b, 0xbe, 0x9d, 0x6b, 0xc1, 0x3e,
  0xe1, 0x74, 0xca, 0xbd, 0xd6, 0xfd, 0x4d, 0xbf, 0x01, 0x9d, 0xcb, 0xbc,
  0x18, 0x69, 0x26, 0xbe, 0xfc, 0x4a, 0xda, 0xbe, 0x40, 0xb6, 0x06, 0xbe,
  0x53, 0xff, 0x19, 0xbf, 0x8b, 0x90, 0xec, 0xbd, 0x5b, 0x89, 0x4e, 0xbe,
  0x63, 0x54, 0x28, 0xbd, 0x35, 0xdd, 0x18, 0xbf, 0x5a, 0x09, 0x0a, 0xbe,
  0x0c, 0xae, 0x67, 0xbd, 0x94, 0x02, 0xe5, 0xbe, 0xe8, 0xb6, 0xee, 0xbd,
  0xf7, 0x3b, 0x50, 0xbe, 0x21, 0x56, 0xca, 0xbc, 0x3a, 0x4a, 0x18, 0xbf,
  0x50, 0xc4, 0x6f, 0xbd, 0xb5, 0x6e, 0x6f, 0xbe, 0xb8, 0x58, 0xf1, 0xbf,
  0x8b, 0xd2, 0x23, 0x3d, 0xf4, 0x0b, 0x25, 0xbe, 0xa9, 0xf2, 0x0e, 0xbe,
  0x3b, 0x30, 0x59, 0xbe, 0x4c, 0x65, 0x8d, 0xbd, 0x5d, 0x64, 0x0e, 0xc0,
  0x9f, 0x19, 0xb8, 0xbd, 0x44, 0x0b, 0x10, 0xbe, 0xa2, 0x13, 0xae, 0xbe,
  0x03, 0xc7, 0x05, 0xbd, 0x89, 0xeb, 0x47, 0x3c, 0xa1, 0xae, 0x44, 0xbf,
  0xb5, 0x6c, 0xd5, 0xbf, 0x8f, 0x6d, 0x17, 0xbe, 0x6f, 0xc8, 0x29, 0xbe,
  0xb7, 0x08, 0x05, 0x3c, 0x7d, 0x77, 0xf0, 0xbd, 0x0f, 0x41, 0x9f, 0xbd,
  0x14, 0x73, 0xd9, 0xbe, 0x31, 0xf1, 0x31, 0x3c, 0x74, 0xbb, 0x03, 0xbe,
  0xd2, 0x62, 0x46, 0x3d, 0x86, 0x0c, 0x90, 0x3d, 0xa7, 0x2d, 0x2a, 0xbe,
  0x78, 0xb1, 0x5c, 0xbc, 0x4e, 0x07, 0xa0, 0x3d, 0x32, 0x7a, 0xb0, 0xbc,
  0x68, 0x83, 0x8e, 0xbd, 0xaf, 0xf2, 0xe5, 0xbd, 0x92, 0xe1, 0x35, 0xbe,
  0xfe, 0x5e, 0xd0, 0xbc, 0xc0, 0xf6, 0x62, 0xbe, 0xcd, 0x50, 0x2b, 0xbe,
  0x0c, 0x51, 0x25, 0xbe, 0xb6, 0x2c, 0x4d, 0xbd, 0xc9, 0x91, 0x21, 0xbe,
  0xc5, 0xac, 0x19, 0xbe, 0x56, 0xde, 0x95, 0xbe, 0x9c, 0x61, 0x1c, 0xbd,
  0x87, 0xe9, 0x03, 0xbe, 0x53, 0xfc, 0xb1, 0xbe, 0x88, 0xdd, 0x5a, 0x3c,
  0x3b, 0x9a, 0xaa, 0x3e, 0xff, 0x2a, 0x15, 0xbe, 0x22, 0x37, 0x9d, 0xbe,
  0x46, 0xb1, 0x1b, 0x3e, 0x19, 0xd4, 0xb0, 0x3e, 0xbd, 0x54, 0x86, 0x3c,
  0xae, 0x71, 0x2b, 0xbe, 0x79, 0xab, 0x1f, 0xbf, 0x5c, 0x69, 0xdc, 0xbd,
  0x8d, 0x6e, 0x3d, 0x3f, 0x26, 0xaa, 0x8c, 0xbd, 0x81, 0x11, 0x36, 0xbe,
  0xf1, 0xb6, 0x9a, 0xbf, 0x4a, 0x81, 0xf7, 0xbd, 0xd1, 0xf7, 0x3d, 0x3e,
  0x34, 0x2d, 0xfe, 0xbe, 0xab, 0xc9, 0xac, 0xbf, 0x9c, 0x70, 0x81, 0xbf,
  0x7d, 0x9b, 0x80, 0xbf, 0x6d, 0x67, 0x36, 0xc0, 0x26, 0x71, 0xae, 0xbe,
  0x62, 0x29, 0xbc, 0xbe, 0xe2, 0xf3, 0x87, 0xbf, 0xa4, 0xb0, 0x42, 0xbf,
  0x8d, 0xc9, 0xf9, 0x3e, 0x5e, 0xb0, 0x6c, 0x3e, 0xe0, 0x4a, 0xe1, 0xbf,
  0xdf, 0xce, 0xee, 0x3e, 0xc5, 0x40, 0x4f, 0xbe, 0xe9, 0xb6, 0x4e, 0xbf,
  0xd5, 0x96, 0xaf, 0xbf, 0x58, 0xe0, 0x9d, 0xbf, 0x4f, 0x83, 0x5e, 0x3f,
  0x2c, 0x04, 0xad, 0x3f, 0x7a, 0x8d, 0xc1, 0x3f, 0x32, 0x29, 0xbc, 0xbf,
  0x72, 0x2a, 0x56, 0xbf, 0x57, 0x10, 0x6b, 0xbe, 0x58, 0x79, 0x15, 0xbf,
  0x32, 0xbe, 0x47, 0xbf, 0x96, 0xd8, 0xa2, 0x3d, 0x59, 0xe5, 0x68, 0xbe,
  0xd0, 0xc9, 0x34, 0xbf, 0x21, 0x12, 0x49, 0xbf, 0xd5, 0xdd, 0x1a, 0xbf,
  0x2a, 0x46, 0xc3, 0x3d, 0x4b, 0x3f, 0xa4, 0xbf, 0x94, 0x6a, 0x16, 0xc0,
  0x70, 0x6f, 0x84, 0x3f, 0x45, 0xa4, 0x02, 0xbe, 0xa7, 0xb8, 0xe0, 0xbf,
  0x09, 0x23, 0x00, 0xc0, 0xb8, 0xce, 0x88, 0x3d, 0xc7, 0xde, 0x49, 0xbf,
  0xfd, 0x11, 0x85, 0xbf, 0x44, 0xc4, 0x6f, 0xbf, 0xec, 0x13, 0xb1, 0xbe,
  0xa5, 0x5b, 0x78, 0x3e, 0x16, 0xb3, 0x0e, 0x3e, 0x7c, 0xa9, 0xfc, 0xbf,
  0xe5, 0xa3, 0x53, 0xbf, 0xa9, 0xe7, 0xe0, 0x3e, 0xe9, 0x39, 0x84, 0x3d,
  0x2c, 0x20, 0x1c, 0xbf, 0x37, 0x8c, 0xda, 0xbe, 0xed, 0x62, 0xb0, 0xbe,
  0xfa, 0x79, 0x61, 0xbf, 0xba, 0x6d, 0x6a, 0xbf, 0x43, 0x9b, 0x4b, 0xbf,
  0x4d, 0x37, 0x65, 0xbf, 0x03, 0x96, 0x6e, 0xbe, 0xb9, 0xbc, 0xbf, 0xbe,
  0xd2, 0xb4, 0x51, 0x3c, 0xe3, 0x07, 0x22, 0xbd, 0x1a, 0x4c, 0x8c, 0xbc,
  0xe1, 0xdf, 0x11, 0xbe, 0x83, 0x56, 0x81, 0x3d, 0xc9, 0x5c, 0xea, 0xbc,
  0xbf, 0xfd, 0xb1, 0xbd, 0xa7, 0x69, 0xb0, 0xbe, 0xba, 0xc2, 0xd1, 0xbd,
  0x1c, 0x82, 0x87, 0xbe, 0xdd, 0x8f, 0xea, 0xbd, 0xb1, 0xf6, 0x08, 0xbe,
  0x3a, 0xbb, 0x5b, 0xbe, 0x9e, 0x8c, 0x9c, 0x3c, 0xb8, 0x2a, 0x16, 0xbe,
  0x42, 0x1c, 0x16, 0xbe, 0x6d, 0x3c, 0x8a, 0xbb, 0xf2, 0x4d, 0xdf, 0xbd,
  0xba, 0x50, 0x75, 0xbe, 0xa7, 0x47, 0x67, 0xbd, 0xcb, 0x05, 0x0b, 0xbe,
  0x9c, 0x8d, 0xc7, 0xbc, 0xf2, 0x0c, 0xa9, 0xbc, 0x76, 0xd4, 0x86, 0xbe,
  0x9f, 0x6e, 0x92, 0xbe, 0x13, 0xd8, 0xee, 0xbc, 0x32, 0xd0, 0x5d, 0xbe,
  0x46, 0xa3, 0xa6, 0xbe, 0xfa, 0xe5, 0xc3, 0xbd, 0x31, 0x57, 0x65, 0xbd,
  0x16, 0xb3, 0x8c, 0xbe, 0xf8, 0x3c, 0x01, 0xbe, 0x47, 0x38, 0xcf, 0x3c,
  0x9c, 0x1c, 0x3b, 0xbe, 0xb7, 0xa9, 0xec, 0xbd, 0x04, 0x26, 0xa5, 0xbe,
  0x3b, 0xed, 0xcf, 0xbb, 0x03, 0xbf, 0x4e, 0xbe, 0xda, 0x3a, 0x1b, 0xbd,
  0x64, 0xce, 0xe4, 0xbd, 0x44, 0xe7, 0xd1, 0xbd, 0xde, 0x58, 0x79, 0xbd,
  0x87, 0xa1, 0x06, 0xbe, 0x8a, 0xe1, 0xef, 0x3c, 0x19, 0x1e, 0x8e, 0xbe,
  0x80, 0x67, 0x9d, 0x3c, 0x5e, 0xf7, 0x47, 0x3d, 0x64, 0xe2, 0x5c, 0xbc,
  0xb9, 0x06, 0x92, 0xbd, 0xd5, 0xe6, 0x0e, 0xbe, 0xc8, 0x07, 0xde, 0x3d,
  0xa5, 0x7e, 0x12, 0xbe, 0x68, 0xbb, 0xd1, 0xbd, 0x73, 0xd5, 0x69, 0xbd,
  0x6a, 0x43, 0x54, 0xbe, 0xbc, 0xf1, 0x14, 0xbe, 0xfd, 0x1f, 0x2c, 0xbe,
  0x42, 0x38, 0x9a, 0x3c, 0x49, 0xe3, 0x53, 0xbd, 0x74, 0x45, 0xa5, 0xbd,
  0x91, 0xd2, 0xff, 0x3a, 0x93, 0x4b, 0x9f, 0xbd, 0x10, 0x2e, 0x90, 0xbe,
  0x52, 0x77, 0x65, 0xbe, 0x98, 0xea, 0x54, 0xbd, 0xa0, 0x98, 0xb9, 0x3e,
  0xf7, 0xa2, 0xf7, 0xbe, 0xcb, 0x34, 0x27, 0xbd, 0x6b, 0x18, 0x89, 0x3d,
  0x45, 0xc0, 0x46, 0xbe, 0x13, 0xd7, 0xe3, 0x3e, 0xa9, 0x2a, 0xe5, 0xbe,
  0x32, 0xb5, 0x77, 0xbe, 0x68, 0x3d, 0xa1, 0xbf, 0x50, 0xb4, 0x11, 0x3f,
  0x5e, 0x84, 0x5c, 0xbf, 0x23, 0xc9, 0xd8, 0xbe, 0xe9, 0x83, 0x9a, 0x3e,
  0x59, 0x03, 0x03, 0x3f, 0xd3, 0xa5, 0x44, 0xbf, 0x35, 0x6c, 0xe5, 0x3e,
  0x54, 0x74, 0xb4, 0x3e, 0x6f, 0x9b, 0x9f, 0x3b, 0x96, 0x0e, 0x98, 0xbe,
  0xd5, 0x86, 0xeb, 0xbe, 0x64, 0xa7, 0x13, 0xbf, 0x1b, 0x81, 0xb3, 0xbf,
  0x37, 0xa6, 0x75, 0xbf, 0x74, 0x49, 0xd8, 0xbe, 0x59, 0x33, 0xa5, 0x3e,
  0x7d, 0x8b, 0x39, 0xbe, 0x06, 0x7e, 0x47, 0xbe, 0xc0, 0xcc, 0x85, 0xbf,
  0x02, 0xb8, 0x8a, 0xbf, 0x4f, 0xed, 0x12, 0x3f, 0x8c, 0xb2, 0xa0, 0xbf,
  0x6b, 0x19, 0xb5, 0xbc, 0x43, 0x02, 0xa1, 0xbf, 0xd8, 0x6a, 0xcc, 0xbe,
  0xd3, 0x1c, 0xa7, 0xbd, 0xde, 0xd5, 0x03, 0x3f, 0xe6, 0x1c, 0x7c, 0xbf,
  0x76, 0xfb, 0x4d, 0xbf, 0x7c, 0x32, 0x85, 0xbe, 0x15, 0xd9, 0xa5, 0xbd,
  0xf1, 0xbc, 0x8d, 0xbf, 0x85, 0x62, 0xfc, 0xbe, 0x0d, 0x07, 0x2e, 0xbf,
  0x4e, 0x18, 0xcd, 0xbe, 0x47, 0xe5, 0x49, 0xbf, 0x39, 0x8b, 0x6f, 0xbe,
  0x6c, 0x31, 0x91, 0xbe, 0x34, 0xa8, 0x1a, 0x3e, 0xc7, 0x3b, 0x53, 0x3e,
  0xc5, 0x51, 0x0d, 0xbf, 0x0f, 0xf6, 0x41, 0xbf, 0x1e, 0xfe, 0x38, 0xbf,
  0x32, 0x19, 0xa7, 0xbe, 0x20, 0xf5, 0x11, 0x3d, 0x83, 0x6b, 0xe2, 0xbe,
  0xdf, 0xa7, 0x61, 0xbf, 0x86, 0xa9, 0x85, 0xbe, 0x76, 0xe4, 0xd0, 0xbe,
  0x05, 0xb7, 0xb2, 0x3e, 0x9d, 0x19, 0x0d, 0xbf, 0x93, 0xe5, 0xcf, 0xbf,
  0xaf, 0xd2, 0x0a, 0xbf, 0xc2, 0x7f, 0x93, 0xbe, 0x9f, 0xc1, 0xba, 0xbd,
  0xb8, 0x6c, 0xf9, 0xbe, 0x6c, 0x88, 0x91, 0xbe, 0xcc, 0x7b, 0xf2, 0xbf,
  0xae, 0x12, 0xe2, 0xbe, 0x02, 0xb1, 0x44, 0xbf, 0xe1, 0x04, 0x38, 0xbf,
  0x3e, 0xdb, 0x53, 0xbf, 0xc4, 0x0c, 0xea, 0xbf, 0x90, 0x3d, 0xe4, 0xbe,
  0x09, 0xa5, 0x7d, 0xbf, 0x49, 0x38, 0xf2, 0x3c, 0x78, 0xa7, 0x3c, 0xbf,
  0xce, 0x3a, 0x41, 0xc0, 0xd3, 0xe1, 0xbf, 0xbf, 0x23, 0x00, 0xe7, 0xbe,
  0xe4, 0x09, 0x90, 0xbf, 0x7e, 0x44, 0x44, 0xbf, 0xf7, 0x89, 0x9c, 0xbe,
  0x6b, 0x67, 0x49, 0xbf, 0x0a, 0xd9, 0xc1, 0x3e, 0xb5, 0x38, 0x91, 0xbf,
  0xbe, 0x53, 0x95, 0xbb, 0x4c, 0x97, 0xb8, 0xbf, 0xab, 0x3e, 0xee, 0xbe,
  0x57, 0x58, 0x62, 0xbf, 0x37, 0xaa, 0x59, 0xc0, 0x35, 0x98, 0x89, 0xbe,
  0x5f, 0x68, 0x30, 0xbe, 0x4a, 0x3d, 0xf4, 0xbe, 0x3f, 0x95, 0x9f, 0xbe,
  0x00, 0x6d, 0x8c, 0xbe, 0x7d, 0x78, 0x18, 0xbf, 0x20, 0x1d, 0xe9, 0xbe,
  0x61, 0x19, 0x0f, 0xbf, 0x4e, 0xfc, 0x29, 0xbe, 0xb0, 0xb9, 0x27, 0xbf,
  0xcf, 0xf7, 0x49, 0xbe, 0xa4, 0x38, 0xb8, 0xbf, 0x07, 0x30, 0xb6, 0xbd,
  0xa7, 0x58, 0xa6, 0xbf, 0x17, 0x49, 0xe2, 0x3e, 0xe2, 0x63, 0x82, 0xbf,
  0xe4, 0xec, 0x41, 0xbf, 0x4c, 0x17, 0x44, 0xbf, 0x83, 0x95, 0x7d, 0xbf,
  0xce, 0xf6, 0x4e, 0xbf, 0xc7, 0xca, 0x40, 0xbe, 0x73, 0x0a, 0xb6, 0xbb,
  0xed, 0xcb, 0x94, 0x3d, 0xe5, 0x78, 0x91, 0x3d, 0xa5, 0xf1, 0x86, 0xbf,
  0x02, 0xa5, 0x15, 0xbf, 0x35, 0x52, 0xe4, 0xbe, 0xee, 0x8e, 0x71, 0xbf,
  0x00, 0x0c, 0x68, 0xbf, 0x76, 0xb7, 0x98, 0xbf, 0xc3, 0x97, 0x6a, 0xbe,
  0xe7, 0xb5, 0xe1, 0xbe, 0x15, 0x04, 0x78, 0xbd, 0xcc, 0x7c, 0xb9, 0xbf,
  0xf9, 0xcf, 0x09, 0xbf, 0x5b, 0x41, 0xb8, 0xbf, 0x60, 0xe7, 0xcb, 0xbf,
  0xf6, 0xb7, 0x83, 0xbe, 0x2f, 0x9f, 0xb3, 0xbf, 0x3a, 0x8d, 0xed, 0xbf,
  0x20, 0xd2, 0x39, 0xbf, 0x8e, 0x00, 0x9b, 0xbd, 0x40, 0x3e, 0x54, 0x3d,
  0xad, 0xa3, 0x54, 0xbf, 0xe8, 0xad, 0x65, 0xbf, 0xfb, 0x27, 0xbc, 0xbf,
  0x7e, 0xf6, 0xf5, 0xbd, 0xcd, 0x53, 0x47, 0x3f, 0x35, 0xe3, 0x4f, 0xbf,
  0x0a, 0x8f, 0xfa, 0xbf, 0x92, 0xb0, 0x3a, 0xc0, 0xbd, 0x64, 0x09, 0xbf,
  0x4a, 0x77, 0x82, 0xbf, 0x34, 0x45, 0xa9, 0xbf, 0x57, 0xfe, 0xee, 0xbe,
  0x1d, 0xb1, 0x17, 0xbf, 0x74, 0x79, 0xe6, 0x3e, 0x23, 0xac, 0x68, 0xbf,
  0x92, 0x11, 0x85, 0xbf, 0x25, 0xe3, 0x2d, 0x3f, 0x4c, 0x61, 0x73, 0xbf,
  0xeb, 0x3f, 0x1b, 0x3f, 0x8d, 0x6c, 0x70, 0xbf, 0xfa, 0xbb, 0x34, 0xbf,
  0xeb, 0x97, 0x3d, 0xbe, 0xfc, 0x90, 0x9e, 0x3e, 0x32, 0x8d, 0xb1, 0xbe,
  0x43, 0x87, 0x0a, 0xbf, 0x4c, 0xa0, 0xa8, 0xbd, 0x57, 0xf0, 0xf9, 0xbf,
  0x81, 0x33, 0x28, 0x3e, 0xfb, 0x28, 0xe3, 0xbf, 0x31, 0x5b, 0xf8, 0x3d,
  0x54, 0x25, 0x90, 0xbf, 0x63, 0x72, 0x7f, 0xbf, 0xf0, 0x50, 0x21, 0xbf,
  0x1f, 0x21, 0xf7, 0x3e, 0x23, 0x08, 0x4a, 0xbf, 0xff, 0xfd, 0x17, 0xbe,
  0x9f, 0xb2, 0x81, 0x3e, 0xc4, 0x58, 0xb8, 0xbe, 0x73, 0x6b, 0x9c, 0xbe,
  0xc0, 0x84, 0x45, 0xbe, 0x2b, 0xf7, 0x1f, 0xbf, 0x0b, 0xee, 0x1b, 0x3f,
  0x77, 0x7a, 0x11, 0x3f, 0x4e, 0xb5, 0xf4, 0xbe, 0x76, 0xae, 0x28, 0xbe,
  0x86, 0x0f, 0x24, 0xbd, 0x4e, 0x8a, 0x2e, 0xbf, 0x64, 0x1c, 0x04, 0x3f,
  0xa1, 0x35, 0x81, 0xbf, 0xb3, 0x9d, 0x06, 0xbe, 0x74, 0x3c, 0x42, 0xbf,
  0xd7, 0x27, 0x0d, 0xc0, 0x4e, 0x3d, 0x03, 0x3f, 0xfb, 0x30, 0x76, 0xbf,
  0x81, 0x79, 0x32, 0xbf, 0x0c, 0x0b, 0x3a, 0x3e, 0x5d, 0x26, 0xa0, 0xbe,
  0x0a, 0x26, 0x58, 0xbf, 0x63, 0xc8, 0x32, 0x3d, 0x4d, 0x30, 0xe3, 0xbe,
  0x4b, 0xf5, 0x10, 0xbc, 0xa9, 0x99, 0xb0, 0xbe, 0x6d, 0x9d, 0xcd, 0xbe,
  0x4f, 0xf0, 0x3a, 0xbe, 0x6d, 0xde, 0xb9, 0xbe, 0x7c, 0xfe, 0x79, 0xbe,
  0x79, 0x36, 0x41, 0xbe, 0xf4, 0x92, 0x52, 0xbe, 0xc1, 0x82, 0xed, 0xbd,
  0x08, 0x3d, 0x8f, 0xbd, 0xb2, 0xe3, 0xf1, 0xbd, 0xf7, 0x26, 0x0a, 0xbe,
  0x28, 0x6d, 0x42, 0xbe, 0x4b, 0xbe, 0x3f, 0xbe, 0xb9, 0xd6, 0x45, 0xbd,
  0x08, 0x78, 0x21, 0xbf, 0x92, 0xfb, 0xfe, 0xbe, 0x17, 0x82, 0xdc, 0xbd,
  0x46, 0x59, 0x58, 0x3c, 0xb7, 0xee, 0x08, 0x3e, 0xdc, 0x95, 0x27, 0xbe,
  0x8e, 0x45, 0xa5, 0xbe, 0x8f, 0xf6, 0xd4, 0xbe, 0x80, 0x9f, 0xcb, 0xbb,
  0xce, 0x50, 0x47, 0x3e, 0x0f, 0xd0, 0xba, 0xbe, 0x9e, 0x7f, 0xf6, 0xbc,
  0x91, 0x95, 0xaa, 0xbe, 0x37, 0x34, 0x90, 0xbe, 0x21, 0x0d, 0x29, 0xbe,
  0x81, 0x36, 0x7a, 0x3d, 0x3d, 0xc1, 0xea, 0xbe, 0xe2, 0xf2, 0xc4, 0xbe,
  0x79, 0x2e, 0x0c, 0xbf, 0x8f, 0x52, 0x98, 0xbd, 0x2a, 0xa0, 0xfb, 0xbd,
  0x5a, 0x6f, 0x52, 0xbe, 0x1f, 0x3e, 0x05, 0xbf, 0xec, 0x5b, 0xe8, 0xbe,
  0x2d, 0xfd, 0xaa, 0xbe, 0x17, 0xec, 0x6b, 0xbe, 0xb7, 0xbe, 0xfd, 0xbe,
  0x2e, 0xd6, 0xa2, 0xbd, 0xef, 0x14, 0x62, 0xbf, 0xd5, 0x05, 0x0c, 0x3e,
  0xb0, 0xac, 0x3e, 0xbe, 0x51, 0x8a, 0x88, 0xbe, 0x91, 0xb1, 0xe0, 0xbe,
  0x54, 0xda, 0x9b, 0x3d, 0x69, 0x58, 0xbe, 0xbe, 0x5a, 0x28, 0x9b, 0xbe,
  0xe1, 0x7c, 0x80, 0xbd, 0x83, 0xe7, 0x35, 0xbe, 0x8c, 0xac, 0x28, 0xbe,
  0xf1, 0x39, 0x00, 0xbd, 0xb3, 0xcf, 0xd3, 0xbe, 0x57, 0xa6, 0x2d, 0xbf,
  0x38, 0x5e, 0x76, 0x3e, 0xbb, 0xae, 0x1a, 0x3d, 0x42, 0x7d, 0x7c, 0xbe,
  0x7d, 0x9e, 0x8d, 0x3e, 0x86, 0x23, 0xe2, 0xbe, 0x25, 0x91, 0xde, 0xbe,
  0x38, 0xa3, 0x3d, 0xbd, 0x19, 0xca, 0xad, 0xbe, 0xad, 0x68, 0x52, 0xbf,
  0x91, 0xf6, 0xe4, 0xbd, 0x3c, 0xb0, 0xfa, 0x3e, 0x5f, 0x44, 0x3c, 0xbf,
  0xb6, 0xa4, 0xb2, 0x3e, 0x0c, 0x67, 0x6c, 0xbc, 0x8e, 0xe9, 0x6d, 0xbe,
  0x2c, 0x1b, 0xbe, 0x3e, 0x8e, 0x7a, 0x5e, 0xbd, 0x7d, 0x44, 0xf7, 0x3e,
  0x5c, 0xa0, 0x01, 0xc0, 0x0e, 0x6e, 0x18, 0xbf, 0x32, 0x32, 0xc4, 0xbd,
  0xa7, 0x83, 0xdb, 0x3e, 0x9a, 0x63, 0xa0, 0x3e, 0xaa, 0xa6, 0xf5, 0x3e,
  0x67, 0x82, 0xbd, 0xbf, 0x5c, 0xd9, 0x51, 0xbe, 0x8c, 0x9a, 0x4a, 0xbe,
  0x93, 0x79, 0x92, 0xbf, 0xd6, 0x80, 0xe8, 0xbf, 0x63, 0x08, 0x56, 0xbe,
  0x24, 0x0c, 0xb8, 0xbf, 0xf9, 0x29, 0x2b, 0xc0, 0x1c, 0x70, 0xba, 0x3e,
  0xef, 0xd2, 0xbb, 0x3e, 0xb2, 0xe6, 0xe5, 0x3e, 0x1c, 0xa8, 0x4e, 0xbc,
  0xcb, 0x15, 0x03, 0x3f, 0x1e, 0x64, 0x1d, 0xc0, 0x86, 0xd1, 0x9f, 0xbe,
  0x08, 0x52, 0x64, 0xbe, 0x00, 0x96, 0x06, 0x3e, 0xd9, 0x0c, 0x01, 0xbe,
  0xd7, 0x27, 0xa7, 0x3e, 0x6c, 0xa7, 0x45, 0xbe, 0x5a, 0x9a, 0xb3, 0x3c,
  0x75, 0x11, 0x00, 0xc0, 0x0a, 0x7f, 0xcd, 0xbe, 0x60, 0x0e, 0x3e, 0x3e,
  0x71, 0xfa, 0x58, 0xbe, 0x1e, 0x2a, 0x25, 0x3e, 0xd3, 0x7f, 0xa5, 0xbd,
  0x96, 0xa0, 0x91, 0xbd, 0x06, 0xc1, 0x83, 0x3e, 0x33, 0x52, 0xc3, 0xbe,
  0xae, 0xe5, 0x12, 0xbf, 0x5c, 0xac, 0x15, 0xbf, 0x19, 0x9f, 0x80, 0x3d,
  0xc0, 0x82, 0xe3, 0xbe, 0x47, 0xcd, 0x7f, 0xbf, 0x57, 0xe8, 0xd7, 0xbf,
  0x0d, 0x33, 0x02, 0x3e, 0x7f, 0xd4, 0x07, 0xbe, 0x87, 0xdf, 0x86, 0xbe,
  0xda, 0x9f, 0x09, 0xbe, 0x29, 0x9f, 0x8d, 0xbf, 0x08, 0x5a, 0xf7, 0xbd,
  0xba, 0xf5, 0xef, 0xbd, 0x88, 0x21, 0x31, 0xbf, 0x3c, 0xca, 0x61, 0xc0,
  0x34, 0x9e, 0x08, 0xbe, 0xd5, 0xe7, 0x77, 0xbe, 0xdf, 0x85, 0x2e, 0xbf,
  0xbb, 0x5a, 0xe3, 0xbf, 0x22, 0xb8, 0x12, 0xbf, 0xb9, 0xe9, 0xbb, 0xbf,
  0xe1, 0xa9, 0x85, 0xbf, 0xcc, 0x3a, 0x27, 0xbf, 0x02, 0x2c, 0x0a, 0xbf,
  0x82, 0x97, 0x30, 0xbf, 0x2d, 0x81, 0x2e, 0xbf, 0x46, 0x29, 0x4b, 0x3d,
  0xb8, 0x8b, 0x0d, 0xbf, 0x79, 0xff, 0x79, 0xc0, 0x61, 0x45, 0x15, 0x3d,
  0x6b, 0xc4, 0x2a, 0xbe, 0x5c, 0x31, 0x29, 0x3e, 0x6b, 0x3b, 0x9e, 0xbf,
  0xf9, 0x26, 0xbd, 0xbf, 0x93, 0x45, 0x4f, 0xbf, 0x19, 0x0d, 0x1f, 0xbf,
  0xf1, 0xcd, 0xa9, 0x3e, 0x4a, 0x21, 0xa0, 0xbe, 0x06, 0x14, 0xb0, 0xbe,
  0x20, 0x38, 0x7e, 0xbe, 0x59, 0xf6, 0xa2, 0xbe, 0xae, 0x72, 0xbe, 0xbf,
  0x3e, 0xf5, 0x90, 0xbf, 0x2a, 0xe9, 0xc3, 0xbf, 0x26, 0x6c, 0x35, 0xbe,
  0x34, 0x72, 0x93, 0xbe, 0x58, 0x63, 0xa6, 0xbf, 0x89, 0x5c, 0x0a, 0xbf,
  0x5a, 0x94, 0x6b, 0xbf, 0x67, 0x04, 0x97, 0xbf, 0x31, 0x96, 0x23, 0xbf,
  0x8a, 0x19, 0x05, 0xbf, 0x4b, 0x6e, 0xeb, 0xbe, 0x1a, 0xa5, 0x43, 0xbf,
  0x0e, 0x25, 0x78, 0xbe, 0xf5, 0xbe, 0x56, 0x3e, 0x13, 0x80, 0xdb, 0x3d,
  0x48, 0x82, 0xc1, 0xbe, 0x15, 0xa5, 0x7b, 0x3e, 0xe8, 0x90, 0x77, 0xbe,
  0x1d, 0xd0, 0x3e, 0xbf, 0xf1, 0x44, 0x86, 0xbf, 0xc5, 0x4c, 0xfc, 0xbe,
  0x74, 0xaa, 0x14, 0xbf, 0xc5, 0x03, 0xff, 0xbe, 0xcf, 0x14, 0xeb, 0xbe,
  0x17, 0x7f, 0x94, 0x3b, 0xa4, 0xf3, 0xfa, 0xbe, 0xb4, 0x5e, 0xc8, 0xbf,
  0xdb, 0xc4, 0x24, 0xbf, 0xc8, 0x91, 0x1d, 0xbf, 0x3c, 0x98, 0xa2, 0xbf,
  0xb4, 0xc9, 0x72, 0xbf, 0xd3, 0x36, 0xe3, 0xbe, 0x49, 0x06, 0xfd, 0xbd,
  0x1b, 0x68, 0x20, 0xbf, 0x00, 0x5c, 0x63, 0x3e, 0x23, 0x32, 0x94, 0xbf,
  0x1f, 0x90, 0x86, 0xbf, 0xaf, 0xa0, 0x46, 0xbf, 0xb7, 0xb9, 0x6d, 0x3e,
  0x8f, 0x57, 0x2b, 0x3e, 0xe4, 0x07, 0xeb, 0xbd, 0xb3, 0x3e, 0xb8, 0xbd,
  0x6f, 0xc9, 0x38, 0x3e, 0xd2, 0xa1, 0xf4, 0xbf, 0x13, 0x14, 0x30, 0x3e,
  0x75, 0x37, 0xa1, 0x3e, 0xfd, 0x28, 0x22, 0xbe, 0xea, 0x86, 0xb4, 0xbe,
  0x3f, 0xce, 0xde, 0x3b, 0x6e, 0x26, 0x41, 0xbe, 0xdf, 0x9b, 0x97, 0xbf,
  0x7c, 0x82, 0x09, 0x3e, 0x06, 0xe5, 0xb5, 0xbe, 0x2c, 0x19, 0x94, 0xbd,
  0xca, 0x4b, 0x23, 0xbf, 0x7d, 0xf2, 0xbd, 0xb9, 0x04, 0x2e, 0x13, 0xbf,
  0xc8, 0x27, 0x20, 0x3d, 0x27, 0x1d, 0x0f, 0xbe, 0x7a, 0x3b, 0x41, 0xbe,
  0xb0, 0xbc, 0xce, 0xbe, 0x8b, 0xb5, 0x26, 0xbf, 0xce, 0xf1, 0x7a, 0x3d,
  0xe3, 0x14, 0xc1, 0xbf, 0xd3, 0xa7, 0x3c, 0x3d, 0xa4, 0xdd, 0x13, 0x3e,
  0x89, 0x01, 0x48, 0x3d, 0xba, 0x17, 0xb0, 0xbc, 0xa4, 0xde, 0xa9, 0xbe,
  0x06, 0x87, 0x47, 0xbf, 0xae, 0x69, 0x18, 0xbf, 0x9a, 0x37, 0x96, 0x3d,
  0xe7, 0xf1, 0x64, 0xbf, 0x1a, 0x86, 0x60, 0xbe, 0x31, 0xfe, 0x03, 0x3f,
  0xae, 0xce, 0x88, 0x3c, 0xde, 0xc8, 0x31, 0xbe, 0x54, 0xb3, 0x61, 0x3e,
  0xfa, 0x71, 0x8b, 0x3d, 0x72, 0x28, 0xa9, 0xbe, 0xea, 0x9e, 0xd7, 0x3d,
  0x6f, 0x1d, 0xc4, 0x3e, 0x7f, 0xd0, 0x79, 0x3c, 0x92, 0xd6, 0x35, 0x3f,
  0xd8, 0x21, 0x63, 0xbf, 0xbf, 0x7f, 0x12, 0xbf, 0xb7, 0x9c, 0xc3, 0x3d,
  0x3e, 0x3f, 0x47, 0xbf, 0x79, 0x96, 0xe6, 0x3d, 0x5e, 0x30, 0x5c, 0x3e,
  0xcd, 0xdf, 0x0f, 0xbe, 0x43, 0xc8, 0x74, 0xbf, 0x86, 0xb9, 0x44, 0xbf,
  0x47, 0x60, 0x06, 0xbd, 0x3c, 0x6f, 0x22, 0x3d, 0x23, 0xb5, 0x0e, 0xc0,
  0x47, 0x24, 0x46, 0xbf, 0xe1, 0x53, 0x76, 0xbe, 0x2c, 0x2e, 0x2a, 0xbe,
  0xf2, 0x84, 0x17, 0x3e, 0xd3, 0x8b, 0x0c, 0xc0, 0x65, 0x7a, 0xd0, 0xbf,
  0x93, 0xf9, 0x89, 0xbf, 0x83, 0xf2, 0x8e, 0xbe, 0xac, 0xc7, 0xc6, 0xbe,
  0x95, 0x47, 0x9f, 0xbe, 0xe2, 0x14, 0x70, 0xbf, 0xd1, 0x7f, 0x11, 0xbe,
  0x5d, 0xb1, 0x97, 0xbd, 0x97, 0xa1, 0x7e, 0xbe, 0x17, 0xc5, 0xf4, 0xbe,
  0x4d, 0xeb, 0x64, 0xbe, 0x3c, 0x9a, 0xd9, 0xbd, 0x80, 0x5e, 0x19, 0x3e,
  0x42, 0xfe, 0x0d, 0x3e, 0x73, 0x5f, 0x17, 0x3d, 0x1d, 0xba, 0xb1, 0xbe,
  0x25, 0xfd, 0x98, 0xbe, 0x93, 0xb9, 0x32, 0x3d, 0xe7, 0x5b, 0x14, 0xbf,
  0xce, 0xc6, 0xb6, 0xbd, 0x3e, 0x7a, 0x10, 0xbf, 0x77, 0xa0, 0x41, 0xbe,
  0xdf, 0xee, 0x06, 0xbf, 0x88, 0xcc, 0xa8, 0xbe, 0xdf, 0x92, 0x4e, 0xbe,
  0x3a, 0x6e, 0xed, 0xbe, 0x73, 0x5f, 0x9e, 0xbd, 0x83, 0x9e, 0xa9, 0x3d,
  0xa7, 0xcd, 0xab, 0xbe, 0xc6, 0x62, 0x1c, 0xbe, 0x04, 0x5e, 0x51, 0xbe,
  0xe4, 0x3e, 0x26, 0xbf, 0x30, 0xdb, 0x0e, 0xbe, 0x4d, 0x14, 0x4f, 0xbe,
  0x88, 0x45, 0xb2, 0xbc, 0x48, 0x87, 0x1c, 0x3e, 0xd2, 0x9f, 0x71, 0xbe,
  0xb2, 0x97, 0xea, 0xbe, 0xf8, 0xc1, 0xf5, 0xbf, 0x32, 0x91, 0x81, 0xbf,
  0x1c, 0x70, 0xf3, 0xbe, 0x2e, 0x4e, 0xf5, 0xbe, 0x79, 0xa3, 0x11, 0xbe,
  0x7b, 0x8b, 0x6b, 0xbe, 0x98, 0x9f, 0x63, 0x3e, 0x8e, 0xd5, 0x10, 0xbe,
  0x34, 0x9e, 0x0c, 0xbe, 0x48, 0x8a, 0xf5, 0xbe, 0x2d, 0x27, 0x1c, 0xbf,
  0xdf, 0xe6, 0x0a, 0xbe, 0x2f, 0x27, 0x18, 0x3e, 0x83, 0xa1, 0x8e, 0xbd,
  0x1a, 0xc1, 0xd4, 0xbf, 0xa0, 0x01, 0x8d, 0x3e, 0x2b, 0x26, 0x26, 0x3d,
  0xfb, 0x09, 0x2d, 0x3e, 0x07, 0xb5, 0x99, 0xbf, 0x67, 0xdd, 0x19, 0xbe,
  0x15, 0x21, 0x3c, 0x3d, 0x54, 0x7d, 0xb4, 0xbe, 0xee, 0x0b, 0xb4, 0xbe,
  0xe4, 0xc9, 0x4d, 0xbd, 0x9f, 0x36, 0x47, 0xbc, 0x2b, 0xb2, 0x80, 0xbd,
  0x9a, 0x40, 0x35, 0xbf, 0x3c, 0xfd, 0xa5, 0xbf, 0xe7, 0xec, 0x1d, 0xbf,
  0x1e, 0x58, 0xa1, 0x3e, 0xd0, 0x77, 0x0f, 0xbf, 0x96, 0x47, 0xb7, 0xbd,
  0x72, 0x48, 0xa9, 0x3e, 0xfe, 0xfe, 0xdf, 0xbd, 0xa9, 0xcb, 0x05, 0xbe,
  0x82, 0x94, 0xb6, 0xbf, 0x4f, 0x9f, 0x24, 0x3e, 0x9e, 0x87, 0x41, 0xbe,
  0x21, 0x8a, 0x24, 0xbf, 0xe7, 0xdd, 0x74, 0xbf, 0x8d, 0x19, 0x76, 0xbf,
  0xb2, 0xfc, 0xa5, 0xbe, 0x4c, 0xe0, 0x3d, 0xbf, 0xb9, 0xf3, 0xc2, 0xbf,
  0x09, 0x4f, 0xea, 0x3d, 0xe2, 0xc6, 0x93, 0xbe, 0xaa, 0x64, 0x1f, 0xbf,
  0x84, 0x5d, 0x9e, 0xbf, 0xe1, 0x18, 0xc6, 0xbe, 0xed, 0xda, 0x3c, 0xbf,
  0xa8, 0x56, 0x19, 0xbf, 0xbe, 0x23, 0x63, 0xbe, 0xf6, 0x65, 0x2b, 0xbf,
  0x7f, 0xca, 0x0d, 0xc0, 0xb1, 0xe6, 0xe5, 0xbe, 0x1a, 0x72, 0x99, 0xbe,
  0xf8, 0x33, 0x3a, 0x3e, 0x33, 0x40, 0x00, 0xbf, 0x1b, 0x1d, 0x9e, 0x3d,
  0x07, 0x1a, 0x3d, 0xbf, 0xc2, 0x69, 0x1d, 0xbf, 0x0c, 0xb1, 0x49, 0xbf,
  0x54, 0x31, 0x5f, 0xbe, 0xdd, 0x12, 0x69, 0xbf, 0x5b, 0x3a, 0x2e, 0xbf,
  0x18, 0xe7, 0x1f, 0x3e, 0x37, 0xf5, 0x41, 0xbf, 0x88, 0x70, 0x57, 0xbf,
  0x01, 0x26, 0xfc, 0xbe, 0x5c, 0xae, 0xa6, 0x3e, 0x6d, 0x8d, 0x9f, 0xbf,
  0xa2, 0x2f, 0x2f, 0xbe, 0xf2, 0x7f, 0x23, 0xbf, 0x03, 0x1d, 0xf9, 0xbe,
  0xe5, 0xfd, 0x20, 0xbf, 0xb4, 0x00, 0x37, 0xbf, 0x25, 0x16, 0x81, 0xbe,
  0x15, 0x2b, 0x10, 0x3f, 0x6e, 0xd5, 0x42, 0x3d, 0xba, 0x72, 0x78, 0x3d,
  0x86, 0x2d, 0xd5, 0x3d, 0x5a, 0x60, 0xb9, 0xbe, 0xf0, 0xd9, 0x3a, 0xbf,
  0x51, 0x12, 0xb1, 0xbf, 0x95, 0xa5, 0x5d, 0xbf, 0x58, 0x18, 0xa0, 0xbf,
  0x37, 0xbf, 0xf1, 0xbe, 0xd7, 0x1a, 0x66, 0xbf, 0xdc, 0xae, 0xa8, 0xbf,
  0x3e, 0x96, 0x11, 0x3f, 0xa6, 0x29, 0xc1, 0xbe, 0x70, 0xcf, 0x82, 0xbe,
  0x0f, 0x52, 0x90, 0xbe, 0x0f, 0xbb, 0xb7, 0xbe, 0xce, 0xf5, 0x2e, 0xbf,
  0x0d, 0x92, 0x8d, 0xbe, 0x01, 0x9c, 0x51, 0x3e, 0xd7, 0xa3, 0xca, 0xbe,
  0x86, 0x19, 0x59, 0xbd, 0xcb, 0x24, 0x08, 0xbf, 0x1d, 0xf9, 0x92, 0xbe,
  0x6e, 0xcd, 0x9b, 0xbf, 0x53, 0x49, 0x05, 0xbe, 0xe6, 0x0c, 0x6d, 0x3d,
  0x8c, 0xad, 0x12, 0xbf, 0x02, 0x9d, 0xbd, 0xbe, 0x95, 0x4f, 0xbd, 0x3d,
  0x36, 0xeb, 0x31, 0x3e, 0x7f, 0x79, 0xe0, 0xbe, 0x4a, 0x39, 0x8a, 0xbe,
  0x89, 0x6c, 0x5d, 0xbe, 0x63, 0xd4, 0xaf, 0xbe, 0x8d, 0x67, 0x2d, 0xbd,
  0x64, 0x4c, 0xaa, 0xbd, 0x99, 0xe1, 0xdf, 0xbd, 0x9c, 0x4a, 0xe4, 0x3d,
  0xb6, 0x3a, 0xdc, 0xbe, 0xcf, 0xe6, 0x13, 0xbf, 0x09, 0xf6, 0x03, 0xbe,
  0x55, 0xb9, 0x5d, 0xbf, 0x16, 0x67, 0x02, 0xbf, 0x68, 0xe5, 0x62, 0xbf,
  0x53, 0x38, 0x1b, 0x3d, 0xae, 0x66, 0x90, 0xbe, 0x42, 0x35, 0x92, 0xbf,
  0x49, 0xc3, 0x90, 0xbf, 0xc4, 0x1c, 0x43, 0xbe, 0x20, 0xfd, 0x5f, 0xbf,
  0x48, 0x23, 0x57, 0xbd, 0xe9, 0x82, 0x8c, 0xbe, 0xf4, 0xba, 0x33, 0xbf,
  0xf9, 0xbe, 0x46, 0xbf, 0xb2, 0x9f, 0x10, 0xbf, 0x49, 0x9b, 0xe0, 0x3c,
  0x06, 0xca, 0x26, 0xbf, 0xaa, 0x16, 0x77, 0xbf, 0xc2, 0x85, 0xc3, 0xbe,
  0xd1, 0xad, 0x8e, 0xbe, 0xb9, 0xf4, 0x2e, 0xbe, 0x7f, 0x5d, 0x82, 0xbb,
  0xc1, 0x83, 0x45, 0x3e, 0x22, 0xb9, 0xbb, 0x3e, 0xb0, 0xbd, 0x01, 0xc0,
  0xda, 0xac, 0xb6, 0xbe, 0xa6, 0xcb, 0x0c, 0xbf, 0x18, 0x07, 0xb7, 0x3d,
  0x72, 0x63, 0xb4, 0x3d, 0x3e, 0x6d, 0xdb, 0xbe, 0xfb, 0xaf, 0xb5, 0xbe,
  0x4c, 0x17, 0x8a, 0x3e, 0x00, 0xbf, 0x57, 0xbf, 0x60, 0x67, 0x66, 0xbe,
  0xd2, 0x44, 0x3e, 0xbf, 0x70, 0xd5, 0xe1, 0xbf, 0x1c, 0x2c, 0xef, 0xbd,
  0x98, 0x7b, 0x48, 0xbe, 0xd4, 0x32, 0xb2, 0xbe, 0xad, 0x12, 0x8f, 0x3d,
  0xdf, 0x0a, 0xa9, 0xbe, 0xcd, 0x91, 0x0c, 0xbe, 0xfe, 0xbe, 0x69, 0xbe,
  0x19, 0x43, 0x18, 0xbf, 0x04, 0x42, 0x95, 0x3c, 0x97, 0x61, 0x6f, 0x3a,
  0x19, 0xc4, 0xb5, 0xbe, 0xe0, 0x2a, 0x9c, 0xbd, 0x65, 0x47, 0x94, 0x3e,
  0xcd, 0x3e, 0x9c, 0xbe, 0xe8, 0x7f, 0x00, 0xbe, 0x87, 0xb8, 0xa8, 0xbe,
  0xae, 0x4a, 0xa5, 0xbe, 0x69, 0x3b, 0xca, 0xbe, 0x4d, 0xf6, 0x99, 0xbd,
  0x43, 0x97, 0x48, 0xbe, 0xce, 0xea, 0x26, 0xbe, 0xa9, 0xff, 0x48, 0xbd,
  0xd1, 0xbc, 0x9c, 0x3d, 0xf6, 0x7c, 0xe0, 0xbe, 0x8b, 0x31, 0x0a, 0xbf,
  0x5a, 0x66, 0x9c, 0xbe, 0x90, 0x12, 0x84, 0xbc, 0x47, 0xba, 0x67, 0xbf,
  0x66, 0x95, 0x56, 0xbe, 0x30, 0x87, 0x3f, 0xbe, 0xed, 0x93, 0xff, 0xbd,
  0xaf, 0x16, 0xe1, 0xbe, 0xc3, 0xce, 0x74, 0xbe, 0x84, 0xa9, 0x1d, 0xbf,
  0x87, 0x10, 0x18, 0xbf, 0x82, 0x08, 0xa6, 0xbe, 0x89, 0xb7, 0x14, 0xbe,
  0x9b, 0x4e, 0x34, 0xbf, 0x73, 0x97, 0xaa, 0xbe, 0x6f, 0xd5, 0xf9, 0xbd,
  0x5d, 0xf7, 0x1b, 0xbe, 0xa7, 0xeb, 0xb8, 0xbd, 0x1e, 0xed, 0x87, 0xbe,
  0x66, 0x45, 0xd3, 0xbe, 0x9c, 0xaf, 0x96, 0x3d, 0xb6, 0x4a, 0x3e, 0xbf,
  0x2a, 0x35, 0x4a, 0xbe, 0x45, 0xc4, 0xe2, 0xbd, 0x49, 0x58, 0x14, 0xbd,
  0xc3, 0x01, 0x8a, 0xbe, 0xcf, 0x1f, 0xa1, 0xbd, 0x25, 0xb4, 0xd4, 0xbe,
  0x39, 0x6d, 0x94, 0xbe, 0x2c, 0xc4, 0x8c, 0x3c, 0x18, 0xef, 0x46, 0xbe,
  0xeb, 0x2f, 0x27, 0xbe, 0x4a, 0xb8, 0x26, 0x3d, 0x22, 0x92, 0x9f, 0xbd,
  0xbe, 0xd1, 0x10, 0xbd, 0x10, 0xec, 0x2e, 0xbc, 0xf3, 0xdd, 0x2d, 0xbe,
  0xb7, 0xdc, 0xaf, 0xbe, 0x1a, 0x54, 0xfe, 0xbe, 0x7b, 0x7d, 0x7b, 0xbe,
  0x75, 0x0a, 0x5f, 0xbd, 0x8c, 0xcd, 0x88, 0xbf, 0xdb, 0xd5, 0x5b, 0xbe,
  0xa6, 0x6c, 0x2f, 0xbf, 0x07, 0xbd, 0x38, 0xbf, 0xdc, 0xff, 0x7c, 0x3e,
  0x14, 0xa5, 0x17, 0xbe, 0x04, 0x9d, 0x23, 0xbd, 0x51, 0xf9, 0x46, 0x3d,
  0xd7, 0x9b, 0x32, 0xbe, 0x68, 0x5f, 0x2f, 0xbf, 0x51, 0x2c, 0x99, 0xbe,
  0x6d, 0x5f, 0x90, 0xbf, 0x03, 0x99, 0x0e, 0xc0, 0x42, 0xf1, 0x45, 0xbb,
  0x94, 0x9a, 0x4d, 0x3d, 0xb9, 0x0a, 0xa1, 0xbe, 0x89, 0x6e, 0x94, 0x3d,
  0x7d, 0xf9, 0x8c, 0x3d, 0x68, 0xb9, 0xd6, 0xbf, 0xb7, 0x79, 0xbb, 0x3e,
  0xc3, 0x50, 0x29, 0x3f, 0x28, 0x29, 0x74, 0x3e, 0x91, 0xa4, 0x2f, 0x3f,
  0x0e, 0xcf, 0x20, 0xbf, 0x58, 0xd6, 0x4e, 0x3e, 0x64, 0x70, 0xd5, 0xbf,
  0x0e, 0x8b, 0x7f, 0x3f, 0x6d, 0x0d, 0x2d, 0xbe, 0xa0, 0xf4, 0x98, 0x3e,
  0x91, 0x51, 0x4e, 0xbc, 0xdb, 0x10, 0x45, 0xbe, 0x32, 0x6f, 0x71, 0xbf,
  0x67, 0x3f, 0x92, 0xbd, 0x0e, 0xf3, 0x4a, 0xbe, 0xe2, 0xc9, 0x83, 0x3e,
  0x83, 0x5d, 0x88, 0xbe, 0x01, 0x08, 0x2e, 0xbe, 0xd2, 0x9d, 0x2c, 0xbf,
  0x4c, 0x2b, 0x6c, 0xbe, 0x29, 0x1f, 0xb4, 0x3e, 0x8c, 0xe2, 0xbf, 0x3e,
  0x37, 0x09, 0x2b, 0x3f, 0xd1, 0x7f, 0x6c, 0xbf, 0x61, 0x96, 0x9e, 0x3e,
  0x55, 0xf5, 0x49, 0x3e, 0xea, 0xf3, 0x15, 0x3e, 0x83, 0x35, 0x9d, 0xbe,
  0xb1, 0x3c, 0xbb, 0x3e, 0x28, 0x7b, 0x93, 0x3e, 0xb4, 0xc3, 0x81, 0xbf,
  0xeb, 0xbe, 0xe3, 0xbc, 0x30, 0x21, 0x22, 0x3e, 0xba, 0x8d, 0x2b, 0x3e,
  0xf7, 0x9a, 0x9a, 0x3c, 0xd0, 0x71, 0xd5, 0x3d, 0x49, 0x9f, 0x81, 0xbe,
  0x4a, 0xa6, 0x5a, 0xbe, 0x96, 0x0e, 0xf2, 0xbb, 0x9b, 0x10, 0x2c, 0xbf,
  0x00, 0x0d, 0xc4, 0xbe, 0x81, 0x22, 0xdb, 0x3e, 0xf2, 0x59, 0xc4, 0xbc,
  0xfd, 0xd7, 0x2b, 0xc0, 0xb2, 0x5b, 0xe2, 0xbd, 0x38, 0xf9, 0x40, 0xbd,
  0x3a, 0x48, 0x88, 0x3e, 0x14, 0xde, 0x0f, 0xc0, 0xa6, 0xe1, 0xce, 0xbf,
  0x04, 0xc4, 0x4e, 0xbe, 0xa4, 0x2a, 0xc1, 0x3e, 0x48, 0xdb, 0x0d, 0x3e,
  0x14, 0x1b, 0x68, 0xbe, 0x30, 0xe3, 0xc1, 0xbf, 0x5b, 0x5e, 0x6c, 0x3f,
  0x01, 0x4f, 0x2c, 0x3c, 0xa6, 0xe9, 0x8f, 0xbf, 0x16, 0xee, 0xca, 0xbe,
  0x39, 0x40, 0x57, 0xbf, 0xe1, 0xf5, 0x7b, 0xbf, 0xbf, 0x05, 0x67, 0x3e,
  0xda, 0xc3, 0x15, 0x3f, 0x48, 0x48, 0x0d, 0xbf, 0x45, 0xbc, 0x76, 0xbf,
  0x79, 0x15, 0x99, 0xbf, 0xbe, 0xae, 0xbb, 0xbf, 0x82, 0xb2, 0xe8, 0x3d,
  0xef, 0x97, 0x41, 0xbf, 0x30, 0xbb, 0x61, 0xbe, 0x2e, 0xa2, 0x84, 0x3f,
  0x52, 0x32, 0xa0, 0xbe, 0x49, 0x90, 0xeb, 0xbf, 0xaf, 0xfa, 0x84, 0xbf,
  0xfc, 0xab, 0x5f, 0xbe, 0x8c, 0xf0, 0xdc, 0xbe, 0x18, 0x79, 0x25, 0xbf,
  0x04, 0xdc, 0xcc, 0xbe, 0x5f, 0x4a, 0x99, 0xbf, 0x0b, 0xbd, 0x32, 0xbe,
  0x18, 0x47, 0x1d, 0xbe, 0x08, 0x7a, 0xde, 0x3e, 0x6f, 0x8b, 0x82, 0xbf,
  0xeb, 0x97, 0x2c, 0xbe, 0xd6, 0xdc, 0x87, 0xbe, 0xfd, 0x5b, 0xd6, 0x3e,
  0x49, 0x0f, 0x00, 0xc0, 0xf6, 0xaf, 0x97, 0xbf, 0xf7, 0xea, 0x84, 0xbe,
  0x6b, 0x39, 0x77, 0xbf, 0x31, 0x57, 0xe8, 0x3e, 0xaf, 0xbd, 0x72, 0xbb,
  0xe4, 0x6e, 0xa6, 0xbe, 0xad, 0xf1, 0x5a, 0xbf, 0x0a, 0x7e, 0x28, 0xbf,
  0x77, 0xee, 0x1b, 0xbf, 0xa4, 0x72, 0xa8, 0xbc, 0xdb, 0x44, 0xe3, 0x3e,
  0xa5, 0x1b, 0xe0, 0xbf, 0x1d, 0x73, 0x0d, 0x3f, 0x5a, 0xe0, 0xab, 0x3e,
  0x08, 0x58, 0xda, 0xbf, 0x02, 0x77, 0x08, 0xbf, 0xca, 0x65, 0xb8, 0xbf,
  0xfe, 0xaf, 0x76, 0x3c, 0xbd, 0xa1, 0x0c, 0xbf, 0xaa, 0x6d, 0xa1, 0xbf,
  0xd0, 0x64, 0xcb, 0x3e, 0x1b, 0xa7, 0x3f, 0x3e, 0xa8, 0x07, 0x07, 0x3f,
  0xbf, 0xc6, 0xfb, 0xbc, 0xfb, 0x37, 0x07, 0xbc, 0x91, 0x4c, 0xe1, 0xbd,
  0x50, 0x81, 0xb6, 0xbe, 0x72, 0xe8, 0x70, 0xbd, 0x8c, 0xff, 0x11, 0xbe,
  0x33, 0x28, 0xc9, 0xbd, 0x07, 0x52, 0x5e, 0xbe, 0xa6, 0xe4, 0xf0, 0xbd,
  0x67, 0xa5, 0x46, 0xbd, 0x96, 0x58, 0x71, 0xbe, 0xc9, 0xb1, 0x82, 0xbe,
  0xc6, 0x35, 0x92, 0xbd, 0x0b, 0x56, 0xc2, 0xbd, 0x0f, 0xf9, 0xc2, 0xbe,
  0xe3, 0xcd, 0x26, 0xbd, 0x6a, 0xed, 0xc2, 0x3d, 0x06, 0x12, 0xf8, 0xbc,
  0xd9, 0x8e, 0x49, 0x3d, 0x4b, 0x49, 0x3a, 0xbe, 0xcb, 0x51, 0x67, 0xbe,
  0x21, 0x60, 0xbc, 0xbd, 0xd2, 0x08, 0xc4, 0xbe, 0xf3, 0x48, 0xc6, 0xbd,
  0x0b, 0xe3, 0x7d, 0xbe, 0xfa, 0x84, 0xcf, 0xbd, 0xe5, 0x42, 0x51, 0xbe,
  0x79, 0xec, 0x9a, 0xbe, 0x42, 0xe8, 0xa9, 0xbe, 0xeb, 0x32, 0x46, 0xbd,
  0xd4, 0xe5, 0x08, 0xbd, 0x97, 0x79, 0x33, 0xbd, 0xdc, 0xcb, 0xe3, 0xbd,
  0xca, 0xbf, 0x9c, 0xbe, 0xc1, 0x5d, 0xd3, 0xbe, 0xcb, 0x9d, 0xab, 0x3c,
  0x85, 0x92, 0xf6, 0xbd, 0x6d, 0xc6, 0xc5, 0xbe, 0x4e, 0xeb, 0xf6, 0xbd,
  0x67, 0x64, 0x05, 0x3e, 0xcf, 0x2b, 0x1f, 0xbe, 0x3c, 0xa5, 0x88, 0xbd,
  0xfe, 0x87, 0xb1, 0x3d, 0x9f, 0xeb, 0x8a, 0xbe, 0x65, 0x6a, 0x8a, 0x3b,
  0x91, 0xba, 0x49, 0xbe, 0x8b, 0xda, 0x9a, 0xbe, 0xf0, 0x5e, 0xac, 0xbe,
  0xf7, 0x6f, 0x6c, 0xbc, 0x54, 0xca, 0x28, 0x3e, 0x5c, 0x93, 0x23, 0xbe,
  0xc1, 0x54, 0xa7, 0xbe, 0x61, 0x19, 0x18, 0xbf, 0x23, 0x06, 0xb2, 0xbe,
  0x96, 0x7e, 0x10, 0xbe, 0x3e, 0x6a, 0x83, 0xbd, 0x29, 0xa1, 0xad, 0xbe,
  0xa9, 0xdb, 0xa0, 0xbe, 0x5b, 0x8f, 0x05, 0xbe, 0x8c, 0xa9, 0x79, 0xbe,
  0xa8, 0x36, 0x98, 0xbe, 0x96, 0xec, 0xd0, 0xbd, 0x07, 0x14, 0x7c, 0xbe,
  0xb1, 0x6a, 0x98, 0xbc, 0x8e, 0x36, 0x98, 0xbe, 0x33, 0xf0, 0x98, 0x3e,
  0x11, 0x6e, 0x17, 0xc0, 0x39, 0x0b, 0x0d, 0xbe, 0x41, 0x3c, 0x32, 0xbe,
  0xd8, 0x94, 0x5a, 0xbf, 0x99, 0x2b, 0x92, 0xbf, 0xf2, 0xab, 0xc4, 0xbe,
  0xba, 0x7a, 0x03, 0xc0, 0xf1, 0x5e, 0x86, 0xbf, 0x4d, 0x7e, 0x20, 0xbf,
  0x84, 0xa9, 0x72, 0xbf, 0x2a, 0x0c, 0x72, 0xc0, 0x04, 0xca, 0x6c, 0xbe,
  0x6a, 0x52, 0xfe, 0xbe, 0x16, 0x7b, 0xbe, 0xbe, 0x33, 0xb0, 0xe3, 0xbe,
  0xb0, 0xae, 0x73, 0xbf, 0xf7, 0x47, 0x9d, 0xbf, 0x48, 0xe9, 0xcf, 0x3e,
  0xd1, 0xf2, 0x40, 0xbf, 0x18, 0x51, 0x73, 0xbf, 0x7f, 0x69, 0x8e, 0xbf,
  0x6d, 0x36, 0xa9, 0xbd, 0x08, 0x04, 0xc3, 0xbf, 0x72, 0x6f, 0x68, 0xbf,
  0x86, 0xe6, 0x00, 0xbf, 0x4f, 0xb0, 0xb1, 0xbe, 0xc5, 0xdb, 0x74, 0xbe,
  0x4e, 0x14, 0xaa, 0x3d, 0xc5, 0x1c, 0xbf, 0xbe, 0x2b, 0xe8, 0x61, 0xbf,
  0x25, 0x3f, 0x59, 0xbe, 0x5b, 0x08, 0xcd, 0xbe, 0x97, 0x1d, 0x03, 0x3f,
  0x99, 0x54, 0x1c, 0xbe, 0x0f, 0x35, 0x1b, 0xbf, 0x2a, 0x7c, 0x77, 0xbf,
  0x64, 0xac, 0xe6, 0xbe, 0x70, 0x1b, 0x9e, 0xbf, 0x0f, 0x51, 0x41, 0xbf,
  0x7c, 0xfb, 0x0b, 0xbf, 0xfd, 0xf1, 0x5a, 0xbf, 0x9b, 0xf1, 0x2a, 0x3e,
  0x34, 0xad, 0xbf, 0xbc, 0x03, 0xf4, 0x87, 0xbf, 0xf2, 0x08, 0xe3, 0xbd,
  0x78, 0x23, 0xc8, 0xbf, 0x43, 0x83, 0x94, 0xbf, 0x55, 0x27, 0x05, 0xbf,
  0x5b, 0xd2, 0x22, 0x3d, 0x5a, 0xc0, 0x28, 0x3e, 0x81, 0x05, 0x2f, 0x3f,
  0x4c, 0xd9, 0xfc, 0x3e, 0xd7, 0xc4, 0x81, 0x3e, 0x41, 0xed, 0x5f, 0xbf,
  0x3d, 0xbc, 0x81, 0xbf, 0x13, 0x89, 0x3c, 0x3f, 0xe6, 0xeb, 0x02, 0xbf,
  0xc6, 0xc4, 0xbe, 0xbf, 0x00, 0xfe, 0xbb, 0xbf, 0xe5, 0x68, 0x31, 0xbf,
  0x8f, 0x6c, 0xc7, 0xbf, 0xf2, 0xd9, 0x48, 0xbf, 0x95, 0xa7, 0xd0, 0x3d,
  0x77, 0x9a, 0xe0, 0xbe, 0x4b, 0xf6, 0x82, 0xbf, 0xc6, 0x96, 0x09, 0xbf,
  0x3a, 0x13, 0xe3, 0xbe, 0x77, 0xbb, 0x02, 0xbf, 0x7d, 0xe0, 0x07, 0xbf,
  0x25, 0x83, 0x84, 0x3e, 0xfa, 0xca, 0x0a, 0xbf, 0x74, 0x24, 0x2f, 0xbf,
  0x83, 0x1e, 0xd8, 0xbc, 0x11, 0x5a, 0x99, 0xbf, 0xee, 0xc9, 0x36, 0x3e,
  0x48, 0x2a, 0xf1, 0xbf, 0x65, 0xd9, 0x0b, 0xbf, 0xc6, 0xf6, 0x89, 0xbe,
  0xe8, 0xa0, 0x90, 0xbf, 0xc4, 0x31, 0xfa, 0xbc, 0x02, 0xed, 0xbc, 0x3e,
  0x03, 0xd7, 0x16, 0x3f, 0xb0, 0x7a, 0x36, 0xbf, 0x4a, 0x48, 0xfa, 0xbd,
  0x39, 0x40, 0xdf, 0x3e, 0xfe, 0xad, 0x8a, 0xbe, 0xcd, 0x18, 0xe0, 0xbe,
  0x02, 0x45, 0x0e, 0xc0, 0x09, 0xb9, 0x50, 0x3e, 0x16, 0x8a, 0x35, 0xbf,
  0xd4, 0x46, 0xb3, 0x3e, 0x1b, 0x11, 0xa4, 0xbf, 0xf0, 0x72, 0x3e, 0xbf,
  0xd5, 0x48, 0x90, 0xbf, 0x28, 0x50, 0xf5, 0xbe, 0xfc, 0xc6, 0x6d, 0xbf,
  0xe6, 0x6b, 0x79, 0xbf, 0x04, 0x2f, 0x43, 0x3e, 0xdd, 0xe8, 0x49, 0xbe,
  0x1a, 0x60, 0x83, 0xbf, 0x12, 0x00, 0xe0, 0xbf, 0x17, 0x52, 0x67, 0xbf,
  0xf4, 0x5f, 0x0e, 0xbf, 0x33, 0xb4, 0x23, 0xbe, 0xb3, 0x76, 0xe5, 0x3d,
  0x1c, 0xd6, 0xd4, 0x3d, 0x04, 0xaa, 0x2f, 0xc0, 0x77, 0x18, 0x87, 0xbf,
  0xb5, 0x3d, 0x08, 0xbf, 0x7b, 0x21, 0xdf, 0xbe, 0x0d, 0xf8, 0xa5, 0x3d,
  0xec, 0x63, 0x19, 0xbc, 0x65, 0xaa, 0xf8, 0xbe, 0xea, 0x75, 0x8b, 0xbf,
  0xd5, 0xeb, 0x31, 0xbf, 0xc5, 0x8b, 0xad, 0xbf, 0xec, 0x54, 0xb9, 0xbe,
  0x00, 0x75, 0x9e, 0xbf, 0xd3, 0x64, 0xfc, 0xbe, 0x2b, 0x86, 0x9a, 0xbf,
  0xca, 0xb2, 0xff, 0xbe, 0x8d, 0x7b, 0x6f, 0xbf, 0xea, 0x37, 0x43, 0xbf,
  0x95, 0x07, 0x0a, 0xbd, 0x04, 0x56, 0xf9, 0xbe, 0xd1, 0xbf, 0xc5, 0xbd,
  0x63, 0x56, 0x8d, 0xbf, 0xef, 0x45, 0x32, 0x3e, 0xfb, 0x63, 0xe3, 0xbe,
  0x94, 0x5e, 0xd0, 0x3e, 0x2e, 0x27, 0x9b, 0xbe, 0x5e, 0x15, 0xcd, 0xbf,
  0xe6, 0xd1, 0x73, 0xbe, 0x3a, 0x2f, 0x75, 0xbf, 0x42, 0xf2, 0x65, 0xbf,
  0xeb, 0x18, 0x19, 0x3d, 0x3c, 0xe1, 0xc9, 0xbe, 0xab, 0xf5, 0x33, 0xbf,
  0x45, 0xbb, 0xf0, 0x3e, 0xe6, 0x39, 0xeb, 0x3e, 0x1e, 0x17, 0xa1, 0xbf,
  0x49, 0x53, 0x43, 0x3f, 0xc0, 0x8a, 0xa0, 0xbc, 0xe9, 0xbd, 0xc8, 0x3d,
  0x5f, 0x88, 0x90, 0xbc, 0x8d, 0x1a, 0x1d, 0xc0, 0x45, 0x9a, 0x30, 0xbf,
  0xef, 0xb3, 0x70, 0x3c, 0x3a, 0x4f, 0xe6, 0xbe, 0xd6, 0xbc, 0x97, 0xbf,
  0xbf, 0xe6, 0x07, 0xc0, 0xbf, 0x4a, 0x3c, 0xc0, 0x22, 0x07, 0x21, 0xbf,
  0xf2, 0x96, 0xce, 0xbe, 0x40, 0x90, 0x25, 0xbe, 0x16, 0x3b, 0xa2, 0x3e,
  0xaf, 0x19, 0xc5, 0xbf, 0x82, 0x70, 0x98, 0xbf, 0x0e, 0x50, 0xc8, 0xbf,
  0xf1, 0x2b, 0x33, 0x3e, 0xb4, 0xbd, 0x43, 0xbf, 0x00, 0x13, 0x53, 0xbf,
  0x72, 0xa5, 0x3f, 0xbf, 0x92, 0x20, 0xa8, 0xbf, 0x8b, 0xfa, 0x51, 0xbf,
  0x0e, 0xa5, 0x01, 0xbf, 0xa2, 0xe1, 0x1c, 0x3e, 0xaf, 0xc9, 0x4b, 0xbe,
  0x55, 0xeb, 0x00, 0xbf, 0x1b, 0x67, 0x24, 0xbf, 0x01, 0x56, 0xde, 0x3d,
  0xa0, 0x16, 0x32, 0xbf, 0xb1, 0x5e, 0x85, 0xbf, 0xbb, 0xd1, 0xac, 0xbf,
  0x2b, 0xa6, 0xbd, 0x3d, 0x4e, 0x1c, 0x90, 0xbe, 0x03, 0xa3, 0x2c, 0x3e,
  0x62, 0x6b, 0x17, 0xbf, 0xea, 0xf0, 0x81, 0xbe, 0x8b, 0x13, 0x32, 0xbf,
  0x2e, 0x00, 0xc9, 0xbe, 0xf8, 0xce, 0x5e, 0xbf, 0x2e, 0x23, 0xa7, 0xbf,
  0xa8, 0x9d, 0xbf, 0xbf, 0x7a, 0x19, 0xaa, 0x3e, 0x30, 0x09, 0x64, 0xbf,
  0x1f, 0xa1, 0x90, 0xbd, 0x98, 0xf8, 0x44, 0xc0, 0xb7, 0x89, 0x27, 0xc0,
  0xf9, 0x70, 0x6d, 0xbf, 0x39, 0x47, 0x9d, 0xbf, 0x23, 0x1b, 0xa9, 0xbf,
  0x17, 0x1c, 0xa2, 0xbf, 0x38, 0xa6, 0xba, 0x3e, 0x2e, 0xb8, 0x9a, 0xbf,
  0x79, 0xfc, 0x4b, 0xbe, 0x26, 0x6d, 0xb0, 0xbf, 0x3c, 0x37, 0x87, 0xbe,
  0x93, 0x45, 0x49, 0xbf, 0x96, 0x7a, 0x55, 0xbe, 0xa5, 0x2c, 0x45, 0xbe,
  0xad, 0x60, 0x86, 0xbf, 0xf2, 0xe7, 0x91, 0x3f, 0x57, 0x43, 0xe1, 0xbe,
  0xda, 0xc3, 0x5d, 0x3e, 0xaf, 0x0d, 0xf2, 0x3e, 0x9d, 0x8e, 0x29, 0xbf,
  0x63, 0x4c, 0x74, 0xbf, 0xb5, 0xfc, 0x74, 0xbe, 0xb0, 0xc4, 0xaa, 0xbe,
  0x73, 0x6a, 0x66, 0x3e, 0x63, 0x02, 0x19, 0x3e, 0x5c, 0xb3, 0x9e, 0xbd,
  0x19, 0xd6, 0xe3, 0xbd, 0xed, 0x9a, 0x5b, 0x3f, 0xa4, 0xc0, 0xcf, 0x3e,
  0x7f, 0x4e, 0x34, 0x3e, 0x39, 0x04, 0x01, 0xbe, 0x1e, 0xd7, 0x6a, 0x3e,
  0xbd, 0xe3, 0xbe, 0xbf, 0xf0, 0xde, 0x7f, 0xbb, 0x35, 0x5f, 0x47, 0xbf,
  0x02, 0xb8, 0x7e, 0xbc, 0x54, 0x6f, 0xd4, 0xbe, 0xec, 0x02, 0xd6, 0xbf,
  0x38, 0x16, 0x36, 0xbf, 0x35, 0x04, 0x97, 0x3e, 0x1c, 0xd5, 0xc4, 0xbe,
  0xc6, 0x6a, 0x04, 0xc0, 0x8d, 0x43, 0x0d, 0x3f, 0xd6, 0x4f, 0x38, 0xbf,
  0xee, 0x8b, 0xe5, 0xbe, 0x94, 0x74, 0x86, 0x3e, 0x3d, 0x10, 0x81, 0xbf,
  0x77, 0xdf, 0xe2, 0xbe, 0x8c, 0x42, 0x18, 0x3f, 0xfb, 0x62, 0xa3, 0xbe,
  0xe4, 0x71, 0xce, 0x3e, 0xc4, 0xf1, 0x14, 0x3f, 0x61, 0x6b, 0x83, 0xbe,
  0x28, 0x41, 0x0a, 0xbf, 0x71, 0x52, 0x93, 0xbf, 0xd8, 0xed, 0x70, 0x3c,
  0x58, 0xd1, 0x84, 0x3d, 0x6a, 0x06, 0x07, 0xbf, 0x0f, 0x61, 0x94, 0xbf,
  0xde, 0x92, 0xc1, 0xbe, 0x46, 0x66, 0x92, 0xbd, 0x49, 0xce, 0x27, 0xbf,
  0x9a, 0xe8, 0x7a, 0xbf, 0x1c, 0x0a, 0xde, 0xbf, 0x8d, 0xab, 0x86, 0xbf,
  0xa7, 0x04, 0xb8, 0x3e, 0xf3, 0x05, 0x90, 0xbd, 0xef, 0x24, 0xab, 0xbc,
  0xf8, 0x14, 0x89, 0x3f, 0x20, 0xc7, 0x84, 0x3f, 0x0d, 0xf5, 0xcd, 0x3c,
  0x07, 0xf2, 0xde, 0xbe, 0x82, 0x8b, 0x49, 0x3f, 0x93, 0x40, 0xe4, 0x3e,
  0x3a, 0x57, 0x13, 0xbf, 0x8f, 0x2e, 0xcd, 0xbf, 0x2e, 0x60, 0x95, 0x3f,
  0x21, 0xed, 0x07, 0x3d, 0x93, 0x99, 0xbb, 0x3d, 0x73, 0xa0, 0xa7, 0x3f,
  0x43, 0xfa, 0x32, 0xbf, 0xa5, 0x87, 0xc5, 0xbd, 0x5b, 0x84, 0xcf, 0xbe,
  0xd4, 0x4c, 0x2a, 0x3f, 0x49, 0xcb, 0xf5, 0xbd, 0x91, 0xbb, 0xb0, 0x3f,
  0x95, 0xde, 0x1a, 0x3e, 0xc5, 0xd1, 0x1b, 0x3e, 0x08, 0x1c, 0x9f, 0xbe,
  0xe7, 0xc3, 0xb6, 0xbf, 0x0b, 0xe4, 0x27, 0x3e, 0x6a, 0x3e, 0x4d, 0x3e,
  0x57, 0xe2, 0x46, 0xbf, 0x6b, 0xc5, 0x0d, 0xbd, 0xd8, 0x5d, 0x3c, 0xbf,
  0x84, 0x7f, 0xfd, 0x3e, 0xfc, 0x94, 0x6a, 0xbe, 0x75, 0x4a, 0x03, 0xbf,
  0x22, 0xe3, 0x09, 0xbd, 0xbe, 0xaa, 0x88, 0xbe, 0xaf, 0xb9, 0x85, 0xbf,
  0x74, 0xbb, 0x0a, 0x3b, 0x7c, 0x84, 0xad, 0x3d, 0x92, 0x5a, 0xe1, 0x3d,
  0xc2, 0x93, 0x01, 0x3e, 0x37, 0xe3, 0x0c, 0xbf, 0xc8, 0x1a, 0x95, 0xbf,
  0x5a, 0xc2, 0xb8, 0xbf, 0xa2, 0xed, 0x6d, 0x3d, 0x09, 0x7e, 0x90, 0xbf,
  0xce, 0xbb, 0x3a, 0xbe, 0xd6, 0xec, 0x84, 0xbf, 0xf0, 0x92, 0x51, 0x3e,
  0xff, 0x4a, 0xdc, 0xbf, 0x4e, 0x48, 0xf0, 0xbf, 0x0b, 0xef, 0x96, 0x3e,
  0xf4, 0x77, 0x2f, 0x3e, 0xdd, 0x43, 0x07, 0x3f, 0x40, 0xe5, 0xc7, 0x3c,
  0xd3, 0xec, 0x96, 0xbe, 0xfe, 0x5b, 0x2c, 0x3f, 0x13, 0x8c, 0x24, 0x3f,
  0x25, 0xb5, 0x31, 0xc0, 0x21, 0x44, 0x26, 0xbe, 0x2a, 0x8e, 0x55, 0xbe,
  0x36, 0xbc, 0xcb, 0xbe, 0x6a, 0x29, 0x8f, 0xbf, 0x31, 0x03, 0xc1, 0xbf,
  0xa6, 0x19, 0x13, 0x3d, 0x65, 0xc1, 0xc3, 0x3f, 0x9e, 0xdd, 0x25, 0x3f,
  0x7e, 0x0c, 0xc0, 0x3e, 0xe0, 0xf0, 0xe6, 0xbd, 0x8d, 0x59, 0xd9, 0xbd,
  0x6c, 0x82, 0xea, 0x3e, 0xd0, 0xcb, 0x94, 0x3e, 0xbe, 0x6f, 0x98, 0x3e,
  0x89, 0x83, 0xea, 0xbe, 0xb8, 0x00, 0x0c, 0xbd, 0xed, 0x28, 0xc0, 0xbe,
  0x16, 0x45, 0x64, 0xbd, 0x4e, 0x0a, 0x19, 0x3e, 0xed, 0x45, 0x1d, 0xbf,
  0xa2, 0x6e, 0x8f, 0xbf, 0x38, 0x53, 0x04, 0xbd, 0x4f, 0xef, 0xd9, 0x3d,
  0x59, 0x08, 0x78, 0x3e, 0xc3, 0x57, 0xcc, 0x3e, 0x5c, 0x05, 0xaa, 0x3e,
  0x16, 0xbf, 0x03, 0xbf, 0xfe, 0xd5, 0x72, 0xbf, 0x8a, 0x8d, 0x02, 0x3f,
  0xe1, 0xab, 0x3f, 0xbc, 0x53, 0x46, 0x23, 0x3f, 0x5b, 0x4c, 0xa0, 0xbe,
  0x7f, 0xc7, 0xa0, 0xbf, 0x6b, 0x76, 0xd2, 0xbf, 0xbf, 0x08, 0x53, 0x3e,
  0x6d, 0xb7, 0x80, 0xbf, 0x0b, 0xbb, 0x42, 0xbf, 0x53, 0xf6, 0x9f, 0x3e,
  0xea, 0xaf, 0x6e, 0xbd, 0x4f, 0xab, 0xb1, 0xbd, 0x23, 0x83, 0xd5, 0x3e,
  0xf4, 0xd1, 0x80, 0xbe, 0xfc, 0x83, 0x7d, 0xbe, 0x65, 0x08, 0x83, 0xbd,
  0xd2, 0xee, 0xa4, 0x3e, 0x23, 0x57, 0xea, 0xbb, 0xda, 0x37, 0xd3, 0xbe,
  0xc5, 0x26, 0x22, 0x3e, 0xa8, 0xb7, 0xa3, 0x3e, 0x92, 0x1d, 0xca, 0x3d,
  0xeb, 0x36, 0x04, 0x3f, 0x2e, 0xb7, 0x4b, 0xbe, 0xde, 0xc8, 0x46, 0xbe,
  0xde, 0x6f, 0x98, 0x3d, 0x0c, 0xfa, 0x1f, 0xbe, 0xc9, 0x97, 0x25, 0xbf,
  0x3b, 0xe1, 0x00, 0xbf, 0x82, 0xb4, 0xf6, 0x3e, 0x43, 0x17, 0x33, 0x3e,
  0xe3, 0x2e, 0x06, 0xbf, 0x80, 0x2c, 0xfa, 0xbd, 0x87, 0xf4, 0x1c, 0xbb,
  0x57, 0xa8, 0x34, 0xbe, 0x77, 0x22, 0x7b, 0xbe, 0x0f, 0x1e, 0x3d, 0xbe,
  0x61, 0x2d, 0xfe, 0xbd, 0x46, 0x1e, 0xc8, 0xbe, 0xe8, 0xfc, 0xb9, 0xbe,
  0x2e, 0xe9, 0xc1, 0xbe, 0x9f, 0x66, 0x89, 0xbf, 0x13, 0xa7, 0x7b, 0xbf,
  0x15, 0xb0, 0x28, 0xbe, 0x19, 0xc8, 0xec, 0xbe, 0x64, 0x93, 0x07, 0xbf,
  0xbe, 0x2b, 0x49, 0xbf, 0x87, 0x58, 0x2f, 0xbf, 0xf8, 0x58, 0x8d, 0xbe,
  0x1d, 0xf5, 0x8f, 0xbe, 0xe5, 0xf5, 0x00, 0xbd, 0x8d, 0xc6, 0x93, 0xbe,
  0x03, 0xf8, 0x27, 0xbf, 0xb7, 0xb4, 0x1d, 0xbe, 0x75, 0x9d, 0x17, 0xbd,
  0x02, 0xe4, 0x8a, 0xbe, 0xcb, 0x56, 0x9c, 0xbf, 0xf8, 0xfb, 0x8a, 0xbe,
  0x59, 0xbc, 0x42, 0x3e, 0x09, 0x93, 0xd4, 0xbe, 0xfc, 0xce, 0x6a, 0xbf,
  0x90, 0x70, 0x08, 0xbf, 0x5a, 0xa9, 0xae, 0xbe, 0xbf, 0x15, 0xbb, 0xbd,
  0x3b, 0x3e, 0xae, 0xbf, 0xfa, 0xa4, 0x70, 0xbf, 0xc3, 0x37, 0x80, 0x3e,
  0xc8, 0x09, 0xb0, 0xbf, 0x52, 0x98, 0x98, 0xbe, 0x47, 0x97, 0x84, 0x3c,
  0x45, 0x6e, 0xb6, 0xbf, 0x2d, 0xd9, 0x9f, 0xbe, 0xc6, 0x65, 0x44, 0xbf,
  0x9e, 0x02, 0xca, 0xbe, 0x31, 0xba, 0xb0, 0xbe, 0x0e, 0x69, 0x5b, 0x3e,
  0xea, 0xd4, 0x0d, 0xbf, 0x00, 0x36, 0x93, 0xbf, 0x9a, 0x83, 0xcc, 0xbc,
  0xe1, 0x46, 0xe4, 0xbd, 0x58, 0xd0, 0x58, 0xbf, 0x6d, 0xee, 0x37, 0xbf,
  0x17, 0x18, 0x1f, 0xbf, 0x3b, 0x42, 0xeb, 0x3e, 0xdf, 0xe6, 0x94, 0x3d,
  0x9f, 0x8a, 0x8c, 0xbe, 0xdb, 0xde, 0x37, 0xbe, 0xf3, 0xba, 0x27, 0xbf,
  0xce, 0xbc, 0x98, 0xbf, 0x0a, 0xc9, 0x27, 0xbf, 0x9b, 0xaf, 0x02, 0xbf,
  0x71, 0x18, 0xd5, 0x3d, 0x4f, 0x71, 0x81, 0xbf, 0xe9, 0x42, 0x30, 0xbf,
  0x8f, 0xac, 0x0c, 0xbf, 0x53, 0x1b, 0xed, 0xbd, 0x13, 0x22, 0x75, 0x3e,
  0x15, 0x49, 0x88, 0xbf, 0x46, 0x8d, 0x00, 0xbe, 0x44, 0x3e, 0xd8, 0xbd,
  0xb1, 0xc8, 0xef, 0xbe, 0xaa, 0x22, 0x5d, 0xbe, 0x58, 0xa7, 0x98, 0xbf,
  0x5e, 0xd8, 0x12, 0xbf, 0xf2, 0xa0, 0x56, 0xbf, 0xf7, 0x2d, 0xd1, 0xbe,
  0x5d, 0xc3, 0x16, 0xbe, 0xc8, 0x01, 0x97, 0xbe, 0x14, 0xa1, 0x36, 0xbf,
  0x86, 0x65, 0xce, 0xbb, 0x4d, 0xa7, 0x19, 0xbf, 0x15, 0xc7, 0xf3, 0xbe,
  0xa1, 0xdd, 0xc1, 0xbe, 0x07, 0x36, 0x0c, 0x3e, 0x35, 0xc9, 0xe7, 0xbe,
  0x4f, 0x99, 0xc5, 0xbb, 0x3a, 0xe1, 0x78, 0xbe, 0xf8, 0x41, 0xab, 0x3c,
  0x6b, 0x5e, 0xc9, 0xbe, 0x16, 0x3a, 0x5e, 0xbe, 0x77, 0x2f, 0xc8, 0xbf,
  0x54, 0xb8, 0x27, 0xbf, 0x54, 0xb4, 0x8a, 0xbe, 0x3f, 0x24, 0x54, 0x3e,
  0x48, 0x99, 0x8b, 0xbe, 0x12, 0x42, 0x02, 0xc0, 0x84, 0x9a, 0x08, 0xbf,
  0xad, 0x3d, 0xf4, 0xbe, 0x9e, 0xb2, 0xf7, 0xbe, 0x51, 0x66, 0x6c, 0x3c,
  0x88, 0xdb, 0x2c, 0xbe, 0x1b, 0x71, 0x48, 0xbf, 0x27, 0x53, 0x04, 0xbf,
  0x7d, 0x47, 0xfd, 0xbe, 0x38, 0x16, 0x9a, 0xbe, 0x17, 0x8f, 0x04, 0xbf,
  0x4d, 0x44, 0xb8, 0x3d, 0xd1, 0xb0, 0x2a, 0x3f, 0x40, 0x54, 0x4c, 0x3e,
  0x38, 0xe0, 0x93, 0xbe, 0x2a, 0xf7, 0x2b, 0xbf, 0xd7, 0x60, 0x2b, 0xbd,
  0xc4, 0xa6, 0xdd, 0x3e, 0x25, 0xad, 0x72, 0xbf, 0x1d, 0x29, 0x00, 0xbe,
  0x13, 0xec, 0xe7, 0xbf, 0xc8, 0x48, 0x00, 0xc0, 0x87, 0x00, 0x98, 0xbe,
  0x05, 0xf3, 0x4d, 0xbf, 0x4c, 0x34, 0x20, 0xbc, 0x2b, 0xbd, 0x02, 0xbf,
  0xce, 0x62, 0x2e, 0xbf, 0x9d, 0x91, 0x98, 0xbf, 0x08, 0x6d, 0x53, 0xbf,
  0xfe, 0x9c, 0xb7, 0xbf, 0x85, 0xfe, 0x83, 0xbe, 0x41, 0xc7, 0xfa, 0x3d,
  0xae, 0x68, 0x29, 0x3f, 0x66, 0xe5, 0x26, 0xbf, 0x9c, 0x17, 0xb5, 0xbf,
  0x59, 0x4f, 0x1c, 0xbf, 0x57, 0x58, 0x7f, 0xbf, 0x3d, 0x6d, 0x2e, 0xbe,
  0x3f, 0xb8, 0x2d, 0xbb, 0xc2, 0x9a, 0x50, 0xbf, 0x63, 0x9a, 0xc4, 0xbd,
  0x5c, 0x51, 0x56, 0xbf, 0x7d, 0xe0, 0xc2, 0xbf, 0x48, 0x75, 0xac, 0xbc,
  0xfd, 0xb7, 0x07, 0xbe, 0x5e, 0x3b, 0xc8, 0x3e, 0xac, 0x99, 0x92, 0xbe,
  0x16, 0xd5, 0x03, 0xbe, 0x36, 0xf9, 0xc3, 0xbe, 0xfc, 0xe4, 0x7e, 0xbf,
  0xfb, 0x1c, 0x71, 0xbd, 0x33, 0xc0, 0x26, 0xbc, 0x2d, 0x40, 0x55, 0xbf,
  0xe0, 0x99, 0xe8, 0xbe, 0x94, 0xaf, 0xc4, 0xbf, 0x92, 0x7c, 0x6a, 0xbf,
  0x45, 0x9c, 0xf6, 0xbe, 0x74, 0x0c, 0x1c, 0x3f, 0xcd, 0x6a, 0x5a, 0xbf,
  0xe6, 0xd4, 0x46, 0x3f, 0xed, 0x93, 0x83, 0xbf, 0x9b, 0xf1, 0x84, 0xbf,
  0x84, 0x53, 0x5e, 0x3f, 0x41, 0xae, 0x95, 0xbe, 0xaf, 0xf6, 0xe1, 0xbe,
  0xc4, 0x53, 0x84, 0xbd, 0x80, 0x13, 0xcf, 0x3e, 0x17, 0x1b, 0xf4, 0xbf,
  0x9c, 0x1b, 0x98, 0xbe, 0x9c, 0x5c, 0x10, 0xc0, 0xe8, 0x3a, 0xd7, 0xbe,
  0xd4, 0xd5, 0xeb, 0xbe, 0x35, 0xbe, 0x84, 0x3e, 0xa6, 0x98, 0x87, 0xbf,
  0xf7, 0xcf, 0x0b, 0xc0, 0xea, 0xd5, 0x43, 0x3f, 0x3d, 0x58, 0x32, 0x3f,
  0xf4, 0x27, 0xa4, 0xbe, 0xfe, 0x79, 0x92, 0xbf, 0x70, 0xd7, 0x70, 0xbf,
  0x5d, 0x7e, 0xe5, 0xbe, 0x70, 0xb0, 0x40, 0xbf, 0x84, 0xd4, 0x98, 0x3c,
  0xe8, 0x5a, 0x52, 0xbf, 0xfd, 0xad, 0x4c, 0x3e, 0xf9, 0xcd, 0xd8, 0x3e,
  0x12, 0x3e, 0x8e, 0xbf, 0x61, 0x1c, 0x2f, 0xbf, 0x00, 0x16, 0x43, 0xbf,
  0xaf, 0x70, 0xf5, 0xbe, 0x45, 0x1b, 0xa9, 0x3e, 0x52, 0x84, 0xa3, 0xbf,
  0x4d, 0xc6, 0x08, 0xbf, 0x3d, 0xde, 0x11, 0xbc, 0x74, 0xc1, 0x29, 0xbe,
  0x3a, 0xeb, 0xf6, 0xbe, 0x8b, 0x56, 0x79, 0x3e, 0x2d, 0xb4, 0x17, 0xbf,
  0x21, 0x2a, 0xd6, 0xbd, 0xe4, 0xfd, 0xa2, 0xbf, 0xc3, 0xf5, 0x48, 0xbf,
  0x1f, 0x5e, 0x02, 0xc0, 0x47, 0x4f, 0x56, 0xbf, 0x9a, 0xb1, 0x8c, 0xbf,
  0x1b, 0xaf, 0x86, 0xbf, 0x8e, 0x70, 0x05, 0xbf, 0x93, 0x0a, 0xf3, 0xbe,
  0x16, 0xf8, 0x77, 0xbf, 0xce, 0x0c, 0xed, 0xbe, 0x64, 0xbe, 0x98, 0xbf,
  0xa9, 0x1d, 0x00, 0x3f, 0xcb, 0xe7, 0x03, 0xbf, 0x05, 0xee, 0x84, 0xbf,
  0x63, 0x2a, 0x68, 0xbe, 0xfa, 0x62, 0x62, 0xbf, 0x0e, 0xd4, 0x2a, 0xbf,
  0xe2, 0x3d, 0x03, 0xbe, 0x75, 0xd6, 0x80, 0xbf, 0x2a, 0x36, 0xca, 0xbd,
  0xae, 0xcb, 0x12, 0xbf, 0xdf, 0xdf, 0x16, 0xbf, 0xf2, 0x1f, 0x36, 0xbe,
  0xab, 0xd5, 0x1c, 0xc0, 0x16, 0xee, 0x99, 0xbe, 0xe2, 0x13, 0x3b, 0xbf,
  0x25, 0x81, 0x94, 0xbf, 0x5a, 0x7c, 0x8a, 0x3e, 0xf5, 0xed, 0x87, 0xbd,
  0xfb, 0x73, 0xf9, 0xbe, 0x0e, 0x84, 0xb2, 0xbe, 0x80, 0xd4, 0x4b, 0xbf,
  0xee, 0xf1, 0xa0, 0xbf, 0xfd, 0x1f, 0xa4, 0xbe, 0x47, 0xed, 0x8e, 0xbd,
  0x2c, 0xe1, 0x68, 0xbe, 0x0a, 0x7e, 0x75, 0x3d, 0x17, 0x34, 0x56, 0xbf,
  0xa2, 0x59, 0xa1, 0xbf, 0x3d, 0x73, 0x18, 0xbf, 0x0c, 0xa3, 0xe4, 0xbf,
  0xe7, 0xa6, 0x2c, 0x3e, 0x89, 0x34, 0x54, 0xbf, 0xc0, 0x04, 0x30, 0xc0,
  0xde, 0x1f, 0x11, 0xc0, 0x3d, 0xbd, 0x97, 0xbf, 0x9b, 0xb7, 0x1f, 0x3e,
  0xa9, 0x45, 0x12, 0xc0, 0x5f, 0x99, 0xbb, 0xbf, 0xc0, 0xba, 0x86, 0xbf,
  0x23, 0x05, 0x08, 0xc0, 0x99, 0x55, 0xff, 0x3e, 0xa9, 0x2b, 0x24, 0x3f,
  0x74, 0x2d, 0x04, 0xc0, 0x48, 0x3d, 0x10, 0xbf, 0x88, 0xc3, 0xa8, 0xbd,
  0xa1, 0x7c, 0x13, 0x3e, 0x52, 0x79, 0x4f, 0x3f, 0x1b, 0x62, 0x19, 0xbf,
  0x60, 0x65, 0x1c, 0xbf, 0xbe, 0x94, 0x92, 0x3e, 0x2c, 0x27, 0xee, 0xbf,
  0x31, 0xe6, 0x5c, 0xbf, 0x0e, 0x6e, 0x48, 0xbf, 0xd9, 0x41, 0x95, 0xbe,
  0x0a, 0x1f, 0x94, 0xbf, 0x43, 0xd6, 0xa0, 0x3e, 0x74, 0x75, 0xa3, 0xbf,
  0x4e, 0x1b, 0x8f, 0xbf, 0x2c, 0x8e, 0x17, 0x3f, 0xa4, 0xb4, 0x90, 0x3b,
  0x7b, 0xb0, 0x11, 0xbf, 0x09, 0x09, 0x90, 0x3d, 0x67, 0x4c, 0x73, 0xbf,
  0x8e, 0x40, 0x0f, 0xbe, 0xd4, 0x2e, 0x25, 0xc0, 0xa1, 0xbc, 0x21, 0xbf,
  0x6b, 0xd3, 0xdb, 0xbe, 0x4f, 0xde, 0x8f, 0xbe, 0x6b, 0xdd, 0x40, 0xbf,
  0x60, 0x72, 0xb3, 0xbf, 0x6b, 0x28, 0x09, 0xbf, 0x38, 0x41, 0x5f, 0xbf,
  0x0e, 0x44, 0xd5, 0xbc, 0xe0, 0x2d, 0xb2, 0xbf, 0x52, 0x42, 0xa8, 0x3e,
  0x85, 0xea, 0xea, 0x3d, 0xa6, 0xfb, 0xb6, 0xbd, 0x60, 0xef, 0x8b, 0xbf,
  0xf5, 0x48, 0xbf, 0xbe, 0xd0, 0xce, 0xeb, 0xbd, 0x78, 0x12, 0x03, 0x3e,
  0x67, 0xaa, 0xf9, 0xbe, 0x44, 0xf1, 0x23, 0xbf, 0xe2, 0x7c, 0x23, 0xbe,
  0xae, 0xbb, 0x35, 0xbf, 0xea, 0xa2, 0x45, 0x3e, 0xbc, 0x68, 0xc8, 0xbe,
  0xb7, 0x44, 0xe0, 0x3d, 0x7e, 0xea, 0x92, 0xbf, 0xd0, 0x0a, 0x22, 0x3e,
  0xd8, 0x31, 0x97, 0xbe, 0x7d, 0x2a, 0xdd, 0xbe, 0xcb, 0xea, 0x77, 0xbe,
  0xf7, 0x6c, 0x5d, 0xbe, 0x41, 0xd8, 0x91, 0x3e, 0x69, 0xc4, 0x5c, 0x3e,
  0x89, 0xba, 0x59, 0xbe, 0xd4, 0x31, 0xa1, 0xbf, 0xc8, 0x17, 0x0d, 0x3e,
  0x45, 0xbb, 0x8c, 0xbe, 0xd3, 0x0f, 0x3f, 0xbe, 0x60, 0x31, 0xce, 0xbe,
  0xb4, 0x7a, 0x16, 0xbf, 0x6c, 0x65, 0x88, 0xbf, 0xbf, 0x68, 0xfa, 0xbd,
  0x9a, 0x61, 0x33, 0xbf, 0x68, 0x6b, 0xd6, 0xbe, 0x78, 0x8c, 0xde, 0xbe,
  0x9c, 0xe9, 0x1b, 0xbf, 0x37, 0x34, 0x5d, 0xbe, 0x3b, 0xcf, 0x35, 0xbf,
  0xdb, 0xbb, 0x03, 0xbe, 0xcb, 0xc0, 0x8e, 0xbf, 0xda, 0xaa, 0xd9, 0x3e,
  0xda, 0x7a, 0x91, 0xbc, 0xd5, 0xec, 0x5a, 0xbf, 0xa7, 0xf4, 0xcf, 0xbe,
  0x25, 0x20, 0xbd, 0xbf, 0xf1, 0xc3, 0x17, 0xbf, 0xc5, 0x88, 0xc5, 0xbe,
  0x20, 0xb2, 0x7a, 0xbf, 0x8f, 0x58, 0xe9, 0xbe, 0xb9, 0x26, 0x89, 0xbf,
  0xf6, 0x68, 0x4c, 0xbf, 0xd7, 0x4f, 0x03, 0xbf, 0xb1, 0x16, 0xb1, 0xbf,
  0xeb, 0xfb, 0xf9, 0xbe, 0x28, 0x29, 0x5b, 0xbf, 0x4f, 0x4b, 0x43, 0x3e,
  0x66, 0xfc, 0xff, 0xff, 0x04, 0x00, 0x00, 0x00, 0x00, 0x03, 0x00, 0x00,
  0x9a, 0x79, 0x44, 0x3e, 0xda, 0x9e, 0xcb, 0xbd, 0x77, 0x1f, 0xa7, 0xbe,
  0x3a, 0xb8, 0x1b, 0x3f, 0x6d, 0x78, 0x0a, 0xbe, 0x8b, 0x8e, 0x99, 0xbf,
  0x8c, 0x63, 0x14, 0xbd, 0x7a, 0x39, 0x98, 0xbd, 0x7b, 0x9b, 0x08, 0xbf,
  0x57, 0xaf, 0xe8, 0xbe, 0xc2, 0xf4, 0x93, 0x3d, 0xd8, 0xc3, 0x33, 0xbf,
  0xd6, 0x0b, 0x02, 0x3d, 0x76, 0x3a, 0x7d, 0x3e, 0x2e, 0x6a, 0x47, 0x3e,
  0x84, 0xd4, 0x08, 0x3f, 0x4b, 0x2e, 0x87, 0x3d, 0x1b, 0x6e, 0xa9, 0xbd,
  0x55, 0x44, 0x2e, 0xbb, 0x3e, 0x87, 0xc3, 0xbe, 0x17, 0x7f, 0xda, 0x3d,
  0xbc, 0x97, 0x4d, 0xbe, 0xd8, 0x24, 0xae, 0x3d, 0xdd, 0x21, 0x2b, 0x3f,
  0x51, 0xc0, 0x4d, 0xbf, 0xed, 0xc6, 0x20, 0x3e, 0x0a, 0x4b, 0x34, 0x3e,
  0x31, 0x9e, 0x2b, 0xbe, 0x87, 0x1c, 0xaa, 0xbe, 0xdb, 0xfa, 0x27, 0xbf,
  0xd8, 0x41, 0x6e, 0x3f, 0x8c, 0x29, 0x49, 0xbe, 0xda, 0xb2, 0xf8, 0x3c,
  0x2d, 0x64, 0x14, 0xbe, 0xca, 0x22, 0x97, 0xbe, 0x32, 0xfe, 0x11, 0xbf,
  0x86, 0x74, 0x06, 0x3e, 0x9a, 0x1a, 0x5f, 0xbf, 0xbf, 0x94, 0x66, 0xbd,
  0x6b, 0x3e, 0x80, 0xbd, 0x13, 0xdf, 0xa9, 0x3d, 0x5f, 0xa5, 0x9a, 0x3e,
  0x9a, 0xf8, 0x0c, 0xbe, 0x3b, 0xfe, 0x16, 0x3f, 0xbb, 0xe4, 0x80, 0x3e,
  0x87, 0xbc, 0x80, 0xbe, 0xfb, 0x40, 0x40, 0x3d, 0x51, 0xd6, 0xdf, 0x3d,
  0xfd, 0x11, 0x70, 0x3e, 0x5f, 0x1a, 0x93, 0x3c, 0x73, 0xae, 0x34, 0xbc,
  0xe6, 0x46, 0x56, 0x3d, 0x45, 0x77, 0xc8, 0xbc, 0x93, 0xf2, 0x2d, 0xbd,
  0x99, 0x07, 0x19, 0xbf, 0x48, 0x02, 0x87, 0xbd, 0xba, 0x1b, 0x8e, 0x3f,
  0x8f, 0x6c, 0xce, 0x3e, 0xb4, 0x4a, 0xb6, 0x3d, 0x1f, 0xd9, 0x87, 0xbe,
  0x4a, 0x37, 0x30, 0xbe, 0x86, 0xa2, 0x59, 0xbf, 0x97, 0x39, 0x1f, 0xbe,
  0x9a, 0xc8, 0x29, 0x3e, 0xec, 0x71, 0x33, 0xbc, 0x02, 0x1a, 0x01, 0xbe,
  0x5f, 0x4e, 0x97, 0xbe, 0x64, 0xb8, 0x5e, 0xbe, 0x05, 0x46, 0x0e, 0xbd,
  0x28, 0x4e, 0x8d, 0x3e, 0xc3, 0xcc, 0xa1, 0x3c, 0x6e, 0x5c, 0x5a, 0xbf,
  0x62, 0x87, 0x37, 0xbe, 0xd1, 0x35, 0x92, 0x3d, 0x84, 0x1c, 0x8a, 0x3e,
  0x16, 0x47, 0x98, 0xbd, 0xf9, 0xa9, 0xda, 0x3d, 0x3d, 0x9e, 0x3c, 0xbe,
  0x5f, 0xa9, 0xc9, 0x38, 0xed, 0xa7, 0x43, 0xbe, 0xad, 0x83, 0x63, 0x3d,
  0xb9, 0x22, 0x80, 0x3d, 0x43, 0x0f, 0x8d, 0x3e, 0x39, 0xa8, 0x1a, 0x3e,
  0xc1, 0x07, 0xda, 0xbd, 0x58, 0xd4, 0x33, 0x3e, 0x95, 0x79, 0xab, 0xbe,
  0xa0, 0x6c, 0x35, 0xbe, 0x3a, 0x4f, 0xcb, 0xbd, 0x84, 0x21, 0x50, 0x3e,
  0x01, 0x92, 0x91, 0xbc, 0x90, 0xe1, 0x60, 0x3e, 0xc5, 0xa6, 0x66, 0x3e,
  0xab, 0xc1, 0x5d, 0xbf, 0x23, 0x66, 0x0a, 0x3f, 0x8e, 0x7a, 0x53, 0xbe,
  0x32, 0xe4, 0x83, 0xbe, 0x23, 0xca, 0xe6, 0x3e, 0xae, 0x76, 0x1a, 0xba,
  0x9d, 0x9b, 0x50, 0x3d, 0xfd, 0x4f, 0x0d, 0xbd, 0xe8, 0xbb, 0xfc, 0x3f,
  0xc9, 0xa8, 0xcf, 0x3d, 0x62, 0x50, 0x7e, 0xbb, 0x27, 0x04, 0x0e, 0xbe,
  0x10, 0x08, 0x5a, 0xbd, 0xfe, 0xbd, 0x32, 0x3e, 0x4c, 0x05, 0x8b, 0x3d,
  0x8a, 0xd1, 0x8f, 0xbd, 0xe7, 0xee, 0x8a, 0x3d, 0xbb, 0x00, 0xfb, 0x3d,
  0x44, 0xe9, 0xe5, 0x3c, 0x93, 0xfe, 0x57, 0xbe, 0x32, 0xc7, 0x07, 0x3e,
  0x13, 0x72, 0x65, 0xbd, 0x82, 0x68, 0xf9, 0xbe, 0x59, 0x4f, 0xbb, 0x3d,
  0xb5, 0xa7, 0x18, 0xbd, 0x66, 0xb7, 0x70, 0xbc, 0x22, 0x22, 0xd8, 0x3c,
  0x8b, 0xf4, 0xe3, 0x3d, 0xe9, 0x9b, 0xad, 0xbf, 0x5b, 0x3b, 0xef, 0xbd,
  0x8d, 0x43, 0x4b, 0xbe, 0x3b, 0xd5, 0x8c, 0xbe, 0x85, 0xbf, 0x4b, 0x3e,
  0xcf, 0x9a, 0xd4, 0x3e, 0x12, 0xa0, 0xc5, 0x3e, 0x15, 0xb7, 0x2b, 0x3e,
  0x49, 0x51, 0xb1, 0xbd, 0xaa, 0xfa, 0x29, 0x3e, 0xd1, 0xfc, 0x0d, 0x3c,
  0x58, 0xf0, 0x02, 0x3d, 0xb9, 0x9a, 0x29, 0xbd, 0xdb, 0xb3, 0x99, 0x3c,
  0x94, 0x8b, 0x9e, 0xbe, 0x59, 0xda, 0x4f, 0xbe, 0x2f, 0xe9, 0xab, 0xbd,
  0x57, 0xd9, 0x89, 0x3e, 0x22, 0x60, 0xe3, 0x3b, 0x6c, 0x41, 0x9f, 0x3e,
  0x6d, 0x36, 0x42, 0x3d, 0xa8, 0xd2, 0xbf, 0xbd, 0x04, 0x12, 0x31, 0xbe,
  0xac, 0xcb, 0x0e, 0x3e, 0x32, 0xa0, 0x00, 0x3e, 0x64, 0x9d, 0xea, 0x3d,
  0x91, 0x38, 0xbe, 0xbe, 0xab, 0xc7, 0x2f, 0x3e, 0x8c, 0xc6, 0x4b, 0xbd,
  0x74, 0x4c, 0x1a, 0xbd, 0xfd, 0xda, 0x88, 0x3e, 0x7c, 0xf7, 0x58, 0xbe,
  0x65, 0xe0, 0xc2, 0x3d, 0xc9, 0x4d, 0xf3, 0x3c, 0xa6, 0x90, 0xc2, 0xbd,
  0xdb, 0x5e, 0x89, 0xbe, 0x49, 0xcc, 0xd4, 0xbd, 0xe2, 0x4e, 0x1d, 0x3e,
  0x03, 0x20, 0x37, 0xbe, 0x0c, 0x8d, 0xcf, 0xbe, 0x22, 0x27, 0xb5, 0x3e,
  0x0c, 0xa8, 0x44, 0xbe, 0xf1, 0x0c, 0x72, 0xbd, 0x08, 0x96, 0x63, 0x3c,
  0xcf, 0x23, 0xa9, 0x3e, 0x42, 0x4e, 0x5c, 0xbd, 0xf7, 0x04, 0x20, 0xbe,
  0x99, 0x55, 0xed, 0x3b, 0x5a, 0x9b, 0x0e, 0xbd, 0x73, 0x5e, 0xba, 0x3e,
  0x3d, 0xea, 0x2a, 0xbb, 0xae, 0xb1, 0x89, 0x3c, 0xad, 0x8e, 0x40, 0x3d,
  0xbb, 0x3b, 0xa0, 0xbc, 0xff, 0xc8, 0x40, 0x3e, 0x82, 0x4f, 0x0b, 0xbd,
  0xee, 0x70, 0xef, 0x3d, 0x4e, 0x17, 0xb0, 0xbd, 0x65, 0xcc, 0x01, 0xbe,
  0x61, 0xb1, 0x1c, 0x3e, 0xc4, 0xf5, 0x49, 0xbe, 0x68, 0xee, 0x10, 0xbd,
  0xb4, 0xe0, 0xa7, 0x3d, 0x7b, 0x75, 0x54, 0x3e, 0x93, 0x40, 0xe9, 0xbe,
  0x55, 0x8b, 0xdf, 0x3d, 0xce, 0x6a, 0x63, 0xbe, 0x22, 0x74, 0xe6, 0x3e,
  0xc2, 0xd2, 0x29, 0xbe, 0xf7, 0x21, 0xba, 0x3e, 0x68, 0x38, 0xc9, 0xbd,
  0x72, 0xff, 0xff, 0xff, 0x04, 0x00, 0x00, 0x00, 0x80, 0x00, 0x00, 0x00,
  0xc4, 0x82, 0x8f, 0xbf, 0x83, 0x4f, 0x0b, 0xbf, 0xc6, 0x86, 0xf9, 0xbe,
  0x5d, 0x0f, 0x9c, 0xbd, 0xa7, 0x9b, 0x25, 0x40, 0x1a, 0x0a, 0xad, 0xbf,
  0x0a, 0xca, 0x0e, 0xbe, 0xd2, 0x38, 0xa0, 0xbf, 0x20, 0x33, 0x91, 0xbe,
  0xac, 0x81, 0x33, 0xbe, 0x22, 0x26, 0xf1, 0xbe, 0xbd, 0xe5, 0x50, 0x3f,
  0x49, 0x78, 0xdb, 0xbe, 0x66, 0x24, 0x96, 0x3f, 0x8f, 0x63, 0xf6, 0xbe,
  0xb3, 0xcc, 0x5b, 0xbf, 0xd3, 0x7d, 0x62, 0x3c, 0xa0, 0x89, 0x4d, 0xbe,
  0x09, 0x37, 0xb9, 0x3f, 0x51, 0xff, 0xac, 0xbf, 0x7c, 0x8e, 0x13, 0xbe,
  0xda, 0x31, 0xcb, 0xbe, 0x1e, 0xe3, 0x59, 0x3f, 0x57, 0x19, 0x77, 0xbf,
  0x47, 0xdf, 0x10, 0xc0, 0xef, 0x27, 0xae, 0xbf, 0x4e, 0xd5, 0x79, 0x3f,
  0x8f, 0x9d, 0x2b, 0xbf, 0x8d, 0x9d, 0x25, 0xbf, 0xaf, 0xba, 0x3c, 0xbf,
  0x7f, 0x19, 0xcc, 0x3d, 0x53, 0x54, 0x3c, 0xbf, 0x00, 0x00, 0x06, 0x00,
  0x08, 0x00, 0x04, 0x00, 0x06, 0x00, 0x00, 0x00, 0x04, 0x00, 0x00, 0x00,
  0x18, 0x00, 0x00, 0x00, 0x10, 0xe4, 0xc7, 0x3e, 0xd5, 0xd5, 0x43, 0xbe,
  0xf6, 0x72, 0x95, 0xbd, 0x40, 0xcb, 0xb1, 0xbe, 0x0d, 0x94, 0x2e, 0xbf,
  0x31, 0x9c, 0x3f, 0xbf, 0xa8, 0xfa, 0xff, 0xff, 0xac, 0xfa, 0xff, 0xff,
  0x0f, 0x00, 0x00, 0x00, 0x4d, 0x4c, 0x49, 0x52, 0x20, 0x43, 0x6f, 0x6e,
  0x76, 0x65, 0x72, 0x74, 0x65, 0x64, 0x2e, 0x00, 0x01, 0x00, 0x00, 0x00,
  0x14, 0x00, 0x00, 0x00, 0x00, 0x00, 0x0e, 0x00, 0x18, 0x00, 0x14, 0x00,
  0x10, 0x00, 0x0c, 0x00, 0x08, 0x00, 0x04, 0x00, 0x0e, 0x00, 0x00, 0x00,
  0x14, 0x00, 0x00, 0x00, 0x1c, 0x00, 0x00, 0x00, 0xec, 0x00, 0x00, 0x00,
  0xf0, 0x00, 0x00, 0x00, 0xf4, 0x00, 0x00, 0x00, 0x04, 0x00, 0x00, 0x00,
  0x6d, 0x61, 0x69, 0x6e, 0x00, 0x00, 0x00, 0x00, 0x03, 0x00, 0x00, 0x00,
  0x90, 0x00, 0x00, 0x00, 0x48, 0x00, 0x00, 0x00, 0x04, 0x00, 0x00, 0x00,
  0x8a, 0xff, 0xff, 0xff, 0x1c, 0x00, 0x00, 0x00, 0x00, 0x00, 0x00, 0x08,
  0x1c, 0x00, 0x00, 0x00, 0x20, 0x00, 0x00, 0x00, 0x00, 0x00, 0x0a, 0x00,
  0x08, 0x00, 0x00, 0x00, 0x00, 0x00, 0x07, 0x00, 0x0a, 0x00, 0x00, 0x00,
  0x00, 0x00, 0x00, 0x01, 0x01, 0x00, 0x00, 0x00, 0x09, 0x00, 0x00, 0x00,
  0x03, 0x00, 0x00, 0x00, 0x08, 0x00, 0x00, 0x00, 0x03, 0x00, 0x00, 0x00,
  0x01, 0x00, 0x00, 0x00, 0xca, 0xff, 0xff, 0xff, 0x10, 0x00, 0x00, 0x00,
  0x00, 0x00, 0x00, 0x08, 0x10, 0x00, 0x00, 0x00, 0x14, 0x00, 0x00, 0x00,
  0xba, 0xff, 0xff, 0xff, 0x00, 0x00, 0x01, 0x01, 0x01, 0x00, 0x00, 0x00,
  0x08, 0x00, 0x00, 0x00, 0x03, 0x00, 0x00, 0x00, 0x07, 0x00, 0x00, 0x00,
  0x04, 0x00, 0x00, 0x00, 0x02, 0x00, 0x00, 0x00, 0x00, 0x00, 0x0e, 0x00,
  0x16, 0x00, 0x00, 0x00, 0x10, 0x00, 0x0c, 0x00, 0x0b, 0x00, 0x04, 0x00,
  0x0e, 0x00, 0x00, 0x00, 0x1c, 0x00, 0x00, 0x00, 0x00, 0x00, 0x00, 0x08,
  0x1c, 0x00, 0x00, 0x00, 0x20, 0x00, 0x00, 0x00, 0x00, 0x00, 0x0a, 0x00,
  0x08, 0x00, 0x07, 0x00, 0x00, 0x00, 0x06, 0x00, 0x0a, 0x00, 0x00, 0x00,
  0x00, 0x00, 0x01, 0x01, 0x01, 0x00, 0x00, 0x00, 0x07, 0x00, 0x00, 0x00,
  0x03, 0x00, 0x00, 0x00, 0x00, 0x00, 0x00, 0x00, 0x05, 0x00, 0x00, 0x00,
  0x06, 0x00, 0x00, 0x00, 0x01, 0x00, 0x00, 0x00, 0x09, 0x00, 0x00, 0x00,
  0x01, 0x00, 0x00, 0x00, 0x00, 0x00, 0x00, 0x00, 0x0a, 0x00, 0x00, 0x00,
  0x00, 0x04, 0x00, 0x00, 0x84, 0x03, 0x00, 0x00, 0x08, 0x03, 0x00, 0x00,
  0x9c, 0x02, 0x00, 0x00, 0x34, 0x02, 0x00, 0x00, 0xcc, 0x01, 0x00, 0x00,
  0x50, 0x01, 0x00, 0x00, 0xd0, 0x00, 0x00, 0x00, 0x50, 0x00, 0x00, 0x00,
  0x04, 0x00, 0x00, 0x00, 0x3e, 0xfc, 0xff, 0xff, 0x00, 0x00, 0x00, 0x01,
  0x10, 0x00, 0x00, 0x00, 0x10, 0x00, 0x00, 0x00, 0x0a, 0x00, 0x00, 0x00,
  0x28, 0x00, 0x00, 0x00, 0x28, 0xfc, 0xff, 0xff, 0x19, 0x00, 0x00, 0x00,
  0x53, 0x74, 0x61, 0x74, 0x65, 0x66, 0x75, 0x6c, 0x50, 0x61, 0x72, 0x74,
  0x69, 0x74, 0x69, 0x6f, 0x6e, 0x65, 0x64, 0x43, 0x61, 0x6c, 0x6c, 0x3a,
  0x30, 0x00, 0x00, 0x00, 0x02, 0x00, 0x00, 0x00, 0x01, 0x00, 0x00, 0x00,
  0x06, 0x00, 0x00, 0x00, 0x86, 0xfc, 0xff, 0xff, 0x00, 0x00, 0x00, 0x01,
  0x10, 0x00, 0x00, 0x00, 0x10, 0x00, 0x00, 0x00, 0x09, 0x00, 0x00, 0x00,
  0x5c, 0x00, 0x00, 0x00, 0x70, 0xfc, 0xff, 0xff, 0x4c, 0x00, 0x00, 0x00,
  0x5f, 0x5f, 0x6d, 0x61, 0x69, 0x6e, 0x5f, 0x5f, 0x2e, 0x65, 0x32, 0x65,
  0x4e, 0x65, 0x74, 0x77, 0x6f, 0x72, 0x6b, 0x2f, 0x74, 0x6f, 0x72, 0x63,
  0x68, 0x2e, 0x6e, 0x6e, 0x2e, 0x6d, 0x6f, 0x64, 0x75, 0x6c, 0x65, 0x73,
  0x2e, 0x6c, 0x69, 0x6e, 0x65, 0x61, 0x72, 0x2e, 0x4c, 0x69, 0x6e, 0x65,
  0x61, 0x72, 0x5f, 0x66, 0x63, 0x32, 0x3b, 0x3b, 0x5f, 0x5f, 0x6d, 0x61,
  0x69, 0x6e, 0x5f, 0x5f, 0x2e, 0x65, 0x32, 0x65, 0x4e, 0x65, 0x74, 0x77,
  0x6f, 0x72, 0x6b, 0x3b, 0x00, 0x00, 0x00, 0x00, 0x02, 0x00, 0x00, 0x00,
  0x01, 0x00, 0x00, 0x00, 0x20, 0x00, 0x00, 0x00, 0x02, 0xfd, 0xff, 0xff,
  0x00, 0x00, 0x00, 0x01, 0x10, 0x00, 0x00, 0x00, 0x10, 0x00, 0x00, 0x00,
  0x08, 0x00, 0x00, 0x00, 0x5c, 0x00, 0x00, 0x00, 0xec, 0xfc, 0xff, 0xff,
  0x4c, 0x00, 0x00, 0x00, 0x5f, 0x5f, 0x6d, 0x61, 0x69, 0x6e, 0x5f, 0x5f,
  0x2e, 0x65, 0x32, 0x65, 0x4e, 0x65, 0x74, 0x77, 0x6f, 0x72, 0x6b, 0x2f,
  0x74, 0x6f, 0x72, 0x63, 0x68, 0x2e, 0x6e, 0x6e, 0x2e, 0x6d, 0x6f, 0x64,
  0x75, 0x6c, 0x65, 0x73, 0x2e, 0x6c, 0x69, 0x6e, 0x65, 0x61, 0x72, 0x2e,
  0x4c, 0x69, 0x6e, 0x65, 0x61, 0x72, 0x5f, 0x66, 0x63, 0x31, 0x3b, 0x3b,
  0x5f, 0x5f, 0x6d, 0x61, 0x69, 0x6e, 0x5f, 0x5f, 0x2e, 0x65, 0x32, 0x65,
  0x4e, 0x65, 0x74, 0x77, 0x6f, 0x72, 0x6b, 0x3b, 0x00, 0x00, 0x00, 0x00,
  0x02, 0x00, 0x00, 0x00, 0x01, 0x00, 0x00, 0x00, 0x40, 0x00, 0x00, 0x00,
  0x7e, 0xfd, 0xff, 0xff, 0x00, 0x00, 0x00, 0x01, 0x10, 0x00, 0x00, 0x00,
  0x10, 0x00, 0x00, 0x00, 0x07, 0x00, 0x00, 0x00, 0x5c, 0x00, 0x00, 0x00,
  0x68, 0xfd, 0xff, 0xff, 0x4c, 0x00, 0x00, 0x00, 0x5f, 0x5f, 0x6d, 0x61,
  0x69, 0x6e, 0x5f, 0x5f, 0x2e, 0x65, 0x32, 0x65, 0x4e, 0x65, 0x74, 0x77,
  0x6f, 0x72, 0x6b, 0x3b, 0x3b, 0x5f, 0x5f, 0x6d, 0x61, 0x69, 0x6e, 0x5f,
  0x5f, 0x2e, 0x65, 0x32, 0x65, 0x4e, 0x65, 0x74, 0x77, 0x6f, 0x72, 0x6b,
  0x2f, 0x74, 0x6f, 0x72, 0x63, 0x68, 0x2e, 0x6e, 0x6e, 0x2e, 0x6d, 0x6f,
  0x64, 0x75, 0x6c, 0x65, 0x73, 0x2e, 0x6c, 0x69, 0x6e, 0x65, 0x61, 0x72,
  0x2e, 0x4c, 0x69, 0x6e, 0x65, 0x61, 0x72, 0x5f, 0x66, 0x63, 0x31, 0x3b,
  0x00, 0x00, 0x00, 0x00, 0x01, 0x00, 0x00, 0x00, 0x40, 0x00, 0x00, 0x00,
  0xf6, 0xfd, 0xff, 0xff, 0x00, 0x00, 0x00, 0x01, 0x10, 0x00, 0x00, 0x00,
  0x10, 0x00, 0x00, 0x00, 0x06, 0x00, 0x00, 0x00, 0x44, 0x00, 0x00, 0x00,
  0xe0, 0xfd, 0xff, 0xff, 0x37, 0x00, 0x00, 0x00, 0x5f, 0x5f, 0x6d, 0x61,
  0x69, 0x6e, 0x5f, 0x5f, 0x2e, 0x65, 0x32, 0x65, 0x4e, 0x65, 0x74, 0x77,
  0x6f, 0x72, 0x6b, 0x2f, 0x74, 0x6f, 0x72, 0x63, 0x68, 0x2e, 0x6e, 0x6e,
  0x2e, 0x6d, 0x6f, 0x64, 0x75, 0x6c, 0x65, 0x73, 0x2e, 0x6c, 0x69, 0x6e,
  0x65, 0x61, 0x72, 0x2e, 0x4c, 0x69, 0x6e, 0x65, 0x61, 0x72, 0x5f, 0x66,
  0x63, 0x31, 0x3b, 0x00, 0x02, 0x00, 0x00, 0x00, 0x40, 0x00, 0x00, 0x00,
  0x0f, 0x00, 0x00, 0x00, 0x5a, 0xfe, 0xff, 0xff, 0x00, 0x00, 0x00, 0x01,
  0x10, 0x00, 0x00, 0x00, 0x10, 0x00, 0x00, 0x00, 0x05, 0x00, 0x00, 0x00,
  0x44, 0x00, 0x00, 0x00, 0x44, 0xfe, 0xff, 0xff, 0x37, 0x00, 0x00, 0x00,
  0x5f, 0x5f, 0x6d, 0x61, 0x69, 0x6e, 0x5f, 0x5f, 0x2e, 0x65, 0x32, 0x65,
  0x4e, 0x65, 0x74, 0x77, 0x6f, 0x72, 0x6b, 0x2f, 0x74, 0x6f, 0x72, 0x63,
  0x68, 0x2e, 0x6e, 0x6e, 0x2e, 0x6d, 0x6f, 0x64, 0x75, 0x6c, 0x65, 0x73,
  0x2e, 0x6c, 0x69, 0x6e, 0x65, 0x61, 0x72, 0x2e, 0x4c, 0x69, 0x6e, 0x65,
  0x61, 0x72, 0x5f, 0x66, 0x63, 0x32, 0x3b, 0x00, 0x02, 0x00, 0x00, 0x00,
  0x20, 0x00, 0x00, 0x00, 0x40, 0x00, 0x00, 0x00, 0xbe, 0xfe, 0xff, 0xff,
  0x00, 0x00, 0x00, 0x01, 0x10, 0x00, 0x00, 0x00, 0x10, 0x00, 0x00, 0x00,
  0x04, 0x00, 0x00, 0x00, 0x48, 0x00, 0x00, 0x00, 0xa8, 0xfe, 0xff, 0xff,
  0x38, 0x00, 0x00, 0x00, 0x5f, 0x5f, 0x6d, 0x61, 0x69, 0x6e, 0x5f, 0x5f,
  0x2e, 0x65, 0x32, 0x65, 0x4e, 0x65, 0x74, 0x77, 0x6f, 0x72, 0x6b, 0x2f,
  0x74, 0x6f, 0x72, 0x63, 0x68, 0x2e, 0x6e, 0x6e, 0x2e, 0x6d, 0x6f, 0x64,
  0x75, 0x6c, 0x65, 0x73, 0x2e, 0x6c, 0x69, 0x6e, 0x65, 0x61, 0x72, 0x2e,
  0x4c, 0x69, 0x6e, 0x65, 0x61, 0x72, 0x5f, 0x66, 0x63, 0x33, 0x3b, 0x31,
  0x00, 0x00, 0x00, 0x00, 0x02, 0x00, 0x00, 0x00, 0x06, 0x00, 0x00, 0x00,
  0x20, 0x00, 0x00, 0x00, 0x26, 0xff, 0xff, 0xff, 0x00, 0x00, 0x00, 0x01,
  0x10, 0x00, 0x00, 0x00, 0x10, 0x00, 0x00, 0x00, 0x03, 0x00, 0x00, 0x00,
  0x5c, 0x00, 0x00, 0x00, 0x10, 0xff, 0xff, 0xff, 0x4c, 0x00, 0x00, 0x00,
  0x5f, 0x5f, 0x6d, 0x61, 0x69, 0x6e, 0x5f, 0x5f, 0x2e, 0x65, 0x32, 0x65,
  0x4e, 0x65, 0x74, 0x77, 0x6f, 0x72, 0x6b, 0x3b, 0x3b, 0x5f, 0x5f, 0x6d,
  0x61, 0x69, 0x6e, 0x5f, 0x5f, 0x2e, 0x65, 0x32, 0x65, 0x4e, 0x65, 0x74,
  0x77, 0x6f, 0x72, 0x6b, 0x2f, 0x74, 0x6f, 0x72, 0x63, 0x68, 0x2e, 0x6e,
  0x6e, 0x2e, 0x6d, 0x6f, 0x64, 0x75, 0x6c, 0x65, 0x73, 0x2e, 0x6c, 0x69,
  0x6e, 0x65, 0x61, 0x72, 0x2e, 0x4c, 0x69, 0x6e, 0x65, 0x61, 0x72, 0x5f,
  0x66, 0x63, 0x32, 0x3b, 0x00, 0x00, 0x00, 0x00, 0x01, 0x00, 0x00, 0x00,
  0x20, 0x00, 0x00, 0x00, 0x9e, 0xff, 0xff, 0xff, 0x00, 0x00, 0x00, 0x01,
  0x10, 0x00, 0x00, 0x00, 0x10, 0x00, 0x00, 0x00, 0x02, 0x00, 0x00, 0x00,
  0x44, 0x00, 0x00, 0x00, 0x88, 0xff, 0xff, 0xff, 0x37, 0x00, 0x00, 0x00,
  0x5f, 0x5f, 0x6d, 0x61, 0x69, 0x6e, 0x5f, 0x5f, 0x2e, 0x65, 0x32, 0x65,
  0x4e, 0x65, 0x74, 0x77, 0x6f, 0x72, 0x6b, 0x2f, 0x74, 0x6f, 0x72, 0x63,
  0x68, 0x2e, 0x6e, 0x6e, 0x2e, 0x6d, 0x6f, 0x64, 0x75, 0x6c, 0x65, 0x73,
  0x2e, 0x6c, 0x69, 0x6e, 0x65, 0x61, 0x72, 0x2e, 0x4c, 0x69, 0x6e, 0x65,
  0x61, 0x72, 0x5f, 0x66, 0x63, 0x33, 0x3b, 0x00, 0x01, 0x00, 0x00, 0x00,
  0x06, 0x00, 0x00, 0x00, 0x00, 0x00, 0x16, 0x00, 0x18, 0x00, 0x14, 0x00,
  0x00, 0x00, 0x10, 0x00, 0x0c, 0x00, 0x08, 0x00, 0x00, 0x00, 0x00, 0x00,
  0x00, 0x00, 0x07, 0x00, 0x16, 0x00, 0x00, 0x00, 0x00, 0x00, 0x00, 0x01,
  0x14, 0x00, 0x00, 0x00, 0x14, 0x00, 0x00, 0x00, 0x01, 0x00, 0x00, 0x00,
  0x2c, 0x00, 0x00, 0x00, 0x04, 0x00, 0x04, 0x00, 0x04, 0x00, 0x00, 0x00,
  0x18, 0x00, 0x00, 0x00, 0x73, 0x65, 0x72, 0x76, 0x69, 0x6e, 0x67, 0x5f,
  0x64, 0x65, 0x66, 0x61, 0x75, 0x6c, 0x74, 0x5f, 0x61, 0x72, 0x67, 0x73,
  0x5f, 0x30, 0x3a, 0x30, 0x00, 0x00, 0x00, 0x00, 0x02, 0x00, 0x00, 0x00,
  0x01, 0x00, 0x00, 0x00, 0x0f, 0x00, 0x00, 0x00, 0x01, 0x00, 0x00, 0x00,
  0x10, 0x00, 0x00, 0x00, 0x0c, 0x00, 0x10, 0x00, 0x0f, 0x00, 0x00, 0x00,
  0x08, 0x00, 0x04, 0x00, 0x0c, 0x00, 0x00, 0x00, 0x09, 0x00, 0x00, 0x00,
  0x05, 0x00, 0x00, 0x00, 0x00, 0x00, 0x00, 0x09
};
unsigned int gen_ppo_tflite_len = 15236;
