unsigned char gen_ppo_tflite[] = {
  0x1c, 0x00, 0x00, 0x00, 0x54, 0x46, 0x4c, 0x33, 0x14, 0x00, 0x20, 0x00,
  0x1c, 0x00, 0x18, 0x00, 0x14, 0x00, 0x10, 0x00, 0x0c, 0x00, 0x00, 0x00,
  0x08, 0x00, 0x04, 0x00, 0x14, 0x00, 0x00, 0x00, 0x1c, 0x00, 0x00, 0x00,
  0x90, 0x00, 0x00, 0x00, 0xe8, 0x00, 0x00, 0x00, 0xa8, 0x34, 0x00, 0x00,
  0xb8, 0x34, 0x00, 0x00, 0x24, 0x3a, 0x00, 0x00, 0x03, 0x00, 0x00, 0x00,
  0x01, 0x00, 0x00, 0x00, 0x10, 0x00, 0x00, 0x00, 0x00, 0x00, 0x0a, 0x00,
  0x10, 0x00, 0x0c, 0x00, 0x08, 0x00, 0x04, 0x00, 0x0a, 0x00, 0x00, 0x00,
  0x0c, 0x00, 0x00, 0x00, 0x1c, 0x00, 0x00, 0x00, 0x3c, 0x00, 0x00, 0x00,
  0x0f, 0x00, 0x00, 0x00, 0x73, 0x65, 0x72, 0x76, 0x69, 0x6e, 0x67, 0x5f,
  0x64, 0x65, 0x66, 0x61, 0x75, 0x6c, 0x74, 0x00, 0x01, 0x00, 0x00, 0x00,
  0x04, 0x00, 0x00, 0x00, 0x98, 0xff, 0xff, 0xff, 0x09, 0x00, 0x00, 0x00,
  0x04, 0x00, 0x00, 0x00, 0x08, 0x00, 0x00, 0x00, 0x6f, 0x75, 0x74, 0x70,
  0x75, 0x74, 0x5f, 0x30, 0x00, 0x00, 0x00, 0x00, 0x01, 0x00, 0x00, 0x00,
  0x04, 0x00, 0x00, 0x00, 0xf6, 0xcb, 0xff, 0xff, 0x04, 0x00, 0x00, 0x00,
  0x06, 0x00, 0x00, 0x00, 0x61, 0x72, 0x67, 0x73, 0x5f, 0x30, 0x00, 0x00,
  0x02, 0x00, 0x00, 0x00, 0x34, 0x00, 0x00, 0x00, 0x04, 0x00, 0x00, 0x00,
  0xdc, 0xff, 0xff, 0xff, 0x0c, 0x00, 0x00, 0x00, 0x04, 0x00, 0x00, 0x00,
  0x13, 0x00, 0x00, 0x00, 0x43, 0x4f, 0x4e, 0x56, 0x45, 0x52, 0x53, 0x49,
  0x4f, 0x4e, 0x5f, 0x4d, 0x45, 0x54, 0x41, 0x44, 0x41, 0x54, 0x41, 0x00,
  0x08, 0x00, 0x0c, 0x00, 0x08, 0x00, 0x04, 0x00, 0x08, 0x00, 0x00, 0x00,
  0x0b, 0x00, 0x00, 0x00, 0x04, 0x00, 0x00, 0x00, 0x13, 0x00, 0x00, 0x00,
  0x6d, 0x69, 0x6e, 0x5f, 0x72, 0x75, 0x6e, 0x74, 0x69, 0x6d, 0x65, 0x5f,
  0x76, 0x65, 0x72, 0x73, 0x69, 0x6f, 0x6e, 0x00, 0x0d, 0x00, 0x00, 0x00,
  0xbc, 0x33, 0x00, 0x00, 0xb4, 0x33, 0x00, 0x00, 0x94, 0x33, 0x00, 0x00,
  0xfc, 0x32, 0x00, 0x00, 0xec, 0x30, 0x00, 0x00, 0xdc, 0x10, 0x00, 0x00,
  0xcc, 0x01, 0x00, 0x00, 0xbc, 0x00, 0x00, 0x00, 0xb4, 0x00, 0x00, 0x00,
  0xac, 0x00, 0x00, 0x00, 0xa4, 0x00, 0x00, 0x00, 0x84, 0x00, 0x00, 0x00,
  0x04, 0x00, 0x00, 0x00, 0x9e, 0xcc, 0xff, 0xff, 0x04, 0x00, 0x00, 0x00,
  0x70, 0x00, 0x00, 0x00, 0x10, 0x00, 0x00, 0x00, 0x00, 0x00, 0x00, 0x00,
  0x08, 0x00, 0x0e, 0x00, 0x08, 0x00, 0x04, 0x00, 0x08, 0x00, 0x00, 0x00,
  0x10, 0x00, 0x00, 0x00, 0x24, 0x00, 0x00, 0x00, 0x00, 0x00, 0x06, 0x00,
  0x08, 0x00, 0x04, 0x00, 0x06, 0x00, 0x00, 0x00, 0x04, 0x00, 0x00, 0x00,
  0x00, 0x00, 0x00, 0x00, 0x0c, 0x00, 0x1c, 0x00, 0x18, 0x00, 0x14, 0x00,
  0x10, 0x00, 0x04, 0x00, 0x0c, 0x00, 0x00, 0x00, 0xf0, 0x6a, 0xb0, 0xfc,
  0x7b, 0x9c, 0x06, 0x52, 0x00, 0x00, 0x00, 0x00, 0x01, 0x00, 0x00, 0x00,
  0x02, 0x00, 0x00, 0x00, 0x04, 0x00, 0x00, 0x00, 0x12, 0x00, 0x00, 0x00,
  0x32, 0x2e, 0x32, 0x31, 0x2e, 0x30, 0x2d, 0x64, 0x65, 0x76, 0x32, 0x30,
  0x32, 0x35, 0x30, 0x38, 0x31, 0x38, 0x00, 0x00, 0x1a, 0xcd, 0xff, 0xff,
  0x04, 0x00, 0x00, 0x00, 0x10, 0x00, 0x00, 0x00, 0x32, 0x2e, 0x30, 0x2e,
  0x30, 0x00, 0x00, 0x00, 0x00, 0x00, 0x00, 0x00, 0x00, 0x00, 0x00, 0x00,
  0xbc, 0xc7, 0xff, 0xff, 0xc0, 0xc7, 0xff, 0xff, 0xc4, 0xc7, 0xff, 0xff,
  0x42, 0xcd, 0xff, 0xff, 0x04, 0x00, 0x00, 0x00, 0x00, 0x01, 0x00, 0x00,
  0x62, 0x2e, 0x73, 0xbc, 0xd0, 0x68, 0x16, 0x3e, 0x18, 0xa7, 0x02, 0xbc,
  0xb1, 0xf7, 0x2f, 0xbe, 0x32, 0xfd, 0x06, 0x3f, 0xea, 0xa1, 0x31, 0x3e,
  0xae, 0x74, 0x51, 0x3d, 0xa5, 0x8a, 0x99, 0x3d, 0xd2, 0xc4, 0x84, 0x3e,
  0xf5, 0x8b, 0x84, 0x3e, 0xaa, 0x3e, 0xe4, 0xbc, 0xd6, 0x88, 0x85, 0xbd,
  0xd4, 0xf7, 0x6b, 0xbe, 0x81, 0xb8, 0x3f, 0xbe, 0x78, 0x06, 0x44, 0x3e,
  0x9d, 0x4a, 0x2b, 0xbc, 0xb3, 0x0e, 0x10, 0xbe, 0xc6, 0x14, 0xa4, 0xbd,
  0xa8, 0x5e, 0x80, 0xbe, 0xd5, 0xab, 0x06, 0x3e, 0xd0, 0x0c, 0x1f, 0x3e,
  0x54, 0x87, 0x6a, 0x3e, 0x85, 0xd2, 0xfb, 0x3d, 0x52, 0xa5, 0x35, 0xbd,
  0x2c, 0x07, 0xae, 0x3d, 0xe7, 0xfa, 0x7f, 0x3e, 0xb3, 0xbb, 0x89, 0x3d,
  0x7d, 0xb4, 0x69, 0xbe, 0xe0, 0x3a, 0x23, 0xbf, 0x38, 0xf3, 0xb6, 0x3c,
  0xe4, 0xef, 0x09, 0x3e, 0x41, 0xfc, 0x81, 0xbf, 0x65, 0xb9, 0x16, 0xbd,
  0x0b, 0x86, 0x2e, 0xbd, 0x3c, 0x9b, 0x9c, 0x3d, 0x23, 0xf3, 0x89, 0xbd,
  0x84, 0x9e, 0x3a, 0xbd, 0x1e, 0x2c, 0xc7, 0x3d, 0x47, 0x71, 0x54, 0xbe,
  0xce, 0xe0, 0x8f, 0xbc, 0x94, 0xef, 0x6e, 0xbe, 0x94, 0xf6, 0x8b, 0x3e,
  0xc4, 0xcf, 0x10, 0x3d, 0x92, 0xc0, 0xdd, 0x3d, 0x20, 0xa0, 0xd0, 0xbe,
  0x52, 0xd9, 0x86, 0xbf, 0xe7, 0xb9, 0x85, 0xbe, 0x8b, 0x8b, 0x7f, 0xbc,
  0xa9, 0xdf, 0xe7, 0x3d, 0x58, 0xcb, 0xcc, 0x3d, 0x46, 0xa5, 0x30, 0x3d,
  0xab, 0x1e, 0x8f, 0x3e, 0xc1, 0xab, 0x9d, 0xbe, 0x5e, 0xb1, 0x6b, 0x3e,
  0x40, 0x5e, 0x48, 0x3e, 0xd3, 0x59, 0x23, 0xbf, 0xe0, 0x80, 0x85, 0x3e,
  0x0a, 0x19, 0xce, 0x3e, 0x2e, 0xd3, 0x4a, 0xbe, 0x15, 0xa6, 0x08, 0x3e,
  0x24, 0x49, 0x72, 0x3c, 0x6b, 0x86, 0x3c, 0xbe, 0xbe, 0x75, 0x3f, 0x3e,
  0xeb, 0x1e, 0xbc, 0x3c, 0x4e, 0xce, 0xff, 0xff, 0x04, 0x00, 0x00, 0x00,
  0x00, 0x0f, 0x00, 0x00, 0x78, 0x62, 0x29, 0x3c, 0xd5, 0xb6, 0x1f, 0x3e,
  0xe9, 0x3f, 0x45, 0xbe, 0x5f, 0xf1, 0x5a, 0xbf, 0xec, 0x67, 0x8a, 0xbe,
  0x87, 0xc0, 0x86, 0xbf, 0xee, 0x2b, 0xde, 0x3e, 0x19, 0xd7, 0x43, 0xbf,
  0x49, 0x64, 0x64, 0xbf, 0xc9, 0xae, 0x98, 0x3e, 0xd1, 0x1c, 0xb1, 0xbe,
  0x89, 0x4c, 0x4a, 0x3e, 0xfb, 0x82, 0x22, 0xbd, 0xd9, 0xb2, 0x55, 0x3d,
  0x21, 0x82, 0xdd, 0x3d, 0xc9, 0xe7, 0x94, 0x3b, 0x2d, 0xdb, 0xe2, 0xbe,
  0x21, 0x13, 0xa5, 0xbf, 0xd1, 0xe0, 0x3e, 0xbe, 0x7c, 0xe0, 0x9b, 0xbe,
  0xe4, 0x70, 0x7d, 0xbc, 0x4d, 0x21, 0x92, 0x3e, 0x7d, 0xbc, 0x12, 0xbe,
  0xca, 0xd1, 0xe0, 0xbe, 0xf7, 0x44, 0x5c, 0xbd, 0xdc, 0x7b, 0x23, 0x3e,
  0xe8, 0x40, 0x6a, 0x3e, 0xcf, 0x86, 0x50, 0x3d, 0x14, 0x02, 0x38, 0x3d,
  0xc9, 0x76, 0xa2, 0x3d, 0x0b, 0x60, 0x6b, 0xbd, 0x3e, 0xfb, 0x0b, 0x3f,
  0xd6, 0x79, 0x89, 0xbd, 0x8e, 0x24, 0x43, 0xbe, 0xaa, 0x24, 0xab, 0x3d,
  0xf4, 0xa4, 0x6a, 0xbf, 0x9d, 0x41, 0x0d, 0x3f, 0xf5, 0x94, 0x36, 0x3e,
  0x33, 0xb1, 0x90, 0x3f, 0x81, 0x97, 0x34, 0x3e, 0x6f, 0x4a, 0x28, 0xbf,
  0xa5, 0xf6, 0xc4, 0x3d, 0xa3, 0xd1, 0x62, 0xbd, 0xd1, 0x35, 0x5b, 0xbe,
  0x59, 0x14, 0x3b, 0xbc, 0x94, 0x39, 0x0e, 0x3e, 0x2b, 0x56, 0x0b, 0xbf,
  0x9e, 0xb0, 0x3a, 0xbf, 0x2b, 0x5f, 0x82, 0xbf, 0xab, 0xed, 0x52, 0xbf,
  0x76, 0x62, 0x3f, 0x3c, 0x9a, 0x60, 0x35, 0x3f, 0x23, 0x14, 0xb3, 0xbe,
  0xf2, 0x34, 0xa7, 0xbc, 0xc6, 0x4e, 0xc7, 0xbd, 0x7b, 0xea, 0xc0, 0xbe,
  0x4f, 0x9e, 0xd4, 0x3e, 0x3b, 0x13, 0x42, 0xbd, 0x99, 0x2c, 0x3b, 0x3d,
  0xbd, 0xbc, 0x9e, 0x3d, 0xd5, 0x10, 0x7c, 0xbd, 0xe0, 0x67, 0xab, 0x3d,
  0xb7, 0xa2, 0xbd, 0xbe, 0x49, 0x92, 0x83, 0xbd, 0xd6, 0x0a, 0x40, 0xbe,
  0x1a, 0x3e, 0x87, 0x3e, 0x60, 0x6f, 0xb9, 0xbd, 0x55, 0x9e, 0x98, 0x3d,
  0xd4, 0x78, 0x09, 0x3f, 0x7b, 0xc5, 0x89, 0xbd, 0x0b, 0x65, 0x9c, 0x3c,
  0xfc, 0xcf, 0x6c, 0xbe, 0x26, 0x8d, 0x8d, 0xbd, 0xe2, 0x98, 0x8f, 0x3d,
  0x51, 0x60, 0x00, 0x3e, 0x51, 0xb2, 0xba, 0x3d, 0x40, 0x6a, 0xbb, 0x3a,
  0xfc, 0x3d, 0xa4, 0xbe, 0x8d, 0xd6, 0x77, 0xbe, 0x67, 0x4e, 0xab, 0xbf,
  0x44, 0x62, 0x35, 0x3e, 0x1b, 0x66, 0xab, 0x3f, 0x1b, 0x80, 0xf9, 0xbe,
  0x82, 0xb2, 0xab, 0xbe, 0xc0, 0x22, 0x7d, 0xbe, 0xbb, 0x54, 0x75, 0xbe,
  0x16, 0x9b, 0x6c, 0x3e, 0xbf, 0x34, 0xa4, 0x3b, 0xd0, 0xc7, 0x6e, 0xbd,
  0x60, 0x83, 0x3d, 0xbd, 0xd6, 0x41, 0xaa, 0xbe, 0x18, 0x88, 0x81, 0x3e,
  0x7a, 0x27, 0x3b, 0xbd, 0x78, 0x9a, 0x92, 0x3e, 0xe4, 0x8e, 0x0d, 0xbf,
  0xcb, 0xc4, 0xc9, 0x3e, 0xfe, 0x41, 0x38, 0x3d, 0xf1, 0x2b, 0x61, 0x3e,
  0x18, 0x1f, 0xc7, 0xbf, 0x3a, 0x4c, 0x3f, 0x3e, 0x54, 0x06, 0xa8, 0xbe,
  0x1a, 0x15, 0x02, 0xbe, 0x0b, 0xaf, 0x0c, 0x3f, 0xec, 0xe3, 0xea, 0xbb,
  0xa8, 0x8a, 0x07, 0x3e, 0xc9, 0x95, 0xc3, 0xbd, 0xec, 0x8c, 0x7e, 0x3e,
  0x1c, 0x29, 0xd4, 0xbe, 0x0d, 0xc0, 0xf2, 0x3e, 0x71, 0xe6, 0x48, 0xbe,
  0xb7, 0x63, 0x0f, 0xbe, 0x7b, 0x0d, 0x64, 0x3e, 0x6c, 0xe6, 0x22, 0x3e,
  0xfc, 0x83, 0x21, 0x3e, 0x70, 0x42, 0xd7, 0xbd, 0xe0, 0x6b, 0x23, 0xbe,
  0x4a, 0x54, 0x8b, 0x3e, 0x23, 0xd9, 0xb7, 0xbc, 0xb5, 0x72, 0x85, 0xbd,
  0x01, 0x67, 0x0a, 0x3e, 0xa5, 0x04, 0x03, 0x3e, 0xf4, 0x0c, 0x82, 0x3c,
  0xc8, 0x61, 0xd4, 0xbd, 0x0d, 0xf2, 0x38, 0xbd, 0x79, 0xe8, 0x5e, 0xbf,
  0xfa, 0x16, 0x00, 0x3e, 0xdf, 0x16, 0x50, 0x3f, 0x41, 0xfd, 0x7a, 0x3d,
  0x61, 0xc4, 0x91, 0xbe, 0x9d, 0x4c, 0x8f, 0x3d, 0x75, 0x35, 0x20, 0xbb,
  0xbc, 0x31, 0x8a, 0x3d, 0x68, 0xaa, 0x03, 0x3d, 0x8a, 0xa1, 0x3c, 0xbd,
  0x2d, 0x00, 0x49, 0x3d, 0xcc, 0x62, 0x0f, 0x3d, 0x42, 0x86, 0x80, 0xbf,
  0xb2, 0x76, 0xb0, 0x3e, 0xe9, 0x9c, 0x37, 0xbe, 0x60, 0xfd, 0xb8, 0x3e,
  0xae, 0x7c, 0x91, 0xbe, 0x61, 0x5b, 0x85, 0xbe, 0x45, 0xcf, 0x91, 0xbe,
  0x36, 0x8c, 0x74, 0x3f, 0x2f, 0x6c, 0xa1, 0xbd, 0x81, 0x54, 0xc3, 0x3e,
  0x2b, 0xb8, 0x9a, 0xbe, 0xdc, 0x85, 0xbc, 0xbd, 0xd8, 0x7d, 0x25, 0xbc,
  0x42, 0x1b, 0xde, 0xbd, 0x61, 0x24, 0x95, 0x3e, 0x31, 0x40, 0x13, 0x3f,
  0x43, 0x69, 0xaa, 0x3d, 0x31, 0xdc, 0xc4, 0x3d, 0x27, 0x3d, 0xb4, 0x3e,
  0xf7, 0xa4, 0xc4, 0xbf, 0x41, 0xa7, 0x04, 0x3e, 0xb3, 0x76, 0x3e, 0x3e,
  0xa3, 0xc1, 0x21, 0xbf, 0x87, 0xa0, 0x17, 0xbf, 0xaf, 0x43, 0xfc, 0x3d,
  0x36, 0xf3, 0xc8, 0xbe, 0xc3, 0x41, 0x97, 0x3e, 0x62, 0x19, 0x3e, 0xbf,
  0x7f, 0x9f, 0x18, 0xbe, 0x5c, 0xfa, 0x84, 0x3c, 0xad, 0x48, 0x8f, 0xbe,
  0xcb, 0x11, 0x51, 0x3c, 0x66, 0x19, 0xa9, 0xbd, 0x3e, 0x3f, 0xb6, 0x3e,
  0x0f, 0x58, 0x3f, 0x3e, 0xe6, 0x18, 0x4c, 0xbe, 0x0e, 0x4b, 0x94, 0x3e,
  0x0e, 0x93, 0xc3, 0xbe, 0x98, 0x4f, 0x4e, 0x3b, 0xa5, 0xab, 0xa2, 0x3b,
  0x2d, 0x41, 0x16, 0x3e, 0xaa, 0x8e, 0x6c, 0x3b, 0x12, 0x00, 0x1d, 0xbe,
  0xe3, 0xfe, 0x1c, 0x3e, 0xe1, 0x49, 0x85, 0x3e, 0x51, 0x15, 0x68, 0x3f,
  0xae, 0xd6, 0x29, 0xbe, 0x23, 0xe2, 0x03, 0x3e, 0x38, 0x62, 0x03, 0x3f,
  0x84, 0x49, 0xfa, 0x3e, 0xcd, 0x0d, 0x89, 0xbe, 0x22, 0xe1, 0x09, 0xbd,
  0x65, 0x0a, 0x56, 0xbf, 0x13, 0xb0, 0x9f, 0x3b, 0x05, 0x7a, 0x10, 0xbf,
  0x84, 0x45, 0x86, 0x3e, 0x8b, 0x87, 0x90, 0x3d, 0x1f, 0xff, 0x44, 0x3e,
  0xb3, 0xa0, 0x98, 0x3b, 0xec, 0xef, 0xba, 0xbe, 0x22, 0x06, 0x05, 0xbf,
  0xf3, 0xaf, 0x03, 0x3e, 0xff, 0x3d, 0xec, 0x3d, 0x6e, 0x9f, 0x9f, 0xbe,
  0x43, 0x7f, 0x36, 0x3d, 0xba, 0x11, 0xe4, 0xbc, 0xa7, 0xed, 0x04, 0x3e,
  0x15, 0xc5, 0xbd, 0x3d, 0x86, 0x68, 0x26, 0x3d, 0x8e, 0xea, 0x12, 0x3e,
  0xd2, 0x2a, 0xa8, 0x3e, 0xc0, 0x0c, 0x7f, 0xbe, 0x30, 0x2f, 0x4c, 0x3e,
  0xb3, 0x3a, 0x9c, 0x3b, 0xc6, 0xb7, 0xc3, 0xbe, 0x9b, 0x5c, 0x14, 0xbe,
  0xa3, 0x44, 0xa3, 0xbd, 0x13, 0x36, 0xe0, 0xbc, 0x09, 0x53, 0x6a, 0xbe,
  0xd6, 0xe1, 0xbc, 0x3f, 0x4d, 0xf6, 0x07, 0xbe, 0x50, 0x49, 0x57, 0x3e,
  0xf8, 0xd8, 0x21, 0x3e, 0x4d, 0xbe, 0xf2, 0x3e, 0xfb, 0x04, 0xcc, 0x3d,
  0xd7, 0x0c, 0xf5, 0x3e, 0x16, 0x51, 0x6d, 0xbe, 0xbe, 0x0a, 0xd2, 0x3d,
  0x1d, 0x08, 0x46, 0x3d, 0x61, 0x7c, 0x81, 0x3e, 0x8b, 0xf1, 0x10, 0xbf,
  0x79, 0xcf, 0x30, 0xbd, 0x4e, 0x00, 0xb2, 0x3d, 0x4b, 0x92, 0xd9, 0xbe,
  0x4d, 0x9d, 0xc6, 0xbe, 0x88, 0xbd, 0x91, 0x3c, 0x59, 0xfc, 0x52, 0x3d,
  0x09, 0xcf, 0xc3, 0x3f, 0x09, 0xda, 0xc8, 0xbe, 0x2f, 0x6c, 0xe8, 0x3e,
  0x5c, 0x4f, 0x50, 0x3f, 0xbd, 0xf4, 0x07, 0xbe, 0x04, 0xfa, 0x47, 0x3e,
  0x33, 0x23, 0xa0, 0xbe, 0xd2, 0x24, 0x32, 0xbf, 0xb5, 0x2d, 0xd4, 0x3e,
  0xc0, 0xa6, 0x01, 0x3e, 0x4c, 0xca, 0x08, 0xbd, 0xf4, 0xec, 0x22, 0x3e,
  0xfa, 0x2f, 0xb4, 0x3d, 0x43, 0x57, 0xc0, 0xbe, 0xf8, 0x7e, 0x6d, 0x3e,
  0x2a, 0x1e, 0x64, 0xbf, 0xb4, 0x03, 0x6d, 0x3e, 0x44, 0x1d, 0x0a, 0xbf,
  0xa4, 0xc3, 0x2f, 0x3f, 0x4e, 0x45, 0x5b, 0x3d, 0x30, 0x5d, 0xd3, 0x3d,
  0x91, 0xc1, 0x75, 0xbd, 0x6c, 0xfd, 0x80, 0xbe, 0x8a, 0x86, 0x0c, 0x3f,
  0xf3, 0x15, 0xa7, 0xbd, 0x88, 0xbd, 0x78, 0x3e, 0xde, 0xa9, 0xd0, 0x3e,
  0x1a, 0x2d, 0x8c, 0x3f, 0x64, 0x30, 0x5c, 0x3e, 0xb2, 0x79, 0x0c, 0x3e,
  0x51, 0x93, 0xa5, 0xbf, 0x1a, 0x57, 0x15, 0x3e, 0x01, 0x7e, 0xd6, 0xbe,
  0xa7, 0xd1, 0x0c, 0x3f, 0xc6, 0xba, 0x9f, 0x3e, 0x06, 0xf5, 0xdf, 0x3d,
  0x35, 0x0b, 0x4c, 0xbe, 0xbc, 0x1b, 0xc3, 0x3f, 0x85, 0xbb, 0x71, 0xbd,
  0x98, 0x4a, 0x98, 0xbe, 0xc4, 0xbd, 0xcc, 0xbd, 0x4d, 0x50, 0x21, 0xbd,
  0x27, 0xc7, 0x95, 0xbf, 0x56, 0x72, 0x87, 0xbd, 0xe5, 0xb4, 0xac, 0x3e,
  0x44, 0x41, 0x44, 0xba, 0x77, 0x02, 0xf0, 0xbe, 0x2a, 0xe5, 0x66, 0xbd,
  0x49, 0xf7, 0xce, 0x3c, 0x5c, 0x69, 0x9e, 0x3c, 0x6d, 0x35, 0x11, 0xbc,
  0x3a, 0x5c, 0x2c, 0xbd, 0xc1, 0x6a, 0x1f, 0x3f, 0x5b, 0x44, 0x88, 0x3d,
  0xaa, 0xfc, 0x21, 0xbf, 0x1b, 0xa3, 0x91, 0x3e, 0x23, 0xf3, 0x87, 0x3d,
  0x00, 0xad, 0x33, 0x3e, 0x5d, 0x75, 0xd5, 0x3d, 0x58, 0x61, 0xcb, 0xbd,
  0xe3, 0xee, 0xf5, 0xbe, 0xcd, 0x6a, 0x91, 0x3e, 0xbf, 0x03, 0x14, 0x3f,
  0x69, 0xb1, 0x98, 0x3d, 0x9c, 0x64, 0xa1, 0x3d, 0x1b, 0xd0, 0xaf, 0x3c,
  0x51, 0x86, 0xf5, 0xbc, 0x98, 0xa2, 0x26, 0x3e, 0x9b, 0xe6, 0xb2, 0x3c,
  0x4d, 0xcc, 0x56, 0x3f, 0xf0, 0xab, 0x4e, 0xbe, 0xb8, 0x10, 0x5b, 0xbf,
  0xe3, 0x57, 0xfe, 0x3b, 0xfc, 0x29, 0x44, 0x3f, 0x6e, 0xf5, 0xf4, 0x3d,
  0x49, 0x64, 0xcd, 0x3e, 0x87, 0xd4, 0x1c, 0x3d, 0x09, 0x98, 0x76, 0xbe,
  0xd6, 0xa6, 0x20, 0x3f, 0x9d, 0xf3, 0xed, 0x3d, 0xff, 0x0e, 0x07, 0x3c,
  0x11, 0x13, 0xf7, 0x3d, 0x53, 0x14, 0xce, 0x3d, 0x24, 0x8c, 0x55, 0xbe,
  0x16, 0x04, 0x6d, 0xbe, 0x67, 0x18, 0x5d, 0xbe, 0x27, 0x48, 0x42, 0x3b,
  0x75, 0xcc, 0x0c, 0xbf, 0xdf, 0x12, 0x10, 0xbd, 0xbe, 0x66, 0xb1, 0xbd,
  0x6a, 0xe8, 0x51, 0xbd, 0xee, 0xac, 0xd2, 0xbe, 0x4c, 0x03, 0xca, 0x3d,
  0x30, 0x64, 0x40, 0xbe, 0xac, 0x1a, 0x06, 0xbe, 0x1d, 0x6e, 0xf9, 0xbc,
  0xef, 0xab, 0xda, 0x3d, 0xbd, 0x31, 0xfa, 0xbd, 0x8e, 0x17, 0x15, 0x3e,
  0x06, 0x93, 0xa6, 0xbd, 0xe3, 0x6b, 0x7c, 0x3e, 0x9e, 0x69, 0x0c, 0xbe,
  0x19, 0xd0, 0xae, 0x3f, 0x0b, 0x0a, 0x3d, 0xbe, 0x52, 0xce, 0x5e, 0xba,
  0x4b, 0x1c, 0xfb, 0x3e, 0xa0, 0xb3, 0x98, 0x3e, 0x3c, 0xf5, 0xe7, 0xbc,
  0x04, 0x77, 0x28, 0xbe, 0xd6, 0x3f, 0x79, 0x3c, 0xd0, 0xc4, 0x06, 0x3e,
  0xd4, 0x0d, 0xe8, 0x3c, 0x1a, 0xb6, 0x04, 0xbe, 0x61, 0xd8, 0x9b, 0x3e,
  0x55, 0x6b, 0xae, 0xbe, 0x8c, 0xd7, 0xb0, 0x3d, 0x2e, 0xe8, 0x29, 0x3e,
  0xf4, 0xc5, 0xc3, 0xbe, 0x90, 0xb7, 0x55, 0xbd, 0x4e, 0x0a, 0x0a, 0xbe,
  0xf5, 0x44, 0x8c, 0xbf, 0xee, 0x5d, 0xb7, 0xbe, 0x0b, 0x43, 0x5d, 0xbe,
  0x55, 0x06, 0x74, 0x3e, 0x89, 0xb2, 0x3f, 0xbc, 0x03, 0xe0, 0x4d, 0x3c,
  0x47, 0xc0, 0xe0, 0x3e, 0x9e, 0x14, 0x20, 0x3d, 0x4a, 0x2a, 0xf5, 0x3e,
  0x7d, 0x09, 0xb9, 0x3d, 0xb2, 0xba, 0xea, 0xbe, 0xba, 0x52, 0x2c, 0xbf,
  0x98, 0xa7, 0xb2, 0xbf, 0x72, 0x27, 0x16, 0x3f, 0x99, 0x42, 0xbb, 0x3e,
  0x0c, 0x34, 0x2d, 0xbf, 0x4d, 0xe3, 0x72, 0xbe, 0x3d, 0x1b, 0xb0, 0xbe,
  0x2e, 0x02, 0x86, 0x3d, 0xe2, 0x4d, 0xec, 0xbd, 0x3c, 0x0f, 0x6a, 0xbc,
  0xee, 0x8f, 0x14, 0x3c, 0x09, 0x53, 0xcf, 0xbe, 0x17, 0x5b, 0x16, 0x3f,
  0xfb, 0x15, 0x3b, 0xbd, 0x30, 0xac, 0x02, 0xbe, 0x04, 0x80, 0xb3, 0x3c,
  0x9f, 0xeb, 0xc7, 0x3e, 0xb9, 0x53, 0x62, 0x3e, 0x1b, 0xd4, 0xf6, 0xbd,
  0x84, 0x86, 0x8e, 0xbe, 0xf1, 0x3d, 0x4e, 0x3e, 0x61, 0x38, 0x1b, 0x3e,
  0xc1, 0x3a, 0xce, 0xbe, 0xde, 0xab, 0xae, 0xbd, 0xc1, 0x14, 0xac, 0xbd,
  0xc8, 0x79, 0x82, 0x3d, 0x05, 0x4f, 0xad, 0xbe, 0x4d, 0xee, 0x02, 0x3d,
  0x01, 0x7e, 0x8c, 0x3b, 0x34, 0x86, 0xb3, 0xbd, 0x77, 0xa1, 0xa9, 0x3e,
  0x35, 0x0c, 0x10, 0xbf, 0x61, 0x91, 0xc4, 0x3e, 0xb6, 0xfa, 0xaa, 0xbe,
  0x30, 0x4c, 0x19, 0x3f, 0xd6, 0xad, 0xce, 0xbe, 0x03, 0xb6, 0x35, 0xbd,
  0x4b, 0x77, 0x84, 0xbb, 0x8a, 0x05, 0x8c, 0x3d, 0x96, 0x82, 0xa1, 0x3b,
  0x6f, 0x03, 0x56, 0x3c, 0xce, 0x5b, 0xa5, 0x3f, 0xa1, 0xd3, 0x22, 0x3e,
  0x27, 0x13, 0x1a, 0x3e, 0xa1, 0x82, 0xa5, 0x3e, 0x18, 0x93, 0x22, 0xbe,
  0x34, 0xe2, 0x76, 0xbf, 0x92, 0x89, 0x16, 0x3e, 0xe1, 0xe8, 0x0b, 0x3b,
  0xb0, 0xa8, 0x49, 0xbf, 0x5e, 0x9a, 0xf1, 0xbe, 0x35, 0x75, 0x54, 0xbe,
  0x7a, 0x3f, 0xdd, 0x3e, 0xc7, 0x15, 0x2b, 0x3e, 0x63, 0xb6, 0xa3, 0xbd,
  0xa5, 0x76, 0xab, 0x3d, 0xb8, 0x40, 0x9a, 0xbe, 0xb7, 0x65, 0x1b, 0x3c,
  0x26, 0xee, 0xa7, 0x3e, 0x1e, 0x0d, 0x45, 0xbe, 0x79, 0x69, 0x0d, 0x3e,
  0x29, 0x1f, 0xa3, 0x3f, 0x5e, 0x5b, 0x14, 0xbe, 0x5c, 0x4d, 0x8d, 0xbe,
  0x8d, 0xf4, 0xe2, 0x3e, 0xff, 0xc0, 0x3d, 0x3e, 0x5b, 0xc5, 0xf6, 0x3d,
  0x92, 0x99, 0xfe, 0x3c, 0xa9, 0x17, 0x56, 0x3c, 0x80, 0xbe, 0x97, 0x3d,
  0x0d, 0x95, 0xbd, 0xbd, 0x88, 0x24, 0x5d, 0x3b, 0x00, 0x25, 0x23, 0x3e,
  0xb0, 0x42, 0x93, 0xbe, 0x63, 0xa4, 0x87, 0x3e, 0x46, 0x0a, 0x80, 0x3d,
  0x8a, 0x60, 0x14, 0xbf, 0xb2, 0x36, 0x31, 0xb9, 0x1f, 0xc1, 0x59, 0x3e,
  0x13, 0xd4, 0x53, 0xbf, 0x19, 0xdd, 0xac, 0xbc, 0x81, 0x3d, 0xde, 0xbe,
  0xe9, 0x90, 0x7d, 0x3f, 0x28, 0xd1, 0xb5, 0x3e, 0x52, 0x06, 0x58, 0xbe,
  0xd1, 0xcd, 0xc5, 0x3e, 0xb3, 0xe2, 0x0b, 0xbd, 0x0a, 0xc1, 0xfb, 0xbe,
  0xf9, 0xc4, 0x40, 0x3e, 0x0a, 0x08, 0xa9, 0xbb, 0x3d, 0xde, 0x77, 0x3e,
  0x23, 0xfc, 0xd6, 0x3e, 0x1f, 0x0d, 0xed, 0xbc, 0x86, 0x6b, 0xf4, 0xbd,
  0xa9, 0x18, 0x49, 0x3f, 0x31, 0x54, 0x68, 0x3e, 0x14, 0x03, 0xb5, 0x3e,
  0x06, 0x66, 0xb3, 0x3d, 0x6f, 0x36, 0x43, 0x3c, 0xbc, 0x4b, 0xc6, 0x3d,
  0x2e, 0xe8, 0xe0, 0xbe, 0x81, 0x40, 0x1d, 0x3e, 0x98, 0x65, 0x17, 0xbd,
  0x7f, 0x1e, 0x55, 0xbd, 0x67, 0xda, 0x09, 0xbf, 0xed, 0x58, 0x3c, 0x3f,
  0x6a, 0x10, 0xf5, 0xbe, 0xf4, 0x39, 0x24, 0xbf, 0xeb, 0x26, 0xda, 0xbe,
  0x4a, 0x74, 0x92, 0x3e, 0x28, 0x65, 0x97, 0xbd, 0x48, 0xf3, 0x04, 0x3d,
  0x0b, 0x01, 0x0f, 0x3e, 0xae, 0x48, 0x9c, 0xbc, 0xaf, 0x22, 0x2d, 0xbc,
  0xe1, 0xb3, 0x18, 0x3d, 0xb9, 0x0b, 0x82, 0x3e, 0x86, 0x2a, 0x25, 0x3f,
  0x1f, 0x82, 0x76, 0xbc, 0x94, 0xbc, 0xce, 0x3e, 0xb5, 0x2a, 0x1e, 0x3e,
  0x6e, 0x6c, 0x65, 0xbf, 0xc6, 0x33, 0x5b, 0xbe, 0x16, 0x9a, 0xe1, 0xbc,
  0x5e, 0x80, 0x00, 0xc0, 0xce, 0x25, 0x98, 0xbe, 0x08, 0xfe, 0x2f, 0xbf,
  0x5e, 0x31, 0xb6, 0x3e, 0x58, 0xdc, 0xd0, 0x3e, 0x8b, 0xff, 0xca, 0xbd,
  0x24, 0x00, 0x52, 0xbd, 0x06, 0x3e, 0x06, 0x3e, 0x0f, 0xc5, 0xa5, 0x3b,
  0xe0, 0x69, 0x04, 0xbf, 0xb0, 0x21, 0x49, 0x3e, 0x60, 0x8f, 0x85, 0x3e,
  0x0e, 0x6e, 0xf0, 0xbe, 0xf2, 0xa2, 0x87, 0xbd, 0xc5, 0x22, 0xbb, 0x3d,
  0x3c, 0x42, 0xb3, 0xbd, 0x10, 0xaf, 0xc2, 0xbd, 0xda, 0x40, 0x78, 0x3d,
  0x32, 0xbd, 0x7f, 0x3f, 0x97, 0xf3, 0x93, 0x3d, 0x8a, 0x2f, 0x17, 0xba,
  0x59, 0xf8, 0xcd, 0xbd, 0xb3, 0x84, 0xd4, 0x3e, 0x0d, 0x2e, 0x96, 0x3e,
  0xa4, 0x16, 0x1d, 0xbe, 0xa0, 0x44, 0xab, 0xbd, 0x48, 0x82, 0x29, 0x3e,
  0xe1, 0x7c, 0x35, 0xbd, 0x08, 0x1c, 0xe0, 0xbe, 0xc1, 0x5e, 0xc7, 0xbd,
  0xbf, 0x7d, 0x74, 0x3e, 0xb9, 0x86, 0x83, 0xbe, 0xbb, 0x54, 0x18, 0x3e,
  0x37, 0xb4, 0xc7, 0x3e, 0x06, 0x91, 0xd6, 0x3e, 0x81, 0xc2, 0xdf, 0xbd,
  0x09, 0x4c, 0xb6, 0x3d, 0xd1, 0xb5, 0x19, 0xbe, 0x58, 0xf7, 0xa6, 0xbe,
  0xf3, 0xfc, 0x50, 0x3c, 0x92, 0x11, 0x0a, 0xbe, 0x5f, 0xfc, 0x32, 0x3f,
  0x8e, 0x0b, 0xbe, 0x3f, 0x9b, 0xf1, 0x1e, 0xbf, 0x93, 0xc3, 0x1c, 0x3e,
  0x79, 0x7f, 0x6d, 0xbf, 0xa2, 0x9b, 0x14, 0xbe, 0x95, 0xa3, 0x6f, 0x3d,
  0xde, 0x00, 0x0a, 0x3f, 0x6b, 0x59, 0x6b, 0xbd, 0x57, 0x92, 0x5e, 0xbb,
  0x1a, 0xa1, 0x50, 0xbe, 0x09, 0xff, 0x13, 0x3d, 0x7e, 0xf7, 0x04, 0xbd,
  0x2c, 0x04, 0xa0, 0xbe, 0x4f, 0x0e, 0x95, 0x3d, 0xd9, 0xa0, 0x2a, 0x3f,
  0xca, 0xd2, 0x8e, 0xbf, 0x22, 0x67, 0x92, 0xbe, 0x99, 0x85, 0x8f, 0xbe,
  0x20, 0xe0, 0xc3, 0x3f, 0xab, 0x6d, 0x59, 0x3e, 0x77, 0x52, 0x81, 0x3e,
  0x40, 0xd4, 0x1f, 0x3e, 0x47, 0x31, 0x7b, 0x3e, 0x05, 0x2b, 0x31, 0xb8,
  0x97, 0x06, 0xd1, 0x3c, 0x46, 0x19, 0x1c, 0x3f, 0x7c, 0x1b, 0xf7, 0xbe,
  0xf2, 0xbd, 0xda, 0xbe, 0xaa, 0x5e, 0xf5, 0x3e, 0xe0, 0x71, 0x5f, 0xbd,
  0x95, 0x2d, 0x91, 0xbd, 0xde, 0xf6, 0x18, 0xbe, 0x6f, 0x2d, 0xf2, 0x3d,
  0x1d, 0xe7, 0xa7, 0xbe, 0x86, 0x6d, 0x52, 0xbd, 0xe5, 0xfd, 0x39, 0xbe,
  0xd4, 0x26, 0x8b, 0x3e, 0x86, 0x6c, 0xd9, 0x3d, 0xbd, 0xb5, 0x08, 0x3e,
  0xd1, 0x9d, 0x94, 0x3c, 0x0e, 0xd7, 0xec, 0x3d, 0x1f, 0xaf, 0xd3, 0xbe,
  0x2a, 0x31, 0xd3, 0xbe, 0x73, 0x10, 0x3e, 0xbd, 0xad, 0xa1, 0xa2, 0x3e,
  0x09, 0xbd, 0x51, 0xbd, 0x29, 0x47, 0xca, 0xbe, 0xed, 0x3f, 0x04, 0x3d,
  0x3a, 0xbe, 0x8d, 0x3f, 0x6c, 0x64, 0xae, 0xbd, 0xed, 0x6a, 0x44, 0x3d,
  0xae, 0x09, 0x77, 0x3f, 0x38, 0x91, 0x35, 0xbe, 0x4a, 0x54, 0xea, 0xbe,
  0x05, 0xaa, 0x3d, 0x3e, 0xd3, 0x83, 0xdb, 0xbe, 0x0c, 0x26, 0x0e, 0x3e,
  0x05, 0x6a, 0xf4, 0x3d, 0x4d, 0xd6, 0x02, 0x3d, 0xaf, 0x1e, 0xd7, 0xbe,
  0x3e, 0x75, 0x3d, 0x3f, 0x8f, 0x43, 0x8f, 0x3e, 0xcc, 0x02, 0x50, 0xbe,
  0x3d, 0x31, 0xa3, 0xbf, 0x01, 0x29, 0xa3, 0x3e, 0x76, 0xb8, 0x8f, 0x3d,
  0x97, 0x4e, 0x51, 0x3e, 0x92, 0xf0, 0xad, 0x3e, 0x41, 0x34, 0x7e, 0xbe,
  0xc3, 0x9c, 0x17, 0xbd, 0x4f, 0xb5, 0x54, 0x3e, 0xf3, 0xcf, 0x8e, 0xbe,
  0x5c, 0x24, 0x16, 0x3b, 0xaf, 0x11, 0x21, 0x3e, 0x45, 0x56, 0xe0, 0xbb,
  0xbc, 0x95, 0xce, 0xbe, 0x29, 0x97, 0x5e, 0xbe, 0xe6, 0x00, 0x08, 0x3e,
  0x3d, 0x64, 0xb2, 0x3e, 0xf1, 0x90, 0x98, 0xbe, 0x8c, 0x07, 0x9e, 0x3e,
  0x8d, 0x0a, 0x2a, 0x3e, 0x15, 0x1f, 0x82, 0xbd, 0xcd, 0xa1, 0x97, 0xbd,
  0x64, 0xba, 0x10, 0x3f, 0x84, 0xa6, 0x5d, 0x3e, 0x52, 0x8d, 0xea, 0xbe,
  0x6c, 0xf8, 0x2c, 0xbf, 0xf6, 0x84, 0x99, 0xbe, 0x55, 0x37, 0x98, 0x3e,
  0xc3, 0x3c, 0x90, 0x3e, 0x69, 0x21, 0xad, 0xbe, 0x93, 0x64, 0x8d, 0xbd,
  0x4b, 0x82, 0xa1, 0xbf, 0x15, 0x72, 0x00, 0x3d, 0x0f, 0x94, 0x17, 0xbe,
  0x2d, 0x74, 0xc0, 0x3d, 0x58, 0x23, 0x3c, 0xbd, 0x21, 0xef, 0x4b, 0x3e,
  0xeb, 0xa1, 0x63, 0x3d, 0x9c, 0xee, 0x11, 0x3f, 0x97, 0x16, 0x47, 0x3e,
  0x31, 0x52, 0x77, 0xbe, 0x2a, 0xe3, 0xa6, 0xbe, 0x63, 0xfd, 0x9c, 0xbd,
  0x7e, 0x68, 0xb9, 0x3f, 0x9a, 0x03, 0xe1, 0xbe, 0x0d, 0x26, 0x8c, 0x3d,
  0x9b, 0x4f, 0x1d, 0xbf, 0xa7, 0x22, 0x91, 0x3e, 0xe8, 0x23, 0x2b, 0xbe,
  0xf7, 0x5c, 0x67, 0x3e, 0x46, 0x31, 0x78, 0xbd, 0xe5, 0x51, 0xbd, 0x3b,
  0x8f, 0xe5, 0x04, 0xbd, 0xf4, 0x79, 0x17, 0xbd, 0xee, 0x9f, 0x40, 0xbf,
  0xfa, 0x94, 0x59, 0xbe, 0x18, 0x00, 0x7b, 0xbd, 0x12, 0x1c, 0xa8, 0xbe,
  0x28, 0xf4, 0xc1, 0x3c, 0x08, 0x35, 0xfb, 0xbd, 0x7f, 0x0b, 0x56, 0xbd,
  0x0c, 0x19, 0x92, 0xbf, 0x70, 0xcd, 0x5c, 0x3d, 0xdb, 0xfd, 0x1d, 0xbe,
  0xed, 0x95, 0x96, 0xbe, 0x66, 0x82, 0x48, 0x3e, 0xfa, 0x13, 0x36, 0x3e,
  0xf6, 0x77, 0xb9, 0xbc, 0x49, 0xda, 0x92, 0xbe, 0x77, 0xcb, 0x37, 0x3e,
  0x40, 0x49, 0x20, 0x3f, 0x14, 0x3c, 0x4e, 0xbe, 0x50, 0x03, 0x53, 0x3f,
  0x84, 0x42, 0x03, 0x3f, 0x6d, 0xde, 0x3e, 0xbf, 0x50, 0x69, 0x55, 0xbe,
  0x32, 0x16, 0x34, 0x3c, 0xfc, 0x53, 0xe0, 0x3c, 0x46, 0x20, 0x0f, 0x3c,
  0x35, 0x35, 0xfb, 0x3e, 0x6c, 0x89, 0x43, 0x3e, 0x95, 0x5a, 0x5b, 0x3d,
  0x82, 0xc0, 0x0d, 0xbe, 0xcd, 0x30, 0x3f, 0xbe, 0x65, 0x9a, 0x9d, 0x3d,
  0x70, 0xea, 0x10, 0x3f, 0x33, 0x98, 0xdd, 0xbe, 0xe2, 0x5e, 0xcb, 0xbd,
  0xe9, 0x44, 0x51, 0xbe, 0xf4, 0x05, 0xdc, 0x3e, 0x31, 0xaf, 0xc1, 0xbe,
  0x59, 0xbf, 0x6f, 0xbe, 0xc0, 0xb8, 0x38, 0x3e, 0x0b, 0x9f, 0x15, 0xbe,
  0xba, 0xa1, 0xb8, 0xbe, 0xbe, 0xb1, 0x8d, 0xbc, 0x7b, 0x15, 0x5e, 0x3e,
  0xde, 0x0a, 0x6f, 0x3e, 0x4d, 0xdd, 0x32, 0xbe, 0x07, 0x50, 0x22, 0x3f,
  0x2f, 0x2c, 0x35, 0x3e, 0xf3, 0xad, 0x41, 0x3e, 0xfa, 0xab, 0x83, 0xbe,
  0x10, 0x9f, 0x83, 0x3d, 0x55, 0x53, 0x9c, 0x3e, 0xfc, 0xc2, 0x92, 0x3e,
  0x7e, 0xa3, 0x0d, 0x3f, 0x3d, 0xf9, 0x77, 0xbe, 0x53, 0xc5, 0x52, 0x3e,
  0xb5, 0x24, 0x2d, 0x3e, 0xb7, 0xd2, 0x35, 0xbe, 0x9a, 0x18, 0x1a, 0x3d,
  0xae, 0xca, 0x84, 0xbe, 0xd5, 0x23, 0xad, 0x3e, 0x8b, 0xea, 0x34, 0xbf,
  0xb8, 0x35, 0xb1, 0xbd, 0xa0, 0x73, 0x3a, 0x3d, 0xe1, 0x95, 0x9b, 0x3e,
  0xb4, 0xa4, 0x96, 0xbe, 0xc6, 0xcf, 0x3b, 0xbe, 0x7f, 0x55, 0x43, 0x3e,
  0xed, 0x4c, 0xac, 0x3f, 0x34, 0xb8, 0x8e, 0xbe, 0x67, 0xce, 0xe3, 0x3e,
  0xb9, 0xa3, 0x56, 0x3f, 0x46, 0xa1, 0x83, 0xbc, 0xcc, 0x37, 0xc9, 0xbe,
  0xce, 0x8b, 0x26, 0xbe, 0x50, 0x75, 0x40, 0x3d, 0x64, 0xee, 0x7e, 0xbe,
  0x16, 0x2c, 0xce, 0xbd, 0xf0, 0x58, 0xd7, 0x3d, 0xfc, 0x47, 0x30, 0xbf,
  0x1c, 0xc2, 0x60, 0x3e, 0x6b, 0x47, 0xe9, 0x3e, 0x20, 0x06, 0x73, 0xbe,
  0x71, 0xae, 0x7f, 0x3e, 0xc8, 0x50, 0x43, 0xbc, 0x57, 0xa3, 0x86, 0x3d,
  0x99, 0x7b, 0x3e, 0x3f, 0x8c, 0x22, 0xc7, 0x3c, 0x34, 0x31, 0xca, 0x3d,
  0x9a, 0x4b, 0x43, 0x3e, 0x8f, 0xb8, 0x57, 0x3e, 0xf2, 0xf0, 0x78, 0x3e,
  0x3c, 0x6c, 0x05, 0xbd, 0xdb, 0xfd, 0x63, 0xbd, 0x88, 0x57, 0xa0, 0xbe,
  0x44, 0xa2, 0xad, 0x3e, 0x14, 0x53, 0xb4, 0xbd, 0xd1, 0xda, 0x2b, 0x3e,
  0x73, 0x4a, 0x18, 0x3f, 0xd9, 0x24, 0xa8, 0x3c, 0xbe, 0xe9, 0x77, 0x3d,
  0x9e, 0x45, 0x32, 0xbd, 0x6d, 0xf7, 0xc6, 0xbd, 0x92, 0x9a, 0x32, 0xbd,
  0x9f, 0x87, 0x47, 0xbe, 0x52, 0x5c, 0x01, 0x3e, 0xaa, 0x2e, 0x36, 0xbf,
  0xf2, 0x48, 0x48, 0xbd, 0xfb, 0xb8, 0xba, 0xbd, 0xe4, 0x67, 0x14, 0x3f,
  0x90, 0xbe, 0x81, 0x3e, 0x93, 0xd3, 0x51, 0xbe, 0x6b, 0x42, 0x25, 0xbe,
  0xfc, 0xfe, 0xb8, 0xbe, 0xaa, 0x5e, 0x87, 0xbe, 0xd6, 0x15, 0xdc, 0x3d,
  0xac, 0xab, 0x13, 0x3e, 0x2a, 0xe1, 0x60, 0x3b, 0xad, 0x14, 0x73, 0xbd,
  0x4a, 0x14, 0xe5, 0xbe, 0x25, 0xc7, 0x60, 0xbe, 0xa8, 0xd0, 0x0a, 0x3e,
  0x3d, 0x1e, 0x53, 0xbf, 0x40, 0xf2, 0x19, 0xbe, 0x93, 0x1e, 0xc7, 0xbd,
  0x55, 0x8f, 0x2b, 0x3f, 0xa2, 0x0d, 0x8b, 0x3e, 0x46, 0xd4, 0x29, 0xbb,
  0xb2, 0xec, 0x7c, 0xbe, 0x37, 0xab, 0x90, 0x3e, 0x53, 0x80, 0xcc, 0xbb,
  0x86, 0xff, 0x80, 0x3d, 0x5d, 0x0c, 0x27, 0xbe, 0x69, 0x24, 0x89, 0x3d,
  0x97, 0x20, 0x4d, 0x3c, 0xfa, 0x4e, 0x7a, 0xbf, 0x34, 0xd8, 0x15, 0xbe,
  0xbe, 0x0d, 0x23, 0xbe, 0x31, 0xd1, 0x5d, 0xbc, 0xf9, 0x0d, 0x50, 0x3e,
  0x37, 0x27, 0x4c, 0xbe, 0x64, 0xfd, 0x47, 0xbe, 0x99, 0xa5, 0x76, 0x3d,
  0x3d, 0x32, 0x4e, 0xbe, 0xbc, 0xe1, 0x30, 0x3e, 0x34, 0x54, 0xd9, 0x3c,
  0xe9, 0x70, 0xf8, 0x3c, 0x9f, 0xd0, 0xab, 0x3d, 0x49, 0xf4, 0xb3, 0xbd,
  0x72, 0xe2, 0x52, 0xbc, 0x1e, 0xf5, 0x01, 0x3e, 0x28, 0x92, 0x3d, 0xbd,
  0x88, 0x5b, 0x9f, 0xbe, 0x1b, 0x7a, 0xca, 0x3e, 0x28, 0x70, 0xd6, 0x3e,
  0x8b, 0x33, 0x4a, 0xbe, 0x98, 0xca, 0x99, 0xbe, 0xba, 0xca, 0xd8, 0x3e,
  0xf7, 0xef, 0xae, 0xbe, 0xe0, 0xf5, 0x60, 0xbc, 0xf8, 0xbf, 0xb3, 0xbd,
  0xf0, 0x88, 0xcb, 0x3e, 0x78, 0x18, 0xfd, 0x3b, 0xf5, 0x57, 0x06, 0xbc,
  0x10, 0x4d, 0xc1, 0x3c, 0x13, 0xc1, 0xcb, 0x3a, 0x92, 0x92, 0xc9, 0xbe,
  0x8d, 0x04, 0x9e, 0xbe, 0xd8, 0xe7, 0x1c, 0xbd, 0xa7, 0xce, 0x14, 0xbe,
  0xe9, 0x44, 0xeb, 0xbe, 0x63, 0xd8, 0x9d, 0x3e, 0x8e, 0xfc, 0x2f, 0xbd,
  0x13, 0x15, 0x3e, 0xbf, 0x5d, 0x22, 0x67, 0xbe, 0xcf, 0x40, 0xe8, 0xbe,
  0x6c, 0x59, 0x10, 0x3d, 0x01, 0x01, 0x94, 0x3c, 0x72, 0x22, 0x9d, 0xbd,
  0xc9, 0xfe, 0x60, 0x3d, 0xb9, 0x68, 0xa2, 0x3e, 0x88, 0x0e, 0x61, 0xbf,
  0x4c, 0xfa, 0x28, 0x3e, 0xf3, 0x67, 0xb8, 0xbd, 0xbb, 0x4d, 0xb1, 0x3e,
  0x1a, 0xfe, 0xbe, 0x3c, 0xd1, 0xd2, 0xce, 0xbe, 0x75, 0x4d, 0x43, 0xbd,
  0xfa, 0xd0, 0x95, 0x3d, 0x7e, 0xb5, 0x18, 0x3e, 0x3f, 0x76, 0xc3, 0x3e,
  0xbb, 0xeb, 0x0a, 0x3e, 0x11, 0x4f, 0xba, 0xbd, 0x7d, 0x22, 0xa2, 0x3b,
  0xee, 0xf6, 0xbc, 0xbd, 0x9e, 0xa4, 0x9a, 0xbe, 0x1e, 0xdb, 0xad, 0x3e,
  0x96, 0x39, 0x13, 0xbe, 0x63, 0x12, 0x26, 0x3e, 0x51, 0x26, 0x96, 0xbe,
  0xa1, 0x2a, 0x4d, 0xbe, 0xb7, 0xca, 0x25, 0x3e, 0x3f, 0xcd, 0xbe, 0xbc,
  0x4f, 0x7e, 0xf5, 0xbe, 0x6a, 0x68, 0xc0, 0x3e, 0x0f, 0x0d, 0x97, 0xbe,
  0x03, 0xef, 0x94, 0xbe, 0x6a, 0xc1, 0x01, 0xbe, 0xc1, 0xe4, 0x56, 0xbe,
  0x9c, 0xee, 0x28, 0x3f, 0xed, 0x4f, 0x95, 0xbd, 0x90, 0x30, 0x0b, 0xbf,
  0xc8, 0x3f, 0x21, 0xbf, 0x8f, 0xc4, 0x02, 0xbe, 0xaa, 0x98, 0x4c, 0x3f,
  0xda, 0x50, 0x63, 0xbf, 0x7e, 0x0c, 0x14, 0xbf, 0xef, 0x8d, 0x6a, 0xbe,
  0x7c, 0x4f, 0x39, 0xbd, 0xe0, 0x92, 0x48, 0x3e, 0x6d, 0x55, 0xa7, 0xbe,
  0xcd, 0xb0, 0x1c, 0x3e, 0xe6, 0xc5, 0xb5, 0x3d, 0x8d, 0xa0, 0x0b, 0x3d,
  0xfa, 0x66, 0x11, 0xbe, 0x05, 0xc8, 0x8a, 0x3d, 0x37, 0x26, 0xc1, 0xbf,
  0x3a, 0x56, 0x6d, 0x3c, 0x51, 0x08, 0x6d, 0x3e, 0x24, 0x43, 0x29, 0x3e,
  0xcf, 0x18, 0xdf, 0x3c, 0x2b, 0xe5, 0xf5, 0xbd, 0xc0, 0x8a, 0x0b, 0x3e,
  0x4f, 0xaa, 0xb3, 0x3f, 0x5d, 0xe3, 0x37, 0x3b, 0x47, 0x1c, 0xd0, 0x3e,
  0x34, 0x17, 0x1a, 0x3f, 0xd9, 0x95, 0xcf, 0xbc, 0xac, 0x63, 0xe5, 0xbd,
  0xf3, 0x62, 0x48, 0x3d, 0xd4, 0x13, 0x81, 0x3e, 0xf2, 0xa8, 0xee, 0xbd,
  0x35, 0x8a, 0x09, 0x3d, 0x37, 0x4e, 0x09, 0x3f, 0xaf, 0x3b, 0xbc, 0x3c,
  0x82, 0x83, 0x90, 0x3c, 0x3a, 0x64, 0x88, 0x3d, 0xd1, 0xbd, 0x0d, 0x3f,
  0x5e, 0xa8, 0xc4, 0x3d, 0x43, 0xda, 0x0c, 0xbe, 0xc4, 0xbd, 0xe4, 0xbd,
  0x28, 0x47, 0xf1, 0x3e, 0x95, 0x0e, 0xa5, 0x3d, 0x69, 0x1f, 0x8d, 0xbd,
  0x88, 0x5a, 0x36, 0xbc, 0x51, 0xfa, 0x98, 0x3e, 0x94, 0x6d, 0xa4, 0xbc,
  0x4e, 0xaa, 0x6d, 0xbe, 0x12, 0x26, 0xec, 0xbd, 0x69, 0xc2, 0x79, 0xbf,
  0x76, 0x42, 0x07, 0x40, 0x75, 0xdb, 0x0a, 0x3f, 0x72, 0xbc, 0x5f, 0xbd,
  0xd3, 0xe8, 0x17, 0x3f, 0x50, 0x03, 0x51, 0xbe, 0x27, 0xbc, 0x0b, 0xbe,
  0x64, 0x5b, 0x8e, 0x3e, 0xb7, 0xf1, 0x91, 0x3e, 0x4f, 0x34, 0xe0, 0x3d,
  0x7f, 0x51, 0xbd, 0x3d, 0x25, 0x3b, 0x18, 0x3e, 0x43, 0xf1, 0x8a, 0xbe,
  0xa3, 0xd3, 0x1b, 0xbe, 0x4b, 0x22, 0x77, 0xbe, 0xe3, 0x3b, 0x19, 0x3f,
  0xcb, 0x47, 0x94, 0xbd, 0x49, 0x11, 0x43, 0xbf, 0x38, 0xce, 0x4e, 0xbc,
  0x55, 0x23, 0x09, 0x3e, 0xbe, 0xea, 0xa8, 0xbe, 0x73, 0xcc, 0x8d, 0xbd,
  0xb0, 0x18, 0x29, 0x3e, 0xa8, 0xea, 0xec, 0x3c, 0xd0, 0xea, 0x94, 0xbe,
  0xa5, 0x4c, 0x9c, 0xbe, 0xa2, 0x02, 0xc8, 0x3d, 0x48, 0x4f, 0xd4, 0xbe,
  0x60, 0x01, 0xed, 0xbd, 0x84, 0x57, 0x50, 0xbf, 0xa6, 0x5d, 0x93, 0xbe,
  0x12, 0x40, 0x90, 0xbe, 0x8a, 0x7d, 0x0b, 0xbf, 0xa7, 0x34, 0x00, 0xbf,
  0x99, 0x66, 0x9b, 0xbf, 0x6d, 0x04, 0x00, 0xbd, 0x65, 0x05, 0xb2, 0x3c,
  0x5c, 0xbd, 0x1f, 0xbe, 0x85, 0x4f, 0xdc, 0xbc, 0x24, 0xeb, 0x2f, 0x3d,
  0x2b, 0x82, 0xbb, 0x3d, 0x94, 0xf9, 0xdd, 0x3e, 0x26, 0x24, 0x0f, 0xbf,
  0x08, 0xb2, 0x98, 0x3d, 0x6c, 0xb8, 0x93, 0x3e, 0x07, 0x02, 0x3e, 0xbd,
  0x5e, 0xff, 0xe7, 0xbe, 0x53, 0x77, 0xfb, 0x3e, 0x66, 0x1f, 0x00, 0x3e,
  0x67, 0x97, 0xb9, 0x3e, 0xda, 0x4e, 0x2a, 0xbe, 0x7c, 0x24, 0x68, 0x3e,
  0x84, 0x76, 0x0b, 0x3f, 0x67, 0x2f, 0x44, 0xbc, 0xeb, 0x0e, 0xfc, 0xbd,
  0x83, 0xab, 0xf2, 0xbd, 0x5a, 0xdd, 0xff, 0xff, 0x04, 0x00, 0x00, 0x00,
  0x00, 0x20, 0x00, 0x00, 0x60, 0x90, 0xa0, 0xbe, 0x7a, 0x10, 0x51, 0xbd,
  0xe1, 0x68, 0x53, 0xbc, 0x73, 0xd0, 0x1b, 0xbf, 0xf4, 0x9d, 0x07, 0xbf,
  0x8c, 0x3c, 0x2a, 0xbf, 0xf5, 0xea, 0xc4, 0xbd, 0x2e, 0xd0, 0x94, 0xbd,
  0x86, 0x4f, 0xd4, 0xbe, 0xcf, 0x65, 0x07, 0x3c, 0xb5, 0x8d, 0xca, 0x3e,
  0x76, 0x87, 0xe6, 0xbe, 0xa3, 0xfa, 0x45, 0xbe, 0xdd, 0x0d, 0x06, 0xbe,
  0xe4, 0xa5, 0x0c, 0x3f, 0x6b, 0xa9, 0xba, 0xbd, 0x13, 0x0b, 0xbc, 0x3e,
  0x25, 0x0f, 0x07, 0xbe, 0x08, 0x23, 0x20, 0xbd, 0xba, 0x6e, 0x38, 0xbe,
  0xc6, 0x47, 0x64, 0xbf, 0xba, 0x29, 0x42, 0xbe, 0x6f, 0xdd, 0x41, 0xbe,
  0x01, 0x76, 0xa7, 0x3e, 0x3d, 0xb0, 0x58, 0xbe, 0xdb, 0x9f, 0x9a, 0xbd,
  0xa4, 0x20, 0x92, 0xbd, 0x0f, 0xbb, 0x58, 0x3e, 0xa4, 0xa9, 0xef, 0x3d,
  0xe8, 0x37, 0xdf, 0xbe, 0x82, 0x19, 0x01, 0x3e, 0x30, 0xd2, 0x83, 0xbc,
  0x08, 0x60, 0x8a, 0xbd, 0x2b, 0x7d, 0x38, 0xbd, 0x54, 0xa5, 0x82, 0xbe,
  0xbf, 0x1f, 0x13, 0xbe, 0xbe, 0x51, 0x90, 0xbe, 0xaa, 0x3f, 0x74, 0xbe,
  0x98, 0xf0, 0xf2, 0xbe, 0x49, 0xec, 0x96, 0x3d, 0xa5, 0x6b, 0xdd, 0xbd,
  0xd2, 0x4a, 0x54, 0xbd, 0xd9, 0xb1, 0x86, 0x3e, 0x96, 0x67, 0x8a, 0x3d,
  0xa8, 0x70, 0x4c, 0xbf, 0x65, 0x30, 0xb9, 0x3e, 0xa4, 0x67, 0x71, 0x3d,
  0x5d, 0xc9, 0x99, 0xbe, 0x82, 0xae, 0x0f, 0xbf, 0xc6, 0x4b, 0xa2, 0x3c,
  0x93, 0x24, 0x2d, 0xbe, 0x5b, 0x74, 0x9f, 0xbd, 0xbf, 0x33, 0x04, 0x3e,
  0x66, 0x7d, 0xbc, 0xbc, 0xa8, 0x39, 0xad, 0xbe, 0x8a, 0xe5, 0xe2, 0xbe,
  0xc7, 0x80, 0x41, 0xbd, 0x47, 0x5b, 0xf3, 0xbe, 0x89, 0x38, 0x43, 0x3e,
  0x62, 0x23, 0x08, 0xbf, 0x6c, 0xbd, 0x74, 0xbb, 0xa5, 0xc0, 0x3a, 0xbf,
  0x0a, 0xec, 0xfd, 0xbd, 0xbd, 0xe1, 0x10, 0xbf, 0x75, 0x53, 0x26, 0xbe,
  0xd9, 0xd0, 0xd9, 0xbd, 0xb0, 0xca, 0x30, 0xbe, 0x42, 0x31, 0x35, 0xbd,
  0x1a, 0x10, 0x11, 0x3c, 0xda, 0xbd, 0xff, 0xbb, 0xf9, 0xc3, 0x2f, 0xbe,
  0xa1, 0x99, 0x79, 0xbd, 0xcb, 0xfe, 0x69, 0xbe, 0xa3, 0xca, 0xec, 0xbd,
  0x96, 0xd0, 0xd7, 0xbd, 0x31, 0x37, 0x8c, 0x3d, 0xa8, 0xce, 0x59, 0xbe,
  0x6a, 0xb5, 0x25, 0xbe, 0x02, 0x19, 0x5b, 0xbe, 0xc3, 0x0a, 0x0f, 0x3d,
  0x24, 0x99, 0x88, 0x3d, 0xc7, 0xa8, 0xb6, 0x3c, 0x3f, 0xd1, 0xb4, 0xbd,
  0x63, 0xe6, 0x5b, 0xbd, 0x64, 0xf8, 0xb0, 0xbc, 0xcc, 0x67, 0xb6, 0xbc,
  0x66, 0x62, 0xd6, 0xbc, 0x21, 0x80, 0x61, 0xbe, 0xc5, 0xc0, 0x4c, 0xbe,
  0xfb, 0xa3, 0xdc, 0xbc, 0x4c, 0xdb, 0x35, 0x3c, 0xa4, 0xb4, 0x17, 0xbe,
  0xce, 0xf4, 0xc9, 0x3d, 0xc7, 0xce, 0x22, 0x3d, 0xa7, 0x01, 0xe4, 0xbd,
  0x9b, 0xab, 0xee, 0x3b, 0x19, 0xe4, 0x50, 0xbe, 0x04, 0x57, 0x20, 0x3d,
  0x04, 0xb6, 0x94, 0xbd, 0xe1, 0x90, 0x79, 0x3e, 0x50, 0xc1, 0x91, 0xbc,
  0x8d, 0x91, 0x81, 0xbd, 0x39, 0x58, 0x9e, 0x3d, 0xcf, 0xb5, 0xcc, 0x3b,
  0xc1, 0x60, 0xe0, 0xbd, 0xd0, 0xae, 0x1c, 0x3e, 0xae, 0x94, 0x71, 0x3c,
  0x95, 0xfd, 0x6a, 0x3d, 0x3c, 0xb8, 0x7a, 0xbd, 0x2a, 0x86, 0x4b, 0xbe,
  0x5b, 0x3d, 0x42, 0xbe, 0x95, 0xf3, 0xa2, 0xbe, 0x63, 0xfd, 0xf1, 0xbd,
  0x52, 0x4b, 0xf7, 0x3c, 0x3f, 0x31, 0xe3, 0x3c, 0xe3, 0xcb, 0xcd, 0xbd,
  0xf5, 0xfe, 0x50, 0xbd, 0xae, 0x20, 0xef, 0xbd, 0xd3, 0xd7, 0x37, 0x3d,
  0x5c, 0x4a, 0xfa, 0xbd, 0x71, 0x83, 0x9a, 0xbd, 0xe4, 0x6e, 0x75, 0xbe,
  0x81, 0x7a, 0x92, 0xbe, 0x80, 0x25, 0xc1, 0xbd, 0xf9, 0x62, 0x9c, 0xbd,
  0xf8, 0x59, 0xcf, 0xbb, 0xb5, 0x10, 0xa0, 0xbe, 0x50, 0x35, 0x89, 0xbd,
  0x4e, 0x9c, 0xa4, 0x3e, 0xdf, 0x2f, 0x28, 0xbe, 0x8a, 0x0c, 0x5a, 0x3d,
  0xed, 0xf0, 0xbf, 0xbc, 0xfd, 0x00, 0xb4, 0x3e, 0xd6, 0x0f, 0x89, 0xbe,
  0xa2, 0xdc, 0xf2, 0x3d, 0xb8, 0x24, 0xf2, 0xbd, 0x8a, 0xd9, 0xab, 0xbe,
  0x3f, 0x60, 0x29, 0x3e, 0xf3, 0x01, 0xd3, 0xbe, 0x3f, 0x26, 0x0c, 0xbf,
  0xff, 0x1f, 0x41, 0xbe, 0x24, 0xbc, 0x83, 0xbd, 0xd7, 0xe4, 0x6e, 0x3e,
  0xc8, 0xac, 0xf0, 0xbc, 0x7d, 0x78, 0xb7, 0xbc, 0x52, 0xa2, 0x9f, 0xbe,
  0xc8, 0xdf, 0xca, 0xbd, 0xcc, 0xdb, 0x4b, 0xbd, 0xdf, 0xe0, 0xd4, 0xbd,
  0xe1, 0x9a, 0xc5, 0x3d, 0x8b, 0x7b, 0xfd, 0x3d, 0xb0, 0x6a, 0xd8, 0xbd,
  0xb0, 0xad, 0x18, 0xbe, 0x65, 0x92, 0x80, 0x3d, 0x0b, 0xe4, 0x97, 0x3e,
  0xb5, 0x71, 0xfc, 0xbe, 0xe6, 0x7f, 0x06, 0xbe, 0x99, 0x8f, 0x8d, 0x3e,
  0xf9, 0x67, 0x81, 0x3c, 0xca, 0x99, 0x8d, 0xbe, 0xa5, 0xc1, 0xbe, 0xbd,
  0x43, 0x2a, 0x18, 0xbe, 0xa6, 0xe9, 0xe0, 0xbc, 0xe0, 0x10, 0x95, 0x3e,
  0x6a, 0x67, 0x09, 0x3e, 0xb6, 0xca, 0xbc, 0xbe, 0xb0, 0x04, 0xca, 0x3c,
  0x31, 0xf3, 0x68, 0x3e, 0x7a, 0xd9, 0xcf, 0xbd, 0x2c, 0x10, 0x0c, 0xbb,
  0x9e, 0x36, 0xe6, 0x3e, 0x43, 0x78, 0x68, 0x3d, 0x6e, 0x39, 0xb2, 0xbe,
  0x91, 0x85, 0x54, 0xbe, 0x15, 0xc0, 0x9f, 0x3a, 0x04, 0x33, 0x4a, 0x3e,
  0x20, 0xf0, 0x18, 0x3e, 0xa6, 0x5c, 0x8a, 0x3c, 0xb8, 0xbc, 0xba, 0xbc,
  0x44, 0x7f, 0xba, 0x3c, 0xaf, 0x42, 0x24, 0xbe, 0xc3, 0x34, 0x7a, 0xbf,
  0x1c, 0x6d, 0xba, 0xbd, 0x05, 0x00, 0x61, 0xbe, 0x77, 0x9e, 0x10, 0xbf,
  0x41, 0xf7, 0x39, 0xbd, 0x51, 0xfb, 0x71, 0xbe, 0x2e, 0x96, 0xe9, 0xbe,
  0xc3, 0x15, 0x7c, 0x3e, 0xfc, 0x53, 0xb2, 0x3e, 0xf0, 0x78, 0xb4, 0x3d,
  0x5a, 0x65, 0x89, 0xbe, 0x22, 0xd4, 0x89, 0xbe, 0xba, 0x0b, 0x07, 0xbe,
  0x97, 0xd5, 0x42, 0xbe, 0x81, 0xd2, 0xb9, 0xbe, 0x77, 0x0f, 0x14, 0xbe,
  0x18, 0xb2, 0x7f, 0x3d, 0x43, 0x4b, 0x30, 0xbf, 0x28, 0xba, 0x8d, 0xbc,
  0xa6, 0x2c, 0x24, 0xbe, 0x85, 0x49, 0xff, 0xbc, 0x60, 0xb7, 0x0e, 0xbc,
  0x58, 0x5e, 0xf3, 0xbd, 0xe7, 0xbd, 0x34, 0xbe, 0xae, 0x90, 0xc8, 0x3d,
  0x64, 0x1c, 0xa3, 0x3d, 0xcf, 0x17, 0x14, 0x3e, 0xbf, 0xac, 0x6f, 0xbe,
  0xdf, 0xed, 0x2b, 0xbe, 0xdd, 0x85, 0x27, 0x3e, 0x42, 0xf8, 0xfb, 0x3d,
  0x3d, 0xa7, 0x7f, 0x3d, 0x1c, 0x22, 0x1b, 0x3d, 0x9c, 0xd6, 0x6d, 0xbd,
  0x55, 0xc8, 0x85, 0xbe, 0xd6, 0xa9, 0x05, 0xbf, 0x60, 0x4b, 0x2d, 0xbe,
  0x39, 0xdf, 0x84, 0xbe, 0xa0, 0x06, 0x35, 0x3e, 0xbf, 0x3b, 0x5a, 0x3d,
  0xd9, 0xac, 0xab, 0xbe, 0x5f, 0x77, 0xfe, 0xbd, 0x73, 0x06, 0x57, 0x3e,
  0x3c, 0x6c, 0xba, 0xbe, 0x7c, 0x0c, 0x99, 0xbe, 0x47, 0xb8, 0xad, 0xbe,
  0x65, 0xf3, 0xea, 0xbd, 0x99, 0x74, 0x6b, 0xbe, 0xf6, 0xb1, 0xa4, 0xbe,
  0x72, 0xe5, 0x8b, 0xbe, 0x16, 0xea, 0x7f, 0xbe, 0x9d, 0xe2, 0xb7, 0x3d,
  0x61, 0x5e, 0x50, 0xbe, 0xd6, 0x2e, 0xf6, 0xbd, 0xc4, 0xc6, 0x00, 0xbe,
  0x28, 0x51, 0x2b, 0xbf, 0xff, 0x4e, 0xe2, 0x3d, 0x9d, 0x66, 0x89, 0x3d,
  0x7f, 0x21, 0x42, 0x3e, 0xe8, 0x6b, 0xb5, 0xbd, 0x1c, 0xa9, 0x3d, 0xbc,
  0xd1, 0x73, 0x44, 0xbd, 0xb8, 0xde, 0x96, 0xbd, 0x35, 0x8f, 0x5a, 0x3d,
  0x87, 0x10, 0x06, 0xbe, 0x97, 0xda, 0x51, 0x3b, 0xbf, 0x6f, 0xa0, 0x3e,
  0x79, 0x93, 0x9a, 0xbe, 0xc5, 0x6c, 0xf4, 0xbe, 0x08, 0x9b, 0xb5, 0x3d,
  0x80, 0xe6, 0xf0, 0xbd, 0x16, 0x93, 0x5b, 0xbe, 0x73, 0xb0, 0xae, 0xbd,
  0x89, 0x73, 0xaf, 0x3d, 0xa6, 0x74, 0x19, 0x3e, 0xb9, 0x1e, 0x0e, 0x3d,
  0xcc, 0x5e, 0x9e, 0xbe, 0xde, 0xb6, 0x10, 0xbe, 0x92, 0x27, 0xaa, 0x3e,
  0x5d, 0x4d, 0x8d, 0x3e, 0xd9, 0x63, 0xb9, 0x3e, 0xc9, 0x68, 0x67, 0x3d,
  0xb7, 0x2d, 0x84, 0x3e, 0x28, 0x5f, 0xa4, 0x3e, 0xfb, 0x15, 0xe7, 0xbe,
  0x96, 0x89, 0x87, 0x3d, 0xec, 0x9b, 0x62, 0x3e, 0x91, 0x0d, 0xc4, 0xbe,
  0x8c, 0x0c, 0x6c, 0x3e, 0x7b, 0x55, 0x29, 0xbe, 0x3f, 0xb7, 0x29, 0x3e,
  0xb5, 0xfe, 0x4b, 0xbe, 0x0c, 0xda, 0x02, 0xbe, 0x7f, 0x18, 0x1a, 0xbf,
  0x23, 0x5c, 0xe3, 0x3e, 0xa0, 0x83, 0xc1, 0x3e, 0xee, 0xee, 0x71, 0xbe,
  0xb7, 0x6b, 0x3e, 0x3e, 0x1c, 0xf4, 0x0f, 0x3e, 0x1a, 0xac, 0xa0, 0xbd,
  0xf7, 0xb0, 0x17, 0xbe, 0x72, 0x9f, 0x0d, 0x3e, 0x50, 0x44, 0x27, 0xbf,
  0x3e, 0x8e, 0x57, 0xbf, 0xa0, 0x40, 0xbd, 0x3d, 0x7e, 0xdb, 0x95, 0xbc,
  0x9e, 0x94, 0x46, 0x3f, 0xf0, 0x64, 0x22, 0xbe, 0x15, 0x8d, 0x51, 0xbe,
  0xf4, 0x61, 0x0c, 0x3e, 0x35, 0x13, 0x5b, 0x3e, 0xba, 0x3e, 0xae, 0xbd,
  0xfa, 0xa0, 0xa5, 0x3e, 0x1e, 0x7f, 0x8f, 0x3d, 0xb8, 0xbb, 0x20, 0xbe,
  0xa0, 0x0c, 0x76, 0xbd, 0xdd, 0xc7, 0xd5, 0x3e, 0x2e, 0xd4, 0x9c, 0xbe,
  0xc2, 0xb4, 0xe2, 0xbe, 0xa8, 0x02, 0xf8, 0x3d, 0xe5, 0xf8, 0x87, 0xbf,
  0x05, 0xff, 0x3c, 0xbe, 0x4f, 0x14, 0x35, 0x3d, 0x77, 0xc0, 0x04, 0x3c,
  0x0c, 0xb9, 0xe2, 0x3c, 0x78, 0xdd, 0xf6, 0x3d, 0xa1, 0x7e, 0x68, 0xbe,
  0x8f, 0xbd, 0xe5, 0xbe, 0x56, 0x64, 0xd4, 0x3e, 0x5d, 0x3c, 0x1d, 0xbe,
  0x2f, 0xf7, 0xa5, 0xbe, 0x6a, 0x94, 0xa2, 0xbc, 0x98, 0x17, 0x1b, 0x3f,
  0x51, 0xf5, 0x21, 0xbf, 0xfa, 0xfa, 0xe5, 0x3e, 0x90, 0x5a, 0x8c, 0x3c,
  0xaf, 0xad, 0x8b, 0xbd, 0xa8, 0xfd, 0x82, 0x3e, 0x0a, 0x42, 0x2d, 0x3e,
  0xc0, 0xf2, 0x63, 0xbc, 0x7c, 0x86, 0x18, 0xbe, 0x29, 0x09, 0xa0, 0xbd,
  0xc8, 0x5a, 0x96, 0xbe, 0xdb, 0xd7, 0x83, 0x3e, 0x3d, 0x74, 0xf0, 0xbe,
  0xc5, 0xf6, 0x8a, 0xbe, 0xa4, 0x60, 0xc9, 0xbe, 0x11, 0xc8, 0x12, 0xbf,
  0xa1, 0xd5, 0x37, 0x3e, 0x3a, 0xaa, 0xcb, 0xbe, 0xe9, 0x83, 0x5c, 0xbe,
  0x83, 0x66, 0x2c, 0xbd, 0xe7, 0x2e, 0x2a, 0x3d, 0x3b, 0x87, 0x3d, 0x3e,
  0xf7, 0x6e, 0xb4, 0xbd, 0x32, 0x00, 0x9d, 0xbe, 0x0d, 0x2b, 0x59, 0xbe,
  0x85, 0x52, 0x7e, 0x3e, 0x0b, 0x20, 0xa0, 0x3a, 0xce, 0x12, 0x30, 0xbf,
  0xac, 0xb3, 0xb0, 0x3d, 0xb9, 0x9f, 0x61, 0x3e, 0x63, 0x4e, 0x21, 0x3e,
  0x82, 0x67, 0x88, 0x3c, 0x78, 0x05, 0x8b, 0x3c, 0x0c, 0x36, 0xc0, 0x3e,
  0x4f, 0xb3, 0x68, 0x3e, 0x2b, 0x41, 0x5c, 0xbd, 0xc4, 0x05, 0x18, 0xbf,
  0xf6, 0x14, 0x81, 0x3e, 0x87, 0x5c, 0xe6, 0x3c, 0x88, 0xff, 0x91, 0xbe,
  0x76, 0x10, 0x0d, 0xbe, 0x7c, 0x80, 0xc6, 0x3e, 0x50, 0x24, 0x6e, 0xbe,
  0xc6, 0x83, 0x8d, 0x3e, 0xe8, 0xc4, 0x2a, 0xbe, 0x2e, 0xd1, 0x81, 0xbd,
  0xd8, 0x6f, 0xe9, 0xbe, 0x03, 0x63, 0xcb, 0xbd, 0x34, 0xbe, 0x45, 0xbd,
  0x77, 0xac, 0xd2, 0xbc, 0x05, 0x9f, 0x5d, 0x3e, 0xa9, 0x0d, 0x3f, 0xbf,
  0x43, 0x26, 0xb0, 0x3d, 0xe1, 0x86, 0xb0, 0xbd, 0xbb, 0x68, 0xf6, 0x3a,
  0xc8, 0xf4, 0xd2, 0xbd, 0x52, 0xeb, 0x6e, 0x3d, 0xbe, 0xad, 0xf7, 0x3c,
  0xf1, 0x30, 0x62, 0x3e, 0xcf, 0x53, 0x1e, 0xbe, 0x2a, 0xf8, 0xb6, 0xbf,
  0xbf, 0x36, 0x5f, 0x3e, 0x10, 0xa0, 0x67, 0xbd, 0x96, 0x77, 0xe1, 0xbd,
  0xb6, 0xc0, 0x8c, 0xbe, 0x99, 0xf8, 0xd0, 0xbc, 0x2e, 0x4b, 0x9c, 0xbf,
  0x10, 0xb0, 0x07, 0xbf, 0xdc, 0x40, 0x38, 0xbf, 0x3e, 0x00, 0x5b, 0xbe,
  0x5a, 0xad, 0x03, 0xbe, 0x27, 0x7b, 0x83, 0xbd, 0x4c, 0xab, 0x69, 0xbd,
  0xb2, 0x71, 0x5e, 0xbe, 0xc8, 0x50, 0xbb, 0x3c, 0xbb, 0xa9, 0xb8, 0xbd,
  0x9c, 0x7c, 0x04, 0xbe, 0xa0, 0x18, 0xa6, 0xbd, 0x46, 0x8a, 0x14, 0xbe,
  0x97, 0x4a, 0x49, 0xbe, 0x5c, 0x83, 0x28, 0xbe, 0xe8, 0xe3, 0x07, 0xbe,
  0x46, 0xca, 0x6a, 0x3b, 0x83, 0x79, 0x8b, 0xbd, 0x0e, 0xc3, 0xfc, 0xbd,
  0xd2, 0x38, 0x2d, 0xbe, 0xd7, 0xc8, 0x5b, 0xbd, 0x11, 0xa9, 0x70, 0xbc,
  0xc7, 0x9b, 0x44, 0xbb, 0xa1, 0x8a, 0xb6, 0xbd, 0x97, 0x75, 0x18, 0xbe,
  0xe6, 0x8e, 0x96, 0xbd, 0x79, 0xf3, 0x84, 0xbd, 0xa4, 0x86, 0xb9, 0xbb,
  0x54, 0xed, 0x0d, 0xbe, 0xac, 0xd0, 0xbd, 0xbd, 0x4b, 0x78, 0x0b, 0xbd,
  0x5b, 0xa2, 0xab, 0x3d, 0x8b, 0xb4, 0x0a, 0xbe, 0x0c, 0xcf, 0xca, 0xbd,
  0x5e, 0xe8, 0x0e, 0xbd, 0x46, 0xd1, 0x7d, 0xbd, 0x47, 0x18, 0xbe, 0x3a,
  0xf6, 0x7f, 0x9c, 0xbd, 0x23, 0xca, 0x13, 0xbe, 0xe3, 0x56, 0x17, 0xbd,
  0x84, 0xb9, 0x5e, 0xbd, 0x11, 0xed, 0xfc, 0x3a, 0x90, 0xa7, 0x2d, 0x3c,
  0x37, 0x6b, 0x12, 0xbe, 0xb8, 0xf1, 0xf6, 0x3c, 0x4b, 0xde, 0x04, 0xbe,
  0x88, 0xa2, 0x87, 0xbb, 0xa9, 0x9e, 0x9f, 0xbb, 0xd7, 0x52, 0x84, 0xbd,
  0x66, 0x94, 0xde, 0x3c, 0x2e, 0xea, 0x17, 0xbc, 0x1d, 0xdb, 0x23, 0xbd,
  0xf3, 0x98, 0xbd, 0xbd, 0x6e, 0x74, 0x46, 0xbe, 0x26, 0x9c, 0x49, 0x3d,
  0xd6, 0x1a, 0x5b, 0xbd, 0x38, 0xc4, 0xe0, 0xbc, 0x37, 0x3c, 0xdc, 0xbd,
  0xe7, 0xd8, 0x4e, 0xbe, 0xb5, 0x18, 0x42, 0xbe, 0xf9, 0xd1, 0x22, 0xbe,
  0x53, 0xd3, 0xb9, 0x3c, 0x40, 0x86, 0x06, 0x3d, 0x6d, 0xbf, 0xae, 0x3b,
  0xe6, 0x1a, 0x4c, 0x3c, 0x7e, 0x60, 0x1e, 0xbb, 0x6e, 0x40, 0xba, 0xbd,
  0x76, 0x0b, 0x25, 0xbc, 0xfe, 0x7d, 0x76, 0xbd, 0xcc, 0x27, 0xb3, 0x3e,
  0xed, 0xde, 0x7d, 0xbd, 0x65, 0xf5, 0xf4, 0xbd, 0xec, 0x2e, 0x90, 0x3d,
  0x05, 0x3f, 0xec, 0xbe, 0xdf, 0x34, 0x9a, 0xbe, 0x41, 0xef, 0x12, 0xbf,
  0xce, 0xf0, 0xfa, 0xbe, 0xe4, 0x9e, 0xb4, 0xbe, 0xbb, 0x91, 0x26, 0x3e,
  0xf8, 0xdf, 0xde, 0x3d, 0x75, 0x76, 0x81, 0xbe, 0x61, 0x8e, 0xdc, 0xbc,
  0x08, 0x9c, 0x51, 0xbf, 0xdc, 0x69, 0x26, 0x3b, 0xce, 0x87, 0x0d, 0xbf,
  0x47, 0x30, 0xcf, 0xbe, 0xa1, 0x69, 0x45, 0xbf, 0xeb, 0xa2, 0xc3, 0x3d,
  0x3d, 0x2c, 0xbb, 0xbe, 0xb9, 0x56, 0xbb, 0xbd, 0x91, 0xb2, 0xb5, 0xbd,
  0x44, 0xeb, 0x49, 0xbf, 0x0c, 0x48, 0x03, 0xbd, 0x40, 0x7a, 0xb8, 0x3d,
  0x02, 0x7f, 0x01, 0xbf, 0xcf, 0xfc, 0x63, 0x3e, 0xd6, 0x5a, 0x8e, 0xbd,
  0x22, 0xb0, 0x98, 0xbe, 0xc8, 0x69, 0x1d, 0xbf, 0x2a, 0xd8, 0x25, 0x3e,
  0x10, 0x25, 0x3b, 0xbe, 0xf4, 0x6c, 0xef, 0xbe, 0x9e, 0xd7, 0xc4, 0xbb,
  0x5d, 0xad, 0xea, 0x3e, 0x4e, 0x0b, 0x21, 0xbf, 0x94, 0x7a, 0xe5, 0x3e,
  0x04, 0x94, 0x05, 0xbe, 0xfe, 0x81, 0xb3, 0xbe, 0x5b, 0xd7, 0x2c, 0xbf,
  0xb8, 0xbc, 0xa7, 0xbe, 0x19, 0x7a, 0xd0, 0xbe, 0x72, 0xa5, 0x4e, 0xbf,
  0xdf, 0xd1, 0xad, 0xbd, 0x6a, 0xcb, 0x37, 0x3e, 0xa2, 0x30, 0xde, 0xbe,
  0xb8, 0x11, 0xc0, 0xbe, 0xfb, 0xf7, 0x49, 0x3e, 0x5d, 0xb8, 0xfe, 0xbd,
  0xb9, 0xdf, 0x36, 0xbf, 0x31, 0xf7, 0xc0, 0xbb, 0x22, 0x72, 0x91, 0xbe,
  0x0e, 0x60, 0x71, 0xbe, 0x35, 0x1f, 0xd3, 0xbe, 0x1a, 0x2c, 0x97, 0xbd,
  0x9d, 0x1e, 0x45, 0xbe, 0xf0, 0x4a, 0x49, 0xbf, 0x78, 0x75, 0x88, 0x3e,
  0x13, 0xe0, 0x93, 0x3d, 0xe0, 0xd9, 0x4f, 0xbe, 0x24, 0x1c, 0xd4, 0x3d,
  0x7b, 0x54, 0x9f, 0x3b, 0xcb, 0x71, 0x15, 0x3e, 0xcf, 0x3e, 0x03, 0xbf,
  0x17, 0xbd, 0x8a, 0xbd, 0xe1, 0x91, 0x19, 0x3e, 0x11, 0xbc, 0xd1, 0x3d,
  0xe8, 0x61, 0x84, 0xbe, 0xbb, 0x47, 0x59, 0x3e, 0x9f, 0xc8, 0xf8, 0xbe,
  0x94, 0xdc, 0xe9, 0x3d, 0xa4, 0x70, 0x0d, 0xbf, 0xac, 0xb3, 0xf0, 0x3a,
  0x97, 0x39, 0x25, 0x3e, 0x97, 0x6f, 0xdf, 0x3d, 0xdb, 0x6f, 0x00, 0xbe,
  0x94, 0x70, 0x92, 0x3e, 0xdd, 0x9b, 0x67, 0x3c, 0x16, 0xd2, 0xcc, 0x3d,
  0x9b, 0x42, 0xa9, 0xbd, 0xcd, 0x7c, 0xe3, 0x3e, 0x92, 0xe8, 0x8a, 0x3e,
  0x59, 0x50, 0xa2, 0xbd, 0x5d, 0xc6, 0x24, 0x3e, 0x7d, 0xa2, 0x87, 0x3e,
  0xeb, 0xb0, 0xa0, 0x3c, 0xd7, 0x22, 0x69, 0x3e, 0x67, 0x01, 0x85, 0x3e,
  0xe6, 0x34, 0x9c, 0xbd, 0x6d, 0xc4, 0x31, 0x3d, 0x76, 0x3c, 0xe4, 0xbc,
  0x29, 0x02, 0xe6, 0xbd, 0x82, 0x54, 0x86, 0x3c, 0x99, 0x02, 0x3a, 0x3e,
  0xad, 0x35, 0x6b, 0xbd, 0x0a, 0xcd, 0x2a, 0xbd, 0xe5, 0xc1, 0x18, 0x3e,
  0xe3, 0x0b, 0xbc, 0xbc, 0x14, 0x85, 0x43, 0xbe, 0x2c, 0x70, 0x9b, 0x3e,
  0x42, 0x37, 0xc5, 0x3d, 0x74, 0x68, 0x8e, 0xbe, 0xbb, 0x4b, 0x8e, 0x3e,
  0x57, 0xf9, 0x13, 0x3e, 0xef, 0x01, 0x8a, 0xbd, 0x28, 0x4a, 0xa0, 0x3e,
  0xdc, 0xc0, 0x70, 0x3e, 0x59, 0xd9, 0x63, 0x3e, 0xb7, 0x56, 0xa3, 0x3a,
  0x19, 0x4f, 0x04, 0x3c, 0x97, 0xe3, 0xa7, 0xbd, 0x89, 0xaa, 0xa9, 0x3d,
  0x64, 0xba, 0x27, 0xbc, 0x8b, 0x0c, 0xcc, 0xbd, 0x7e, 0x95, 0x9f, 0x3d,
  0x61, 0xbd, 0x52, 0x3c, 0x06, 0xdf, 0xa8, 0x3d, 0x96, 0x3e, 0xe4, 0xbe,
  0x55, 0x50, 0xd0, 0xbd, 0x2b, 0x96, 0xcc, 0xbc, 0xd8, 0xc8, 0x11, 0x3e,
  0x56, 0x51, 0xe7, 0x3e, 0xa2, 0x9c, 0x75, 0xbd, 0x28, 0x36, 0x0c, 0xbf,
  0x30, 0x75, 0xf3, 0x3d, 0xf9, 0xf3, 0x56, 0x3e, 0xa0, 0x03, 0x0f, 0xbc,
  0x98, 0xce, 0xa1, 0xbe, 0x9a, 0x96, 0xb2, 0x3c, 0x4f, 0x89, 0xde, 0x3c,
  0x2b, 0xdd, 0xf3, 0x3e, 0x12, 0x8a, 0x13, 0x3c, 0xb7, 0x3d, 0xb3, 0x3d,
  0xd9, 0xbd, 0x14, 0x3f, 0x70, 0xc9, 0xea, 0xbe, 0x07, 0x75, 0x19, 0x3e,
  0x59, 0x1e, 0x8a, 0x3d, 0xe8, 0xb2, 0xb6, 0xbd, 0x9a, 0x99, 0xde, 0x3d,
  0x04, 0xb6, 0xc2, 0x3d, 0x08, 0xd5, 0x98, 0xbe, 0x39, 0xa4, 0x75, 0xbd,
  0x21, 0x13, 0x87, 0xbe, 0x1f, 0x1a, 0x4a, 0xbd, 0x24, 0xb0, 0x4f, 0xbe,
  0x7f, 0x3c, 0x79, 0xbf, 0x0d, 0x34, 0x59, 0x3d, 0x45, 0xd2, 0x2b, 0x3e,
  0xf3, 0xf3, 0x6f, 0xbe, 0x70, 0x84, 0xe5, 0xbd, 0xd9, 0x02, 0x30, 0xbe,
  0xa2, 0x97, 0xe9, 0xbb, 0xf3, 0xe2, 0x0b, 0x3f, 0xd8, 0x61, 0x87, 0xbd,
  0xf5, 0x07, 0x01, 0x3d, 0xf5, 0x0f, 0xe6, 0xbc, 0xfd, 0x45, 0x3c, 0xbb,
  0xa2, 0x0c, 0x91, 0x3d, 0xfc, 0x8f, 0x54, 0xbe, 0xd9, 0xdd, 0x96, 0xbe,
  0x7b, 0x60, 0xff, 0xbe, 0xa8, 0x3f, 0x76, 0xbc, 0xeb, 0xbf, 0x9d, 0x3d,
  0x64, 0xf1, 0xa4, 0xbd, 0x7c, 0xcb, 0x7d, 0x3d, 0xe2, 0xaf, 0x81, 0x3e,
  0xbc, 0x2c, 0xef, 0x3e, 0x3a, 0xa3, 0x08, 0xbf, 0xf5, 0xa2, 0x49, 0x3e,
  0xbd, 0xa6, 0xb7, 0xbe, 0x80, 0xd6, 0x94, 0xbe, 0x6f, 0x48, 0xb9, 0xbe,
  0x64, 0xf3, 0x1a, 0x3e, 0xda, 0x1a, 0x5e, 0xbe, 0x4d, 0x49, 0x83, 0xbd,
  0x3f, 0x7b, 0xd3, 0x3e, 0x1d, 0xe1, 0xab, 0xbc, 0x94, 0x59, 0x28, 0x3d,
  0x82, 0xbb, 0x2f, 0x3d, 0xd6, 0xd0, 0xf3, 0xbd, 0x2d, 0x3c, 0x2f, 0xbd,
  0xc1, 0xf5, 0x3a, 0x3e, 0x3b, 0x6e, 0x1b, 0x3d, 0x64, 0x5a, 0x6b, 0xbd,
  0x06, 0xa1, 0xe2, 0x3d, 0x97, 0x0c, 0x3f, 0x3c, 0xcb, 0xf4, 0x32, 0x3e,
  0x84, 0x66, 0x81, 0x3e, 0x95, 0x39, 0xef, 0xbd, 0xb4, 0x1c, 0x03, 0x3e,
  0x7d, 0x8d, 0x5e, 0xbf, 0x23, 0x95, 0x41, 0xbd, 0x89, 0x70, 0xe5, 0xbe,
  0x9f, 0xf1, 0xf9, 0x3e, 0x7b, 0x89, 0xad, 0xbe, 0xb3, 0x9c, 0x23, 0xbf,
  0xed, 0x28, 0x4a, 0xbd, 0x0f, 0xd9, 0x93, 0xbf, 0x3d, 0xc5, 0x56, 0xbe,
  0xb7, 0x58, 0x45, 0xbe, 0xe7, 0x96, 0xcf, 0xbe, 0x97, 0x4e, 0x58, 0x3e,
  0xe7, 0x14, 0xd3, 0xbe, 0x58, 0x0f, 0x6a, 0xbe, 0x02, 0x4a, 0xb1, 0xbd,
  0x84, 0xae, 0xe3, 0xbe, 0x75, 0x45, 0xae, 0x3d, 0x3c, 0xad, 0x43, 0xbe,
  0x2b, 0xd1, 0x61, 0xbe, 0xa1, 0x83, 0x47, 0xbd, 0xff, 0x3e, 0x07, 0xbd,
  0xae, 0xad, 0xbc, 0xbe, 0x98, 0xcb, 0x0e, 0xbf, 0xef, 0xcd, 0x09, 0x3d,
  0x6e, 0x36, 0xbb, 0x3d, 0xc6, 0x7b, 0xb1, 0xbe, 0x26, 0x7c, 0x35, 0xbf,
  0xba, 0xe3, 0x1d, 0xbe, 0xbe, 0x29, 0xda, 0x3d, 0xb4, 0x83, 0xdb, 0x3c,
  0xb0, 0x02, 0xc5, 0x3c, 0x3a, 0x41, 0x8c, 0xbe, 0xef, 0xd2, 0x16, 0x3e,
  0x5f, 0xd9, 0x02, 0x3e, 0x77, 0x33, 0x57, 0xbf, 0x36, 0x1d, 0xca, 0x3d,
  0x42, 0x44, 0x1c, 0x3e, 0x3a, 0x9f, 0x22, 0x3e, 0x0f, 0xde, 0x50, 0x3d,
  0xb3, 0x41, 0x7a, 0xbe, 0x33, 0x93, 0x28, 0xbd, 0xd4, 0x23, 0x53, 0xbc,
  0xcc, 0xc2, 0xda, 0xbe, 0xe1, 0xfa, 0xca, 0x3d, 0x0f, 0x43, 0x97, 0xbd,
  0x13, 0x3a, 0x84, 0xbe, 0xa6, 0x53, 0x20, 0x3f, 0x4b, 0x19, 0x26, 0xbf,
  0xa4, 0xb0, 0xd2, 0xbe, 0x78, 0x1d, 0x15, 0xbe, 0x32, 0x15, 0x02, 0x3d,
  0xb8, 0xbe, 0x03, 0xbf, 0xd6, 0xd8, 0x84, 0x3e, 0xdc, 0x64, 0xf9, 0xbe,
  0x13, 0x20, 0x37, 0xbd, 0x36, 0x0a, 0xe8, 0xbe, 0x0c, 0x2e, 0x8f, 0xbe,
  0xdf, 0xf0, 0x03, 0xbe, 0x34, 0xb8, 0xf1, 0xbd, 0xe5, 0x1a, 0xda, 0x3e,
  0x74, 0x6d, 0xbc, 0xbe, 0xf9, 0x66, 0x9d, 0xbe, 0x50, 0xbf, 0x32, 0xbe,
  0x27, 0xeb, 0x88, 0x3e, 0xc5, 0xa1, 0xbc, 0x3e, 0x35, 0xd0, 0xe9, 0xbe,
  0xf5, 0x95, 0x82, 0xbe, 0xaf, 0xd9, 0xfb, 0x3c, 0x2f, 0x23, 0x4b, 0x3e,
  0x44, 0xa8, 0x5b, 0xbf, 0x6f, 0xae, 0x45, 0xbe, 0x90, 0x7c, 0x13, 0xbf,
  0xb3, 0x43, 0x5c, 0xbe, 0xa1, 0xab, 0x7e, 0x3c, 0x8a, 0x7f, 0x48, 0x3e,
  0xa0, 0xb7, 0x33, 0xbe, 0x9c, 0xcc, 0xb5, 0x3e, 0x32, 0x7d, 0x80, 0x3d,
  0xc2, 0x92, 0x2c, 0xbd, 0x68, 0x60, 0x38, 0xbe, 0xb6, 0x62, 0x04, 0xbf,
  0x33, 0x6d, 0xd5, 0xbe, 0x45, 0x88, 0x18, 0xbf, 0x39, 0x4b, 0xa9, 0xbe,
  0xb1, 0x56, 0xce, 0xbd, 0xab, 0xb9, 0x63, 0xbd, 0x8a, 0xe5, 0x1a, 0x3d,
  0xd5, 0x4a, 0x80, 0xbd, 0x50, 0xe2, 0x93, 0xbe, 0xde, 0x18, 0xf8, 0xbe,
  0x26, 0x87, 0x4c, 0x3e, 0x15, 0xf2, 0x48, 0xbd, 0xfd, 0x22, 0x48, 0xbe,
  0x0b, 0x21, 0x71, 0xbd, 0x67, 0x9e, 0xd8, 0xbd, 0x84, 0x64, 0xaa, 0xbc,
  0x63, 0x3c, 0x85, 0x3d, 0xf2, 0x0d, 0x86, 0x3e, 0x93, 0x2e, 0x19, 0x3e,
  0xfc, 0x3e, 0x3d, 0xbe, 0x17, 0x44, 0x97, 0xbd, 0x8b, 0x70, 0x5f, 0xbe,
  0xc8, 0x9d, 0xa4, 0x3e, 0xe2, 0x06, 0x39, 0x3d, 0x84, 0x8f, 0xf2, 0x3c,
  0x0c, 0x97, 0x62, 0xbe, 0xe2, 0x23, 0x9b, 0xbd, 0x4e, 0xf6, 0xf7, 0x3c,
  0xdb, 0xe2, 0x44, 0xbf, 0xf8, 0x67, 0x53, 0xbe, 0x6a, 0x11, 0x8e, 0xbd,
  0x46, 0xdd, 0xed, 0x3d, 0x79, 0x12, 0xe4, 0xb8, 0x9a, 0xc2, 0xd2, 0xbc,
  0xf7, 0x29, 0x97, 0xbe, 0xe9, 0x95, 0xa9, 0xbb, 0x77, 0xfa, 0x26, 0x3e,
  0xea, 0xd0, 0xf4, 0xbe, 0xab, 0x39, 0xaf, 0xbe, 0xa1, 0x79, 0xb3, 0x3d,
  0xcf, 0x3c, 0x11, 0xbe, 0x1f, 0xa1, 0x47, 0xbe, 0x05, 0xda, 0xd0, 0xbe,
  0x34, 0x38, 0x04, 0x3f, 0x75, 0xdf, 0x57, 0xbe, 0x4d, 0xd5, 0x2d, 0x3e,
  0x19, 0x04, 0x7d, 0xbe, 0xac, 0x07, 0x0e, 0x3e, 0xdf, 0xf9, 0x18, 0xbe,
  0xdd, 0xb1, 0xe3, 0x3d, 0x44, 0xd1, 0xec, 0x3d, 0xa2, 0x4a, 0x2f, 0xbe,
  0x4c, 0x4c, 0x85, 0xbd, 0x09, 0x8c, 0xc5, 0x3d, 0x01, 0x6d, 0x6f, 0x3e,
  0x11, 0x77, 0x4d, 0xbe, 0x55, 0x9d, 0x39, 0xbe, 0x45, 0x34, 0xf1, 0x3e,
  0x52, 0x50, 0x96, 0x3e, 0xf1, 0xee, 0x92, 0xbe, 0x1f, 0x1d, 0x5c, 0xbd,
  0x51, 0x5b, 0x2b, 0x3e, 0x7e, 0xf6, 0x69, 0xbe, 0x25, 0xa5, 0xa7, 0x3d,
  0x53, 0x76, 0xc3, 0xbd, 0xc3, 0x8f, 0x5b, 0xbd, 0xbe, 0x82, 0x02, 0xbf,
  0xb6, 0x2e, 0x89, 0xbe, 0x24, 0x1a, 0x5c, 0xbf, 0x83, 0xa2, 0xca, 0x3e,
  0xd7, 0x25, 0x80, 0x3e, 0x69, 0x0a, 0x74, 0xbe, 0xe8, 0xb9, 0x59, 0x3e,
  0x55, 0xce, 0x91, 0xbe, 0x0a, 0x80, 0x15, 0xbe, 0x80, 0x4d, 0x31, 0xbe,
  0xf8, 0x55, 0xae, 0xbc, 0x83, 0xbd, 0x45, 0xbf, 0xb7, 0x00, 0xd8, 0xbe,
  0x19, 0x2d, 0x93, 0xbd, 0xe5, 0x0f, 0x83, 0x3c, 0x23, 0x03, 0xab, 0xbd,
  0xb5, 0xa4, 0xae, 0xbd, 0x1e, 0x0f, 0x22, 0x3e, 0x26, 0xa2, 0x9f, 0xbd,
  0x00, 0x7e, 0x3a, 0xbd, 0x12, 0x00, 0xeb, 0xbe, 0xff, 0x81, 0xd0, 0x3e,
  0xeb, 0x1d, 0x9f, 0xbc, 0x20, 0x87, 0x6b, 0xbd, 0x57, 0x07, 0xf9, 0xbb,
  0x4b, 0xe7, 0xed, 0x3d, 0xf4, 0x50, 0x7c, 0xbf, 0x79, 0xbc, 0x2c, 0xbf,
  0x1e, 0x02, 0x2f, 0xbf, 0x59, 0xa5, 0x47, 0xbe, 0xa3, 0x90, 0x30, 0xbe,
  0xf2, 0xd6, 0x4b, 0xbd, 0x45, 0x37, 0x01, 0xbe, 0xc6, 0xfb, 0x28, 0xbe,
  0x04, 0xd1, 0x5c, 0x3e, 0x96, 0xdd, 0xb0, 0xbe, 0x0f, 0x0f, 0xd9, 0xbe,
  0x8c, 0xad, 0x24, 0x3e, 0x46, 0x10, 0x8e, 0xbe, 0xa2, 0xe7, 0x81, 0xbf,
  0x08, 0x18, 0x05, 0xbe, 0x37, 0xa1, 0xc0, 0x3e, 0x04, 0x78, 0x68, 0xbf,
  0x7c, 0xf6, 0x98, 0x3e, 0x98, 0x37, 0x67, 0xbe, 0x9b, 0x99, 0x8a, 0xbe,
  0x7b, 0xfd, 0xc9, 0xbd, 0x42, 0x3b, 0x8c, 0x3e, 0x6b, 0x8f, 0x10, 0xbe,
  0x29, 0x69, 0x7a, 0x3c, 0x1d, 0xc8, 0xc5, 0xbd, 0x26, 0x6d, 0x96, 0x3b,
  0x4b, 0x19, 0x34, 0x3e, 0xff, 0xd1, 0xcd, 0xbc, 0x8d, 0xd1, 0x03, 0xbe,
  0x92, 0x9a, 0x5a, 0x3e, 0x26, 0x6e, 0x51, 0x3e, 0x02, 0x4e, 0xb8, 0xbd,
  0xf8, 0x7a, 0xbd, 0x3d, 0x75, 0x97, 0xb5, 0x3d, 0xe9, 0xc1, 0x58, 0xbe,
  0x34, 0x7c, 0x3d, 0xbd, 0xea, 0x2d, 0xc2, 0xbe, 0x86, 0x6f, 0x17, 0xbf,
  0x99, 0xfc, 0x0a, 0xbf, 0xa0, 0x5b, 0x09, 0xbf, 0x0c, 0x17, 0xec, 0xbe,
  0x06, 0xe2, 0x97, 0x3d, 0x6e, 0x34, 0xb2, 0xbe, 0x8e, 0x2c, 0xe8, 0xbc,
  0x6e, 0xd3, 0x37, 0xbd, 0x5a, 0xaf, 0x2e, 0xbd, 0x59, 0xf0, 0x3b, 0x3e,
  0x6e, 0x7e, 0x0e, 0xbd, 0x82, 0x4b, 0x42, 0x3e, 0xb4, 0x71, 0xd1, 0xbe,
  0x9b, 0x56, 0x1b, 0xbf, 0x55, 0x35, 0xb3, 0xbe, 0xc2, 0xc7, 0x40, 0xbe,
  0xfb, 0x44, 0x20, 0x3e, 0x90, 0x28, 0x06, 0xbf, 0x70, 0x65, 0x0b, 0xbf,
  0xce, 0xa5, 0x3a, 0xbc, 0x2a, 0x2d, 0xb2, 0x3b, 0x42, 0x49, 0x97, 0x3d,
  0x89, 0xc6, 0x17, 0x3d, 0x76, 0x00, 0xff, 0xbc, 0xba, 0xc8, 0xf8, 0xbe,
  0x5f, 0xbe, 0xc7, 0x3d, 0x9f, 0xee, 0xa1, 0xbc, 0x68, 0xc1, 0x31, 0xbe,
  0xcc, 0xe6, 0xcb, 0xbd, 0xf1, 0x09, 0x38, 0xbe, 0xc6, 0x8c, 0x3d, 0xbf,
  0x60, 0x41, 0x98, 0xbe, 0x24, 0x71, 0x14, 0xbf, 0x97, 0xea, 0x8c, 0x3d,
  0xa2, 0x06, 0x81, 0xbe, 0x59, 0xcd, 0x82, 0x3c, 0xbb, 0xcc, 0x78, 0xbe,
  0x56, 0x93, 0x53, 0xbe, 0x53, 0xcc, 0x41, 0x3e, 0x6a, 0x01, 0x3b, 0x3e,
  0xf8, 0xce, 0xc2, 0x3c, 0x65, 0x5a, 0xc3, 0x3d, 0x4f, 0x1a, 0x08, 0x3e,
  0x36, 0xbd, 0xf8, 0xbe, 0x59, 0x18, 0xa8, 0x3e, 0xc2, 0xab, 0x38, 0x3d,
  0x83, 0xe6, 0xc1, 0xbd, 0xde, 0x26, 0xdc, 0xbc, 0x8e, 0x7b, 0xd0, 0x3c,
  0x56, 0x4c, 0x29, 0x3e, 0xa3, 0x28, 0x8f, 0xbe, 0xbe, 0x42, 0x43, 0xbe,
  0xcb, 0x6d, 0x4c, 0xbe, 0xa1, 0x36, 0x0f, 0x3e, 0xce, 0xf6, 0xfc, 0xbd,
  0xed, 0x3a, 0xbf, 0xbd, 0xbc, 0x1d, 0xa1, 0xbe, 0x91, 0x51, 0x05, 0xbe,
  0x0c, 0x4c, 0x23, 0x3c, 0x39, 0x48, 0x21, 0xbe, 0x98, 0xcb, 0x1e, 0x3e,
  0x7f, 0x7f, 0x74, 0xbd, 0x5c, 0x93, 0xb9, 0xbd, 0xc1, 0xb2, 0xe3, 0xba,
  0x53, 0x8e, 0x98, 0x3d, 0x0d, 0x9c, 0xce, 0x3e, 0x59, 0xa5, 0x87, 0x3b,
  0xcc, 0xc2, 0x5e, 0xbd, 0xdb, 0x3d, 0x6a, 0xbd, 0x15, 0x53, 0x3a, 0xbe,
  0xd5, 0x58, 0x14, 0x3e, 0xbc, 0x30, 0x46, 0x3d, 0xc4, 0x9f, 0x2d, 0x3e,
  0x6b, 0xab, 0x8c, 0xbd, 0xb7, 0x0d, 0xf1, 0xbd, 0x6a, 0x9c, 0x14, 0x3c,
  0x39, 0x6a, 0x4c, 0xbe, 0xb6, 0x31, 0x38, 0xbd, 0xef, 0x72, 0xcb, 0xbd,
  0xdf, 0x65, 0x7c, 0xbe, 0x32, 0x49, 0x65, 0x3c, 0x74, 0x66, 0xb8, 0x3e,
  0x80, 0x3c, 0x77, 0xbe, 0x15, 0xc0, 0x94, 0xbd, 0x1b, 0x29, 0xc3, 0xbd,
  0x72, 0x35, 0xcc, 0xbe, 0x9d, 0x27, 0x02, 0xbe, 0xdb, 0x93, 0x41, 0xbe,
  0xd2, 0xb7, 0xbe, 0x3d, 0x77, 0x0b, 0x29, 0x3e, 0xd3, 0xe8, 0x76, 0x3d,
  0x69, 0x8f, 0xc5, 0x3d, 0x84, 0x65, 0xa4, 0x3d, 0x56, 0x63, 0x9b, 0xbe,
  0x0f, 0xa5, 0x8c, 0xbd, 0x1a, 0xae, 0x6f, 0xbe, 0x0f, 0xe5, 0x12, 0x3c,
  0xc9, 0x85, 0x61, 0xbe, 0xfa, 0x89, 0x2c, 0xbe, 0xab, 0x12, 0x3a, 0xbe,
  0x3d, 0xf0, 0x57, 0xbd, 0xbb, 0xaa, 0x2b, 0xbe, 0xd1, 0xe3, 0xc9, 0xbe,
  0xca, 0xdc, 0x40, 0x3d, 0x5d, 0x28, 0x37, 0x3e, 0x31, 0x09, 0x36, 0x3d,
  0x36, 0x34, 0xaf, 0xbe, 0xe3, 0x22, 0xdc, 0xbd, 0xce, 0x0e, 0x03, 0xbf,
  0x04, 0xce, 0x72, 0xbe, 0xbc, 0x90, 0x81, 0xbe, 0x86, 0xbe, 0x81, 0x3e,
  0xf7, 0xcf, 0xb0, 0x3d, 0x62, 0x8a, 0xd9, 0xbe, 0x13, 0xbc, 0xcb, 0xbe,
  0xa1, 0x56, 0xac, 0xba, 0xdb, 0xd9, 0x33, 0xbf, 0xb2, 0x2b, 0x88, 0x3d,
  0xba, 0xf9, 0xd5, 0xbd, 0xef, 0xef, 0xcc, 0xbe, 0x68, 0xa1, 0x8f, 0xbd,
  0x54, 0x6f, 0x8f, 0xbd, 0x14, 0x9a, 0x44, 0xbe, 0xdb, 0x06, 0x14, 0xbe,
  0xf4, 0xea, 0xf2, 0xbd, 0x5d, 0xef, 0xc7, 0x3d, 0x97, 0x2f, 0xa3, 0x3d,
  0x1c, 0xc7, 0x4c, 0xbe, 0xfe, 0xa4, 0x82, 0x3e, 0x91, 0x1a, 0x89, 0x3d,
  0x43, 0xd5, 0x14, 0xbd, 0x5a, 0xd6, 0xb3, 0x3e, 0xeb, 0xdc, 0x1a, 0xbe,
  0xb6, 0x6d, 0x38, 0xbe, 0xd9, 0x9d, 0xff, 0xbd, 0x00, 0x8b, 0x47, 0x3e,
  0xda, 0xce, 0xfa, 0xbe, 0xf4, 0x8f, 0x7b, 0xbe, 0x3b, 0xc8, 0x58, 0x3d,
  0xb8, 0x76, 0x01, 0x3e, 0xef, 0x79, 0x84, 0xbe, 0x12, 0x03, 0x9f, 0xbd,
  0xb2, 0x40, 0x12, 0xbf, 0xca, 0x04, 0xd6, 0x3d, 0x8e, 0x7c, 0x85, 0xbe,
  0x3b, 0x9d, 0xe5, 0xbd, 0x9e, 0xfa, 0xbc, 0x3e, 0x9d, 0xdb, 0x85, 0xbe,
  0x8e, 0xff, 0xd6, 0x3e, 0x90, 0x0b, 0xb4, 0x3e, 0xb3, 0xe9, 0x21, 0x3e,
  0x67, 0x1f, 0xc7, 0xbe, 0xe3, 0x98, 0x8f, 0x3e, 0x45, 0x6d, 0xd9, 0xbe,
  0x59, 0x65, 0xb1, 0x3d, 0xd7, 0xd2, 0x16, 0x3f, 0xe8, 0x3f, 0xc5, 0x3c,
  0x09, 0x03, 0x38, 0x3f, 0xae, 0x4a, 0x0d, 0xbf, 0x81, 0x8a, 0xba, 0x3d,
  0xb2, 0xfd, 0x28, 0x3c, 0x2d, 0xff, 0x42, 0xbe, 0x85, 0x28, 0x40, 0x3e,
  0xa6, 0xd5, 0xfd, 0x3e, 0xe2, 0xaa, 0x35, 0x3e, 0x06, 0x28, 0x0d, 0x3f,
  0x8b, 0x58, 0x8e, 0xbc, 0xe0, 0x8e, 0x86, 0x3c, 0x3f, 0xcb, 0x07, 0x3e,
  0x07, 0x91, 0xaf, 0xbe, 0x81, 0xec, 0xee, 0xbe, 0x5c, 0x48, 0x62, 0x3a,
  0x75, 0xc9, 0xa9, 0x3d, 0x7b, 0x0e, 0xe9, 0xbe, 0xea, 0x3d, 0x17, 0x3e,
  0x55, 0xac, 0xb5, 0xbe, 0x2b, 0xfb, 0x2a, 0x3d, 0xc1, 0x40, 0xf3, 0xbe,
  0x81, 0x2b, 0x34, 0xbe, 0x6f, 0x85, 0x61, 0x3d, 0x20, 0x4c, 0xc8, 0xbc,
  0x2f, 0x4a, 0x07, 0xbe, 0x02, 0xe0, 0x8d, 0x3d, 0x08, 0xab, 0x74, 0x3e,
  0x84, 0x97, 0x8f, 0x3e, 0xec, 0x61, 0xb7, 0x3e, 0x11, 0xc7, 0x0b, 0xbf,
  0xb9, 0x4b, 0xaf, 0x3c, 0xfe, 0xc5, 0xf2, 0x3d, 0x12, 0xb7, 0x7d, 0xbe,
  0x38, 0x29, 0xf0, 0xbc, 0x09, 0xc6, 0xa4, 0xbe, 0x6a, 0xba, 0x0c, 0xbf,
  0xd8, 0xf8, 0x87, 0xbe, 0x91, 0x10, 0xf1, 0x3e, 0x0c, 0x6d, 0x90, 0xbe,
  0x22, 0x36, 0xbf, 0x3c, 0x94, 0x48, 0x96, 0x3e, 0xca, 0x67, 0x0b, 0xbf,
  0x42, 0xd9, 0x88, 0xbd, 0xea, 0x72, 0xea, 0x3e, 0x36, 0xb2, 0xd8, 0xbe,
  0xab, 0x2b, 0x3b, 0xbe, 0x25, 0xb1, 0x52, 0xbe, 0x95, 0xb7, 0xc3, 0xbd,
  0x5a, 0xe2, 0x41, 0xbf, 0x59, 0xd5, 0x07, 0xbe, 0x44, 0x14, 0x81, 0xbe,
  0x67, 0x95, 0xd3, 0x3e, 0x8f, 0x47, 0x92, 0x3e, 0x90, 0x2e, 0x1b, 0xbf,
  0x02, 0xd5, 0xf3, 0x3d, 0xfd, 0x0d, 0xb9, 0x3d, 0x61, 0xb7, 0x81, 0xbd,
  0xdd, 0x62, 0x6f, 0x3e, 0xb4, 0xbb, 0x7b, 0xbe, 0xdb, 0xab, 0xc2, 0x3d,
  0xe4, 0x1c, 0x6f, 0xbe, 0x3f, 0x90, 0x56, 0x3e, 0xe7, 0x97, 0xa4, 0x3c,
  0x17, 0x64, 0xc6, 0x3c, 0x1f, 0x4c, 0x19, 0xbe, 0xc9, 0x33, 0x95, 0xbf,
  0x18, 0x3a, 0x0a, 0xbd, 0x82, 0xbe, 0x5a, 0xbf, 0x55, 0xf1, 0x23, 0x3e,
  0x8a, 0x51, 0x92, 0xbe, 0x7d, 0x35, 0xad, 0x3c, 0x64, 0x1e, 0x69, 0xbe,
  0xb8, 0xda, 0x96, 0xbd, 0xd4, 0xf1, 0x47, 0x3e, 0x75, 0x36, 0x7b, 0xbe,
  0xa6, 0x1b, 0xb2, 0x3b, 0xed, 0x40, 0x46, 0x3d, 0xdc, 0x5b, 0x99, 0x3e,
  0x19, 0x7a, 0x2e, 0xbf, 0x1c, 0x8a, 0x3c, 0x3e, 0xc5, 0xeb, 0xa3, 0x3e,
  0xae, 0xf1, 0xaf, 0x3c, 0x10, 0xe9, 0x37, 0xbe, 0x72, 0xac, 0xed, 0xbd,
  0xf3, 0x5c, 0xbc, 0x3d, 0xbe, 0x01, 0x4e, 0x3e, 0xcb, 0x38, 0xdc, 0xbe,
  0xac, 0xcb, 0x61, 0x3e, 0x6c, 0x11, 0xf5, 0x3c, 0x4a, 0xa6, 0x52, 0x3f,
  0x79, 0x64, 0x16, 0x3d, 0xc8, 0x21, 0xa7, 0x3d, 0x8f, 0x96, 0x8e, 0xbd,
  0x72, 0xab, 0x17, 0xbf, 0xb7, 0xe2, 0x9b, 0xbd, 0xf6, 0xcc, 0xc6, 0xbd,
  0xcf, 0xe0, 0xe7, 0xbd, 0x9d, 0x43, 0xab, 0xbd, 0x6e, 0xad, 0x17, 0x3e,
  0x84, 0x55, 0x4c, 0xbe, 0x70, 0x44, 0xaf, 0x3d, 0xea, 0xfd, 0xc2, 0xbc,
  0xbb, 0xfe, 0x11, 0xbe, 0x88, 0xa1, 0x68, 0x3e, 0xa1, 0x01, 0xb0, 0x3e,
  0x74, 0xa7, 0xf5, 0xbd, 0xa8, 0xc7, 0x42, 0xbd, 0xc9, 0x0e, 0x1d, 0x3e,
  0xee, 0x74, 0x83, 0x3e, 0xf8, 0x71, 0x23, 0xbe, 0xd0, 0x6c, 0x67, 0xbe,
  0x86, 0x04, 0x0c, 0xbc, 0x30, 0x7f, 0x90, 0xbd, 0x5f, 0xde, 0x8b, 0x3e,
  0xfe, 0xe8, 0x17, 0xbf, 0x99, 0x16, 0xaf, 0xbc, 0xd8, 0xb2, 0xb1, 0xbe,
  0x7a, 0xf1, 0x28, 0xbd, 0x68, 0x68, 0x40, 0xbe, 0x1b, 0xf4, 0x98, 0xbd,
  0x77, 0xb2, 0xe9, 0xbe, 0x63, 0x02, 0xac, 0x3d, 0x9c, 0xd4, 0x67, 0x3e,
  0x3e, 0xa3, 0xbc, 0xbd, 0x30, 0x43, 0x9f, 0x3d, 0xca, 0x2b, 0x65, 0xbd,
  0xe5, 0x3d, 0x1c, 0xbf, 0xb9, 0x42, 0xed, 0xbe, 0x08, 0xf8, 0x60, 0xbf,
  0x5d, 0x6d, 0xa6, 0x3d, 0x41, 0x49, 0xb3, 0xbe, 0x71, 0x99, 0xed, 0x3c,
  0x10, 0x23, 0x4c, 0x3e, 0x18, 0xbf, 0x36, 0xbe, 0x84, 0xa2, 0xeb, 0xbe,
  0x6f, 0xc3, 0x3f, 0xbe, 0x89, 0xfa, 0x95, 0xbd, 0x16, 0x0a, 0x57, 0x3e,
  0xaf, 0x29, 0x06, 0xbd, 0xa0, 0x64, 0xde, 0xbe, 0xda, 0xcb, 0x12, 0x3d,
  0x48, 0xf4, 0xbd, 0xbc, 0x4e, 0x5b, 0x66, 0xbe, 0x0d, 0xec, 0x34, 0x37,
  0x72, 0xfa, 0xb0, 0x3e, 0xa6, 0xf6, 0xf2, 0x3d, 0xd7, 0x9e, 0x67, 0xbe,
  0x4d, 0x44, 0x18, 0x3d, 0x3a, 0x30, 0xb0, 0xbc, 0x3d, 0xa9, 0x92, 0x3d,
  0x34, 0xf4, 0xbb, 0xbd, 0xd7, 0xe1, 0x9f, 0xbe, 0x60, 0xff, 0x54, 0xbe,
  0x1d, 0xe6, 0x3e, 0xbe, 0xe8, 0xca, 0xbf, 0xbe, 0xd0, 0x46, 0x11, 0x3e,
  0x50, 0x1a, 0x26, 0x3e, 0xd8, 0x74, 0x05, 0xbd, 0x92, 0xca, 0x15, 0x3b,
  0xba, 0xfd, 0x21, 0x3e, 0xa2, 0x85, 0x9f, 0x3e, 0x70, 0xb4, 0xf5, 0xba,
  0xd4, 0xac, 0x64, 0xbe, 0xa8, 0xb2, 0x8b, 0x3e, 0x6b, 0xad, 0xd8, 0xbd,
  0x8f, 0x4c, 0x45, 0x3e, 0xed, 0x97, 0xce, 0xbd, 0x0a, 0x78, 0x61, 0xbc,
  0xce, 0x75, 0x39, 0x3e, 0x6b, 0xf1, 0x44, 0x3d, 0xf5, 0x78, 0x70, 0xbe,
  0x21, 0xe8, 0xf1, 0xbd, 0x2f, 0x0e, 0xad, 0xbe, 0x1f, 0x0d, 0x16, 0xbe,
  0xa5, 0x84, 0x91, 0x3d, 0xc8, 0x36, 0x4d, 0xbe, 0x25, 0xd5, 0xa9, 0x3d,
  0x32, 0xd6, 0x20, 0xbe, 0xc8, 0x5e, 0x8e, 0x3d, 0x29, 0xe9, 0xb9, 0x3d,
  0x23, 0x6a, 0xb5, 0x3e, 0x78, 0xfe, 0xbc, 0x3d, 0x4d, 0xbf, 0x27, 0x3d,
  0x36, 0x7a, 0x77, 0x3e, 0x04, 0x65, 0x07, 0x3e, 0x3e, 0x9d, 0x36, 0x3e,
  0x4e, 0x67, 0xa4, 0xbe, 0x64, 0x71, 0x61, 0x3e, 0xab, 0x52, 0x3f, 0xbe,
  0x79, 0x39, 0x04, 0xbe, 0x9d, 0xa6, 0x92, 0x3d, 0x6b, 0x26, 0x79, 0xbe,
  0x85, 0x01, 0x6f, 0x3e, 0x2f, 0x80, 0x85, 0xbc, 0x74, 0x18, 0xc5, 0x3d,
  0x0c, 0xa8, 0x54, 0x3e, 0xb3, 0xf6, 0x8e, 0xbe, 0xa2, 0x2c, 0xe6, 0x3c,
  0x0f, 0xf0, 0xa4, 0x3e, 0x7c, 0x17, 0x55, 0xbd, 0x9a, 0xc6, 0xff, 0xbd,
  0x37, 0x36, 0x18, 0xbe, 0xdc, 0x90, 0x74, 0xbe, 0xe0, 0x00, 0x48, 0x3e,
  0x16, 0xa0, 0x11, 0xbf, 0xc5, 0xbb, 0x5e, 0xbb, 0xa7, 0x22, 0x5a, 0xbe,
  0x5b, 0xa7, 0xbe, 0x3d, 0x07, 0x53, 0xa4, 0xbe, 0x49, 0x87, 0x14, 0x3e,
  0xb8, 0x29, 0x9f, 0xbd, 0xab, 0x5b, 0x88, 0x3e, 0x7d, 0xc4, 0x2d, 0x3f,
  0xe7, 0xe1, 0xba, 0xbc, 0x3f, 0x8a, 0x1b, 0xbb, 0xd0, 0xac, 0x0b, 0x3e,
  0x3a, 0xb0, 0xaf, 0xbe, 0xc8, 0x24, 0xc0, 0x3e, 0xe7, 0x96, 0x2f, 0x3e,
  0x30, 0x4b, 0x81, 0xbe, 0xea, 0xd0, 0xe9, 0x3d, 0x3d, 0xd7, 0xdf, 0xbe,
  0x88, 0x01, 0xd1, 0xbe, 0x94, 0x8e, 0xd8, 0xbe, 0x83, 0x4e, 0x8e, 0x3e,
  0xf8, 0x63, 0x91, 0xbe, 0x35, 0x9b, 0x84, 0x3d, 0x91, 0xe3, 0x02, 0xbf,
  0xef, 0x11, 0x96, 0x3e, 0xcf, 0xaf, 0x92, 0x3e, 0xca, 0x15, 0x90, 0xbe,
  0x66, 0x2f, 0x97, 0xbe, 0x55, 0x0c, 0x78, 0xbd, 0x9b, 0x8b, 0xc0, 0xbe,
  0x00, 0x5c, 0xb9, 0xbe, 0x03, 0x81, 0x2c, 0x3e, 0xb9, 0xc2, 0xe4, 0x3e,
  0x8b, 0x27, 0xf0, 0xbd, 0x11, 0x68, 0x00, 0xbe, 0x0c, 0xf9, 0x3d, 0xbe,
  0xdc, 0x8b, 0x1c, 0xbe, 0xd2, 0x87, 0xe0, 0xbd, 0x4b, 0x4e, 0x93, 0xbe,
  0xd5, 0xaa, 0xfe, 0xbd, 0xdf, 0x5c, 0xb2, 0x3e, 0x76, 0xcd, 0xd0, 0xbe,
  0xa2, 0xd0, 0x35, 0xbe, 0x0f, 0x7f, 0xa6, 0xbe, 0x31, 0xaa, 0x00, 0xbf,
  0x69, 0x8f, 0x46, 0xbf, 0x86, 0xd5, 0x00, 0xbf, 0x09, 0x55, 0x8f, 0x3d,
  0x1b, 0x4e, 0xcc, 0xbe, 0x92, 0x6e, 0x5b, 0x3e, 0xd2, 0xbc, 0xc4, 0x3e,
  0x73, 0x57, 0x2e, 0x3e, 0x21, 0x79, 0x63, 0xbe, 0xb6, 0xea, 0x3a, 0xbe,
  0xb4, 0xa8, 0x23, 0xbe, 0x91, 0x9a, 0x67, 0xbf, 0x29, 0xfb, 0x5d, 0x3c,
  0xa7, 0x77, 0x8c, 0xbe, 0xa1, 0xce, 0x64, 0xbe, 0x63, 0x5f, 0x93, 0x3e,
  0x67, 0x39, 0x5f, 0xbe, 0x0c, 0xf7, 0x74, 0xbf, 0x47, 0x70, 0x00, 0xbe,
  0x89, 0x52, 0x77, 0xbe, 0xec, 0x3f, 0x9a, 0x3c, 0x77, 0x09, 0x85, 0xbe,
  0x46, 0x57, 0x82, 0xbf, 0xeb, 0x9b, 0x28, 0xbf, 0x34, 0xf4, 0x28, 0x3e,
  0x94, 0xbf, 0x3f, 0xbf, 0x85, 0x62, 0x50, 0x3e, 0x8c, 0x80, 0x24, 0xbe,
  0x69, 0x7d, 0xf4, 0x3e, 0x5d, 0xf7, 0x6b, 0xbe, 0x2d, 0xe0, 0xb7, 0x3b,
  0xd3, 0xe0, 0xb9, 0x3e, 0x34, 0x56, 0x3b, 0x3d, 0x9c, 0x7f, 0x5c, 0x3e,
  0xc5, 0xc8, 0x8d, 0xbe, 0x22, 0x31, 0x97, 0xbe, 0xb5, 0x8c, 0x01, 0x3d,
  0xee, 0x46, 0x41, 0xbd, 0x37, 0x5e, 0xae, 0xbe, 0x6c, 0x16, 0x99, 0xbe,
  0x11, 0xfe, 0xbd, 0x3d, 0x46, 0x1d, 0x36, 0x3c, 0x90, 0x74, 0xa2, 0xbb,
  0x4e, 0xaf, 0x9a, 0xbd, 0x29, 0xfe, 0x79, 0x3d, 0xb2, 0xb4, 0x62, 0x3b,
  0x0e, 0xd9, 0x2e, 0x3d, 0x05, 0x59, 0x2c, 0x3e, 0x2b, 0x16, 0xbb, 0xbe,
  0xd8, 0x83, 0x8d, 0xbc, 0xa0, 0xe3, 0xe2, 0xbd, 0x32, 0xec, 0xe5, 0x3d,
  0xc6, 0xb1, 0xd5, 0x3d, 0x5b, 0xfc, 0x8a, 0xbc, 0xd1, 0xa1, 0xe6, 0x3e,
  0x46, 0x87, 0x1e, 0xbc, 0x2b, 0xe6, 0x12, 0xbe, 0xf0, 0x9c, 0xeb, 0xbc,
  0x4e, 0x94, 0x16, 0x3e, 0xbf, 0x6e, 0xe9, 0xbd, 0xde, 0x71, 0x02, 0xbe,
  0x8c, 0xac, 0x43, 0xbd, 0x7a, 0xa8, 0xb5, 0x3d, 0x52, 0xf1, 0x8d, 0x3d,
  0x7b, 0x22, 0x84, 0x3d, 0xd4, 0xff, 0x1b, 0xbf, 0x28, 0x3c, 0xb2, 0xbe,
  0x93, 0x4f, 0x24, 0x3d, 0x24, 0xf3, 0xfe, 0xbd, 0x01, 0x51, 0x39, 0x3e,
  0xf9, 0x0f, 0x65, 0x3e, 0xde, 0x4f, 0xbb, 0xbd, 0xfa, 0xf8, 0x47, 0xbf,
  0x38, 0x80, 0xb0, 0xbe, 0xd0, 0xfd, 0x2a, 0xbd, 0xfb, 0x82, 0x8b, 0xbe,
  0x41, 0x07, 0x24, 0xbe, 0x0d, 0x0f, 0x02, 0x3e, 0xb9, 0x9e, 0x56, 0x3e,
  0x57, 0xde, 0x41, 0x3e, 0xa7, 0x22, 0x54, 0xbe, 0xfe, 0xcc, 0xe9, 0xbe,
  0x04, 0xe8, 0x89, 0x3d, 0x45, 0xa3, 0x63, 0xbe, 0x84, 0xa2, 0xe5, 0xbe,
  0x1b, 0x85, 0x4d, 0x3e, 0xaa, 0x10, 0x2f, 0xbf, 0x4d, 0x00, 0xae, 0xbe,
  0xc4, 0x39, 0x4a, 0x3e, 0x7d, 0xd7, 0x90, 0xbe, 0xe9, 0x3e, 0x8a, 0xbe,
  0xf5, 0xcd, 0xb1, 0x3c, 0xc4, 0xb3, 0xca, 0x3e, 0xb3, 0xf3, 0x93, 0xbe,
  0x22, 0xe8, 0xab, 0xbd, 0x9c, 0xc1, 0x92, 0xbe, 0x13, 0x82, 0x59, 0xbe,
  0x95, 0x89, 0xa5, 0xbe, 0x30, 0x87, 0x0b, 0xbf, 0x5d, 0x3e, 0x54, 0xbe,
  0xd2, 0x83, 0xdc, 0xbe, 0x04, 0xbc, 0xaa, 0x3d, 0xb4, 0x96, 0xce, 0x3d,
  0x94, 0xb0, 0xa4, 0xbd, 0x44, 0x70, 0x07, 0x3e, 0x2d, 0xe7, 0x3d, 0xbe,
  0x2d, 0x70, 0xad, 0xbd, 0xde, 0x30, 0xf9, 0xbd, 0xc0, 0x5c, 0x76, 0x3b,
  0xe0, 0x94, 0xdc, 0xbd, 0x74, 0x9e, 0x22, 0xbe, 0x64, 0x45, 0xd2, 0xbd,
  0x89, 0x56, 0x15, 0xbe, 0xbd, 0x12, 0x8f, 0xbe, 0xad, 0x3b, 0xc3, 0xbe,
  0xe0, 0x7d, 0xb2, 0x3d, 0x83, 0xe2, 0x2c, 0xbd, 0xa9, 0x92, 0x0f, 0xbe,
  0xb7, 0x40, 0xbd, 0xbd, 0x20, 0x05, 0x6d, 0x3d, 0x09, 0x78, 0x90, 0x3d,
  0x9b, 0x5f, 0xcb, 0xbe, 0x5a, 0x13, 0xc8, 0xbd, 0xdd, 0x73, 0x27, 0xbe,
  0x1b, 0x4d, 0xb3, 0x3e, 0x0b, 0x0c, 0x9e, 0xbe, 0x59, 0x68, 0xaf, 0x3d,
  0x04, 0xc0, 0x4d, 0xbd, 0xa1, 0x32, 0x70, 0x3e, 0x17, 0x6b, 0x42, 0xbd,
  0x71, 0x07, 0xb9, 0xbe, 0xd4, 0x8c, 0xd4, 0xbd, 0x9f, 0xd6, 0xe1, 0xbd,
  0x09, 0xbf, 0xf4, 0xbb, 0x85, 0xb7, 0xc4, 0xbe, 0xc1, 0x4d, 0x1c, 0xbe,
  0x21, 0x16, 0xca, 0x3d, 0xfb, 0x9f, 0xbb, 0xbe, 0xee, 0x40, 0x29, 0xbe,
  0xa4, 0x7f, 0x87, 0x3e, 0x6e, 0x71, 0xa5, 0xbe, 0x39, 0xc4, 0xd9, 0xbd,
  0x91, 0x8a, 0x1d, 0x3c, 0xae, 0xe7, 0x67, 0xbe, 0x15, 0x06, 0xb8, 0xbe,
  0x22, 0xca, 0x96, 0xbb, 0x31, 0xe2, 0xf2, 0xbc, 0xc8, 0xa7, 0xd1, 0xbe,
  0x05, 0xe8, 0x69, 0xbe, 0xee, 0xa8, 0x05, 0x3f, 0x96, 0x82, 0x4e, 0xbe,
  0x14, 0x7c, 0x7a, 0xbd, 0xc6, 0x96, 0x7d, 0xbe, 0x77, 0x58, 0x9f, 0x3e,
  0xcc, 0xa3, 0x02, 0x3e, 0x37, 0x01, 0x58, 0xbe, 0x77, 0x0e, 0x57, 0x3e,
  0x4b, 0xdd, 0x5f, 0x3d, 0x25, 0x66, 0xee, 0xbc, 0x6f, 0x63, 0x5c, 0xbe,
  0x59, 0x69, 0xdd, 0x3c, 0xb7, 0xfd, 0x3a, 0xbd, 0xdb, 0x84, 0xd8, 0xbd,
  0x2c, 0xb8, 0xa6, 0x3e, 0xfc, 0x64, 0x47, 0xbe, 0x75, 0x50, 0x46, 0xbe,
  0xb9, 0xc9, 0x2e, 0xbd, 0x33, 0x89, 0x81, 0xbe, 0x13, 0x6b, 0x58, 0x3c,
  0x02, 0xad, 0x3e, 0xbe, 0x16, 0x0c, 0x16, 0xbb, 0x7d, 0x6e, 0xc4, 0xbd,
  0x24, 0xa9, 0xf0, 0x3d, 0x38, 0x6a, 0x47, 0xbd, 0xd3, 0x42, 0x86, 0x3e,
  0x9d, 0x2a, 0x1e, 0x3e, 0x1b, 0x41, 0x88, 0x3d, 0x95, 0xb4, 0x2d, 0x3d,
  0x17, 0xbb, 0x7f, 0xbc, 0xa9, 0x35, 0xf6, 0x3c, 0x3f, 0xfc, 0x44, 0x3e,
  0x98, 0xe3, 0x81, 0xbd, 0xa9, 0xe1, 0x42, 0xbc, 0x9d, 0x58, 0xa2, 0x3c,
  0x1b, 0x7c, 0xd3, 0xbd, 0xc3, 0x52, 0xb9, 0x3d, 0x3a, 0x69, 0xcc, 0xbd,
  0x5c, 0xa4, 0x96, 0xbe, 0x5e, 0x6b, 0x34, 0x3e, 0xf0, 0x24, 0x2b, 0x3f,
  0xeb, 0x25, 0xb0, 0x3d, 0x7a, 0xf0, 0x85, 0x3e, 0x65, 0x56, 0xa1, 0x3d,
  0x7e, 0xc0, 0xb7, 0x3e, 0x38, 0xbc, 0xd9, 0xbd, 0x2a, 0xa1, 0x90, 0xbd,
  0xf0, 0xaf, 0x9c, 0xbd, 0xd8, 0xe2, 0x87, 0x3d, 0xaa, 0xdc, 0x62, 0x3d,
  0x55, 0x13, 0xa0, 0x3d, 0x61, 0xb4, 0xb1, 0x3c, 0x38, 0xb2, 0xfc, 0xbe,
  0x46, 0x49, 0x2b, 0xbe, 0xb3, 0xc9, 0xe4, 0x3e, 0xe4, 0xc8, 0x21, 0x3b,
  0xeb, 0xa9, 0xc8, 0xbc, 0xe4, 0x80, 0x42, 0x3e, 0x37, 0x7d, 0x19, 0x3e,
  0x1f, 0x18, 0xe9, 0xbe, 0x1d, 0xb6, 0xf5, 0xbe, 0x5e, 0x1a, 0xe5, 0x3d,
  0xbf, 0xfd, 0xb2, 0xbe, 0x6a, 0xf8, 0xd7, 0x3c, 0x28, 0x22, 0x33, 0x3e,
  0xe4, 0xe7, 0x62, 0xbe, 0x67, 0x00, 0x12, 0xbf, 0xa0, 0x5a, 0x3a, 0xbe,
  0x1c, 0x06, 0x93, 0x3e, 0x40, 0x3f, 0xb6, 0x3e, 0xf5, 0x60, 0x2d, 0xbe,
  0xfe, 0xc3, 0xcb, 0xbd, 0x9c, 0x27, 0x47, 0x3e, 0x18, 0x3e, 0x01, 0xbd,
  0x27, 0x30, 0x74, 0xbe, 0xa4, 0xb2, 0x7a, 0x3e, 0xcd, 0x71, 0x7c, 0xbe,
  0x70, 0x88, 0x02, 0x3d, 0x99, 0x64, 0x65, 0x3e, 0x7e, 0x0e, 0xb2, 0xbe,
  0xc6, 0x2a, 0x80, 0x3d, 0x28, 0x6d, 0xac, 0x3d, 0x0a, 0xe2, 0x8e, 0xbe,
  0xc3, 0xfa, 0x6e, 0xbc, 0x88, 0x2f, 0x86, 0xbd, 0x14, 0x7d, 0xb0, 0xbd,
  0xd0, 0xa1, 0x78, 0x3e, 0xf4, 0x7f, 0x32, 0xbe, 0xe6, 0x88, 0x6a, 0xbd,
  0x0f, 0x1f, 0x54, 0xbd, 0x84, 0x54, 0x56, 0x3e, 0xd4, 0xf9, 0x1d, 0x3f,
  0x3e, 0x59, 0x21, 0x3e, 0x03, 0x9d, 0xb0, 0x3d, 0x1a, 0x5b, 0xa8, 0xbd,
  0x3d, 0x46, 0x64, 0xbd, 0xcb, 0x6b, 0x24, 0x3e, 0x2a, 0x50, 0x72, 0xbd,
  0x14, 0x3f, 0xa8, 0xbc, 0x23, 0xd8, 0xd2, 0xbd, 0xe8, 0x0d, 0x3d, 0x3d,
  0x14, 0x4f, 0xe8, 0xbd, 0x09, 0x40, 0x7f, 0xbe, 0x42, 0x66, 0x9a, 0xbd,
  0xa9, 0xa9, 0xd4, 0x3d, 0x11, 0x25, 0xc0, 0x3d, 0x1b, 0x9f, 0x80, 0x3d,
  0x47, 0xed, 0x74, 0x3d, 0x08, 0x23, 0x02, 0x3e, 0xb4, 0x31, 0xac, 0x3d,
  0x95, 0xc1, 0x12, 0x3e, 0x2d, 0xef, 0x14, 0x3d, 0xb8, 0xc7, 0xbe, 0x3d,
  0xea, 0xc5, 0xca, 0xbd, 0x13, 0x2a, 0xe1, 0x3d, 0xb6, 0x9e, 0x68, 0xbe,
  0x58, 0x10, 0xf2, 0xbe, 0xb2, 0xd4, 0x85, 0xbd, 0x4e, 0x38, 0xe5, 0x3d,
  0x27, 0x19, 0x5e, 0xbd, 0x43, 0x6e, 0x37, 0x3d, 0xde, 0x2a, 0xaf, 0x3d,
  0xeb, 0x4e, 0xbf, 0x3d, 0xe8, 0x29, 0xc0, 0xbd, 0x70, 0x58, 0x06, 0xbf,
  0xda, 0xda, 0x41, 0x3d, 0x03, 0xb3, 0x89, 0xbe, 0xd0, 0xb8, 0x3c, 0xbd,
  0x40, 0x29, 0x80, 0x3e, 0x15, 0x9c, 0xd9, 0x3d, 0x30, 0x16, 0x0b, 0xbf,
  0x7e, 0x7c, 0x99, 0x3b, 0xdd, 0xd7, 0x22, 0xbe, 0xb7, 0xbc, 0xad, 0xbc,
  0xa8, 0x91, 0x01, 0x3e, 0x92, 0x7e, 0x10, 0xbe, 0x1d, 0xa1, 0xfa, 0xbe,
  0x16, 0xb3, 0xaa, 0x3e, 0x7e, 0xc8, 0x20, 0xbf, 0xe8, 0x13, 0x12, 0x3e,
  0x8e, 0xe2, 0x0a, 0xbe, 0x9f, 0x00, 0x14, 0x3d, 0xd0, 0x0c, 0x3f, 0x3d,
  0xe3, 0x50, 0x04, 0xbe, 0x43, 0xf2, 0xf7, 0xbc, 0x04, 0x16, 0xb4, 0x3e,
  0x9c, 0x9f, 0xd5, 0xbd, 0x64, 0x88, 0xab, 0x3e, 0x9e, 0xb6, 0x0d, 0xbd,
  0xf5, 0xb0, 0xec, 0xbb, 0x6a, 0xa5, 0x5d, 0xbc, 0xa5, 0x25, 0xbb, 0xbd,
  0xe2, 0x38, 0x3f, 0xbe, 0x73, 0x75, 0x18, 0x3e, 0x4b, 0x38, 0xa5, 0xbb,
  0x42, 0x34, 0x94, 0x3e, 0x2a, 0x08, 0x91, 0xbd, 0xe6, 0xcd, 0x3f, 0x3e,
  0x97, 0x2c, 0x4d, 0xbe, 0x23, 0xe9, 0xab, 0x3e, 0x42, 0x54, 0x73, 0x3e,
  0xb8, 0xcd, 0x37, 0x3e, 0x62, 0x90, 0xbe, 0xbe, 0x83, 0x81, 0xaf, 0x3d,
  0x9b, 0xe2, 0xe0, 0xbe, 0xad, 0x4f, 0x03, 0x3e, 0xc3, 0xd3, 0x9c, 0xbe,
  0x82, 0xbc, 0x0f, 0xbe, 0x16, 0xbd, 0xd4, 0xbc, 0x76, 0x0e, 0xc6, 0x3b,
  0x36, 0x8f, 0x81, 0xbe, 0x32, 0xa8, 0x1b, 0x3e, 0x27, 0x61, 0xb5, 0xbe,
  0x2f, 0x30, 0xda, 0x3d, 0x57, 0xec, 0x28, 0x3d, 0xbc, 0x01, 0x0d, 0xbe,
  0xff, 0xdf, 0xe8, 0xbd, 0xd0, 0x44, 0x8b, 0x3c, 0x21, 0x55, 0x7c, 0x3e,
  0xda, 0xba, 0xef, 0x3e, 0xff, 0xf7, 0xfc, 0x3c, 0xe7, 0xaf, 0x8b, 0x3e,
  0x4c, 0x12, 0x30, 0x3c, 0xc6, 0x03, 0x02, 0xbe, 0xcc, 0xcf, 0xcf, 0x3d,
  0x41, 0x62, 0x04, 0xbd, 0x2b, 0x2a, 0x35, 0x3e, 0xe1, 0x58, 0x2e, 0x3e,
  0xd9, 0x4c, 0x24, 0x3c, 0xd3, 0x1c, 0xff, 0xbd, 0x5e, 0x0c, 0x00, 0x3d,
  0xc2, 0xb7, 0x3a, 0x3d, 0x71, 0x0d, 0x1d, 0xbe, 0x1f, 0xe8, 0x1b, 0x3d,
  0xba, 0xed, 0x1e, 0xbe, 0x13, 0x16, 0x9c, 0x3c, 0x86, 0xe4, 0xd9, 0xba,
  0xeb, 0x16, 0xca, 0xbd, 0x74, 0x56, 0x2f, 0xbe, 0xa1, 0x40, 0x9d, 0xbb,
  0xcc, 0x61, 0x9c, 0xbe, 0x8a, 0xe3, 0x08, 0x3e, 0x26, 0x1b, 0x79, 0xbe,
  0xc4, 0x5a, 0x6b, 0x3d, 0xe0, 0xcc, 0xd7, 0xbe, 0xb4, 0x1a, 0x84, 0x3e,
  0x44, 0x18, 0x18, 0x3d, 0x3c, 0x4c, 0x96, 0xbc, 0x15, 0x44, 0x89, 0xbd,
  0x66, 0x6c, 0x71, 0x3e, 0xbc, 0x03, 0xd5, 0x3d, 0x98, 0x82, 0x8f, 0x3d,
  0xfe, 0x1c, 0x40, 0x3d, 0x5d, 0x70, 0xe5, 0xbe, 0x52, 0xdc, 0x0a, 0xbf,
  0x8b, 0x51, 0xfa, 0xbe, 0xf0, 0x9a, 0x2f, 0x3c, 0xa2, 0xb5, 0x15, 0x3e,
  0xf6, 0x45, 0xa0, 0x3e, 0x83, 0xff, 0x16, 0xbe, 0x7c, 0x9d, 0x8e, 0xbd,
  0x8f, 0x9f, 0x35, 0x3e, 0x8a, 0x45, 0xe8, 0x3d, 0xb6, 0x7c, 0xee, 0x3b,
  0xc9, 0x77, 0xad, 0x3e, 0x86, 0x25, 0xa4, 0x3d, 0x09, 0x0e, 0x74, 0xbe,
  0x31, 0x05, 0xae, 0x3d, 0xaa, 0xf3, 0xbc, 0xbe, 0xe6, 0x66, 0x7d, 0xbe,
  0x8e, 0x45, 0xdb, 0xbc, 0x97, 0x3b, 0xc2, 0xbc, 0x11, 0x50, 0x42, 0xbe,
  0x45, 0x69, 0x26, 0x3d, 0x64, 0x1f, 0x68, 0x3c, 0xab, 0xb6, 0x68, 0xbe,
  0x33, 0x65, 0x67, 0xbd, 0x5c, 0x70, 0xed, 0xbe, 0x06, 0xda, 0x21, 0xbd,
  0x4b, 0xcd, 0x34, 0x3c, 0x65, 0x9a, 0x8b, 0x3e, 0x63, 0xb4, 0x25, 0x3e,
  0xec, 0x60, 0xea, 0x3e, 0xfb, 0x66, 0x37, 0xbe, 0xeb, 0x0d, 0x30, 0xbd,
  0x52, 0xf6, 0x63, 0xbe, 0x5e, 0xa6, 0x36, 0xbf, 0xaa, 0xea, 0x10, 0xbd,
  0xe1, 0x07, 0x6b, 0x3e, 0x30, 0xbc, 0x3a, 0xbe, 0xfa, 0xec, 0xf9, 0x3c,
  0x7f, 0xf9, 0xd2, 0x3d, 0xfd, 0x5e, 0x1c, 0x3e, 0x27, 0x90, 0x34, 0xbd,
  0x0c, 0xce, 0x45, 0x3e, 0x64, 0x5d, 0x75, 0x3e, 0xb0, 0xfc, 0xea, 0xbc,
  0x93, 0xe7, 0xdb, 0xbe, 0x52, 0xc5, 0x3b, 0xbd, 0xec, 0x2c, 0xaa, 0x3e,
  0x3e, 0x70, 0x7a, 0xbd, 0x17, 0x12, 0x63, 0x3e, 0x88, 0x86, 0xcd, 0xbe,
  0x6a, 0x6e, 0x17, 0xbe, 0x1b, 0xd3, 0x27, 0x3f, 0x2f, 0xde, 0x0d, 0x3e,
  0x30, 0x55, 0x26, 0x3f, 0x2a, 0x5c, 0xa8, 0xbd, 0x7f, 0xce, 0x51, 0x3f,
  0x60, 0x4f, 0xe4, 0x3e, 0x09, 0x39, 0x1e, 0x3e, 0x23, 0x78, 0x8a, 0x3e,
  0x74, 0x2b, 0x96, 0x3c, 0x40, 0xe4, 0x36, 0xbd, 0x78, 0x03, 0xd0, 0x3c,
  0x57, 0x2a, 0xcf, 0xbe, 0x7a, 0xfd, 0x0e, 0x3d, 0x5c, 0xf9, 0xa6, 0x3d,
  0x97, 0x40, 0xdd, 0xbd, 0x52, 0x62, 0x9b, 0xbd, 0xe3, 0xf8, 0x65, 0xbc,
  0x2b, 0x6f, 0x3a, 0xbd, 0x06, 0x96, 0x06, 0x3e, 0x3b, 0x01, 0xbc, 0x3e,
  0x77, 0x27, 0x57, 0x3c, 0xbf, 0x8c, 0xa8, 0x3c, 0x36, 0xb0, 0xd6, 0x3e,
  0x11, 0x87, 0x15, 0xbc, 0xe6, 0xd1, 0xb0, 0xbd, 0x89, 0xf3, 0x4c, 0xbe,
  0xe8, 0x48, 0x43, 0xbe, 0xc2, 0x9f, 0x0e, 0x3e, 0xb0, 0x5a, 0x80, 0x3e,
  0x2d, 0x1a, 0x88, 0xbe, 0xe4, 0x94, 0x5b, 0x3e, 0x05, 0x9f, 0xfd, 0x3d,
  0x63, 0x22, 0x79, 0xb6, 0x5a, 0x62, 0x95, 0x3e, 0x0a, 0xc8, 0x80, 0xbe,
  0xc3, 0x79, 0x51, 0xbe, 0x15, 0xeb, 0x7d, 0x3e, 0xd4, 0x45, 0x95, 0xbd,
  0x18, 0x5b, 0x9b, 0x3d, 0x53, 0xfe, 0x53, 0x3e, 0xca, 0xe3, 0x13, 0xbe,
  0x8a, 0x3c, 0x1f, 0x3d, 0xc2, 0x0a, 0x01, 0xbe, 0x96, 0x4d, 0x3d, 0xbf,
  0xca, 0xae, 0x2d, 0x3d, 0xa1, 0x02, 0x9b, 0xbd, 0x71, 0xa2, 0x23, 0xbd,
  0xc2, 0xba, 0x8f, 0x3c, 0xed, 0xef, 0x5e, 0xbd, 0x53, 0xb0, 0x37, 0xbe,
  0x71, 0x30, 0x80, 0x3c, 0xce, 0xac, 0xda, 0x3d, 0x68, 0x1c, 0x2c, 0x3e,
  0x4f, 0xce, 0xae, 0x3d, 0x1d, 0x09, 0x98, 0x3d, 0x89, 0x62, 0x02, 0x3e,
  0xe9, 0x36, 0x9c, 0x3c, 0x7c, 0xba, 0x0c, 0xbf, 0xea, 0x6a, 0xe2, 0x3d,
  0x29, 0x58, 0x6a, 0x3e, 0xa6, 0x90, 0xa7, 0xbe, 0xf9, 0x31, 0xd6, 0xbe,
  0x6d, 0x64, 0x98, 0xbd, 0x23, 0xe8, 0x95, 0xbf, 0x61, 0xb1, 0x9e, 0xbd,
  0x78, 0xcc, 0x18, 0xbf, 0xf3, 0x35, 0x22, 0xbe, 0x2f, 0x8d, 0x10, 0x3e,
  0x5c, 0x8f, 0xa3, 0xbd, 0x31, 0x94, 0x13, 0xbe, 0x88, 0xb6, 0x2d, 0x3e,
  0x24, 0xd4, 0x74, 0xbc, 0xcd, 0xd0, 0x32, 0xbf, 0x38, 0x14, 0x15, 0xbf,
  0x90, 0x25, 0x15, 0x3b, 0xa0, 0xbf, 0xd1, 0x3d, 0xf5, 0x92, 0x69, 0x3e,
  0x86, 0x05, 0x0e, 0x3f, 0x63, 0xf4, 0x72, 0x3e, 0x75, 0xd3, 0x16, 0xbd,
  0x5c, 0x9a, 0x7d, 0xbd, 0xe1, 0x5f, 0xcd, 0xbe, 0x8e, 0xc8, 0x98, 0xbb,
  0x14, 0x1c, 0x98, 0x3e, 0x36, 0x6c, 0xce, 0xbe, 0x41, 0x2d, 0xba, 0x3d,
  0x95, 0x89, 0x0d, 0xbd, 0xde, 0xc9, 0x10, 0xbf, 0x75, 0x3a, 0x77, 0xbe,
  0xf7, 0x0f, 0x93, 0xbe, 0x54, 0x15, 0x9f, 0x3e, 0x9c, 0x85, 0x3f, 0xbe,
  0x41, 0xcf, 0xd6, 0x3d, 0x59, 0x29, 0x3c, 0xbe, 0x8a, 0x3a, 0x5b, 0x3d,
  0xcc, 0x66, 0x62, 0xbf, 0xfb, 0xf5, 0x07, 0xbd, 0x02, 0xed, 0x9f, 0xbe,
  0x50, 0xa7, 0x80, 0x3e, 0xed, 0xa3, 0x32, 0xbf, 0x6f, 0x71, 0x88, 0x3e,
  0xf8, 0xee, 0x16, 0x3e, 0xc8, 0x25, 0xd8, 0xbe, 0xd0, 0xa9, 0x5c, 0xbd,
  0xbd, 0x94, 0x9f, 0x3e, 0x09, 0x27, 0xcd, 0x3e, 0x8d, 0x4e, 0x20, 0xbd,
  0x04, 0xf9, 0x80, 0x3c, 0x32, 0x94, 0xce, 0xbd, 0xb3, 0xa2, 0x70, 0x3d,
  0x17, 0x9c, 0xca, 0x3c, 0xe5, 0xcb, 0x3a, 0x3e, 0x39, 0xfe, 0xac, 0xbe,
  0xa8, 0x7e, 0xe2, 0xbd, 0x3d, 0xa7, 0xea, 0x3d, 0x8e, 0x01, 0xf3, 0x3e,
  0x77, 0x06, 0x63, 0x3e, 0xe1, 0xc8, 0xa4, 0xbd, 0xac, 0xaf, 0xa2, 0xbd,
  0x10, 0x28, 0xae, 0x3d, 0x9c, 0xb9, 0x7c, 0x3e, 0x25, 0x6f, 0x1c, 0x3e,
  0x29, 0x6f, 0xa7, 0xbb, 0x77, 0xe3, 0x7f, 0x3c, 0xd5, 0xb9, 0x9a, 0x3e,
  0xfb, 0x3e, 0x06, 0x3d, 0x63, 0x09, 0xa3, 0x3e, 0x91, 0x75, 0xe7, 0x3d,
  0xcf, 0xda, 0xd6, 0xbd, 0x2d, 0xff, 0x09, 0x3e, 0x41, 0xaf, 0x26, 0x3f,
  0x3f, 0x59, 0x31, 0x3e, 0xd5, 0x78, 0x30, 0x3f, 0xfe, 0x86, 0xc7, 0x3d,
  0xc8, 0x30, 0x88, 0xbd, 0x5f, 0xe8, 0x3f, 0x3e, 0x63, 0x24, 0x2c, 0x3e,
  0xf9, 0x94, 0x95, 0x3d, 0x2a, 0x67, 0xec, 0x3b, 0xb6, 0xc1, 0xe8, 0xbd,
  0xc3, 0x08, 0x67, 0xbe, 0x9e, 0x37, 0xea, 0xbc, 0x60, 0xa9, 0x3b, 0x3c,
  0x79, 0x49, 0xfc, 0xbb, 0x6a, 0x13, 0x0a, 0xbe, 0x96, 0xfc, 0x12, 0xbd,
  0x9d, 0x69, 0x99, 0x3c, 0x19, 0xef, 0x08, 0x3a, 0x8f, 0x11, 0xc7, 0x3d,
  0xb3, 0xe2, 0x92, 0x3d, 0xbe, 0xcd, 0x65, 0x3e, 0x12, 0x1e, 0xa1, 0x3e,
  0x9b, 0x73, 0x73, 0x3e, 0x3d, 0x4f, 0x62, 0x3e, 0x4a, 0xea, 0xfa, 0x3c,
  0x78, 0x82, 0x12, 0xbd, 0x4d, 0x37, 0x9f, 0x3e, 0x62, 0x69, 0x48, 0x3a,
  0x95, 0xe2, 0x5f, 0xbe, 0x4e, 0xcf, 0xe7, 0x3d, 0xec, 0x1e, 0xb5, 0x3d,
  0xb1, 0xc9, 0x87, 0xbd, 0x16, 0xba, 0xc5, 0xbd, 0xb4, 0xa5, 0x3e, 0x3e,
  0x21, 0x60, 0x2f, 0xbe, 0x59, 0x12, 0x3d, 0xbd, 0x31, 0xc2, 0xac, 0x3e,
  0xbf, 0x54, 0xec, 0xba, 0x30, 0xaf, 0xd3, 0x3d, 0x0d, 0x6f, 0x6d, 0x3e,
  0x6b, 0xd7, 0xab, 0x3d, 0xc0, 0x2b, 0xf8, 0xbe, 0xf4, 0xee, 0x65, 0xbe,
  0xe4, 0xa1, 0x76, 0xbd, 0xda, 0x7f, 0x69, 0xbe, 0x08, 0xe1, 0x8e, 0x3e,
  0x06, 0x3d, 0x80, 0x3d, 0x0b, 0x5c, 0xa2, 0xbd, 0x83, 0x15, 0xf3, 0x3d,
  0x02, 0xac, 0x25, 0xbc, 0xe2, 0x94, 0x6b, 0xbe, 0xba, 0x4b, 0x24, 0x3e,
  0x31, 0xe2, 0xc2, 0xbe, 0x28, 0x1c, 0xdd, 0x3d, 0x2a, 0x78, 0x27, 0xbe,
  0xba, 0x86, 0x91, 0x3d, 0x72, 0x3a, 0x78, 0xbe, 0x76, 0x61, 0x78, 0x3e,
  0x74, 0x67, 0xb4, 0xbd, 0x1e, 0x06, 0x94, 0xbc, 0x1d, 0x5b, 0xc3, 0xbd,
  0xd5, 0xf3, 0xbb, 0xbd, 0x16, 0xaf, 0x12, 0xbf, 0x6c, 0x0f, 0x86, 0x3e,
  0x05, 0x1d, 0x48, 0x3e, 0x02, 0x67, 0x23, 0xbe, 0xbc, 0xa1, 0x4a, 0x3e,
  0x74, 0x85, 0xe0, 0xbe, 0x04, 0xc7, 0x19, 0x3d, 0x01, 0x07, 0xef, 0xbd,
  0xab, 0xc0, 0xd5, 0xbd, 0x91, 0xe2, 0x83, 0xbe, 0xbd, 0x88, 0x35, 0xbe,
  0x5b, 0xab, 0x71, 0x3e, 0x15, 0xa7, 0x64, 0xbd, 0x50, 0x25, 0x81, 0x3e,
  0xb4, 0x76, 0x24, 0x3e, 0x85, 0x12, 0x14, 0xbf, 0x84, 0xc4, 0x64, 0xbf,
  0x4b, 0x94, 0x2f, 0x3e, 0x77, 0x24, 0x49, 0xbe, 0x1d, 0x63, 0x04, 0x3c,
  0x92, 0xff, 0xcd, 0x3b, 0x6f, 0x0b, 0x79, 0x3e, 0xa3, 0x32, 0x56, 0x39,
  0x0c, 0x5f, 0x02, 0x3d, 0xea, 0x3b, 0x27, 0x3d, 0x34, 0x4f, 0x87, 0x3e,
  0x48, 0xf2, 0x8e, 0x3e, 0xd9, 0x7d, 0xa9, 0xbd, 0x51, 0x8d, 0x80, 0xbf,
  0x4f, 0xb7, 0xb6, 0x3d, 0x7d, 0xd3, 0xe2, 0x3b, 0xf3, 0xeb, 0x53, 0xbf,
  0xb6, 0xd3, 0xe8, 0xbe, 0xc6, 0xe1, 0xe4, 0xbd, 0x36, 0x2b, 0x0c, 0x3e,
  0xc2, 0xc2, 0xcb, 0xbd, 0xa3, 0x05, 0x58, 0xbe, 0xf8, 0xca, 0x54, 0xbd,
  0x1d, 0xca, 0xce, 0xbe, 0x01, 0x99, 0x4f, 0xbd, 0xf2, 0xcb, 0x5d, 0xbd,
  0x0f, 0x21, 0x6c, 0xbd, 0xf4, 0xb6, 0x1d, 0xbe, 0xe7, 0xae, 0x7a, 0x3e,
  0xf2, 0x5e, 0xae, 0xbb, 0x53, 0xd0, 0xf5, 0x3e, 0x32, 0x71, 0x07, 0xbe,
  0xa2, 0x3c, 0x3d, 0x3e, 0x78, 0x81, 0xfc, 0x3b, 0x35, 0x7e, 0x7b, 0xbd,
  0x47, 0xfe, 0x97, 0xbe, 0x8f, 0x93, 0xcb, 0xbd, 0xb5, 0xbe, 0xb6, 0xbc,
  0xf7, 0xc9, 0x1a, 0xbe, 0xfa, 0x88, 0x8b, 0x3d, 0x88, 0x34, 0x9f, 0xbe,
  0x3e, 0x67, 0xab, 0xbe, 0x46, 0xb8, 0xeb, 0x3d, 0xa4, 0xbb, 0x74, 0x3d,
  0x5c, 0xd4, 0x73, 0x3e, 0xd5, 0xf5, 0xad, 0xbe, 0x02, 0x8c, 0x8f, 0xbe,
  0xfe, 0x88, 0x06, 0xbd, 0x00, 0x2a, 0xbd, 0xbd, 0x6b, 0x10, 0x2e, 0xbe,
  0x0c, 0xc2, 0xee, 0xbc, 0xf5, 0x57, 0x98, 0x3b, 0x87, 0x1f, 0x73, 0xbc,
  0xe3, 0xaf, 0x2d, 0xbe, 0x07, 0x23, 0xb1, 0xbc, 0x48, 0x1d, 0x77, 0xbd,
  0xa4, 0x44, 0xf7, 0xbb, 0xe5, 0xce, 0xc7, 0xbd, 0x5b, 0xa3, 0x8d, 0xbd,
  0x09, 0x94, 0xe4, 0xbd, 0xca, 0xc7, 0x8f, 0xbc, 0x98, 0x2a, 0x29, 0x3c,
  0xc6, 0xed, 0x37, 0xbe, 0xb2, 0xf8, 0x28, 0xbe, 0x70, 0x77, 0xc6, 0xba,
  0xb6, 0xa3, 0xb1, 0xbb, 0xa7, 0x72, 0x05, 0xbe, 0xb5, 0x6f, 0x7b, 0xbd,
  0xd4, 0x2f, 0xed, 0xbd, 0xc2, 0xc4, 0x40, 0xbe, 0x0f, 0xe3, 0x29, 0xbd,
  0x63, 0x3e, 0x1d, 0xbe, 0xe6, 0x8b, 0xb1, 0xbd, 0x2b, 0x7d, 0xef, 0xbd,
  0x4c, 0xf5, 0xac, 0x3c, 0xbc, 0x88, 0x46, 0xbe, 0xa0, 0xee, 0xd5, 0xbc,
  0xf8, 0x66, 0xbb, 0xbd, 0x64, 0xe4, 0x1a, 0xbe, 0xa4, 0x12, 0xd2, 0xbd,
  0x3c, 0x56, 0xf8, 0xbd, 0x38, 0x31, 0x0f, 0x3c, 0xe0, 0xa7, 0x9d, 0xbd,
  0x72, 0x20, 0xc4, 0x3c, 0xef, 0x75, 0x15, 0x3d, 0x59, 0xb7, 0x58, 0x3c,
  0xe4, 0x3f, 0x02, 0xbe, 0xcf, 0x52, 0x33, 0xbe, 0x83, 0xe3, 0x99, 0xbd,
  0x65, 0x57, 0x3b, 0xbe, 0xdd, 0xaa, 0xd8, 0xbc, 0x68, 0x8f, 0x7c, 0x3c,
  0xf9, 0x04, 0xc5, 0xbd, 0x7f, 0x47, 0xe0, 0xbc, 0xea, 0x27, 0x3e, 0xbe,
  0x64, 0xd6, 0xc8, 0xbd, 0xf0, 0x1a, 0x18, 0xbe, 0xe3, 0x98, 0xee, 0xbc,
  0xe5, 0x98, 0x1d, 0xbd, 0x5f, 0x24, 0xdb, 0x3c, 0x20, 0x80, 0xa8, 0xbd,
  0xd2, 0x3c, 0x13, 0xbe, 0x3b, 0x07, 0xc3, 0xbd, 0x60, 0xe5, 0x93, 0xbd,
  0x89, 0x6b, 0x46, 0xbd, 0xc2, 0x06, 0x2f, 0xbe, 0xb4, 0xf3, 0x25, 0xbe,
  0x2a, 0x7b, 0xa2, 0xbd, 0x83, 0xe2, 0xdb, 0xbd, 0x9f, 0xf6, 0x0e, 0xbe,
  0xb8, 0x7f, 0xc4, 0xbd, 0x0e, 0x56, 0xc7, 0xbd, 0xd5, 0x10, 0x96, 0xbd,
  0x5a, 0xe7, 0x88, 0x3d, 0xcc, 0x9d, 0x17, 0xbe, 0x5e, 0x1c, 0xf3, 0xbe,
  0x05, 0x01, 0x9a, 0xbc, 0x48, 0x7f, 0x03, 0xbc, 0x58, 0xc6, 0x9c, 0xbe,
  0x28, 0xd8, 0xa0, 0x3d, 0xaa, 0x8e, 0xb3, 0x3d, 0x26, 0x1c, 0xfc, 0xbd,
  0xff, 0xe0, 0x30, 0x3f, 0x32, 0x82, 0xbd, 0x3d, 0x7c, 0xa5, 0x0c, 0xbf,
  0x90, 0x48, 0x73, 0xbe, 0x47, 0x93, 0x1e, 0xbf, 0x72, 0x92, 0x0d, 0xbe,
  0xd8, 0xe0, 0xf9, 0xbe, 0x64, 0x53, 0xfc, 0xbe, 0x13, 0x8b, 0x0e, 0x3e,
  0x7d, 0x5a, 0xdc, 0x3c, 0x4f, 0x72, 0xd8, 0x3d, 0x9a, 0xfe, 0xa9, 0xbd,
  0xdb, 0x34, 0xed, 0xbe, 0x86, 0x03, 0xa1, 0x3d, 0x65, 0xc9, 0x13, 0x3f,
  0x10, 0xd1, 0x16, 0xbe, 0x38, 0x1f, 0x29, 0xbe, 0x2d, 0x06, 0x28, 0x3e,
  0x3f, 0xab, 0x5d, 0xbd, 0xcf, 0xec, 0x35, 0x3e, 0x17, 0x5e, 0x29, 0xbe,
  0x73, 0x57, 0xa1, 0xbb, 0x33, 0x15, 0x46, 0x3f, 0x86, 0x15, 0x3b, 0x3e,
  0x6b, 0xf3, 0x49, 0x3a, 0xc4, 0x61, 0x11, 0xbe, 0xab, 0xaa, 0x8d, 0x3e,
  0xfb, 0x12, 0xde, 0x3d, 0xc3, 0x0d, 0x97, 0xbd, 0xe7, 0x5c, 0x52, 0xbe,
  0xa3, 0xfd, 0xe7, 0x3d, 0x26, 0xb7, 0x40, 0xbe, 0xcf, 0x70, 0xc7, 0xbe,
  0x44, 0xae, 0x96, 0xbd, 0x06, 0x63, 0x2d, 0xbd, 0xda, 0xa0, 0x58, 0xbd,
  0xf6, 0x67, 0xf4, 0x3d, 0xed, 0x2a, 0x2d, 0x3e, 0xda, 0xa4, 0xf4, 0xbe,
  0x4c, 0x9a, 0x4d, 0xbe, 0x50, 0xd6, 0xe1, 0x3c, 0x52, 0xe1, 0x9a, 0xbe,
  0xa9, 0x2d, 0x19, 0xbb, 0x97, 0x5d, 0x8d, 0x3e, 0x46, 0x6e, 0xcd, 0x3d,
  0x86, 0x55, 0x87, 0x3d, 0xee, 0x0c, 0x61, 0xbe, 0x72, 0xfc, 0x7e, 0x3e,
  0x34, 0x63, 0x92, 0x3e, 0xdc, 0xb4, 0x43, 0x3e, 0x04, 0x31, 0x2d, 0xbf,
  0x1a, 0xfb, 0x49, 0x3e, 0xe0, 0xab, 0x8e, 0xbe, 0xcc, 0xbd, 0x39, 0x3e,
  0x66, 0xfd, 0xff, 0xff, 0x04, 0x00, 0x00, 0x00, 0x00, 0x02, 0x00, 0x00,
  0x61, 0x3b, 0xb4, 0x3d, 0x0c, 0xca, 0x46, 0xbe, 0x02, 0xac, 0x81, 0x3d,
  0xe1, 0x74, 0x1a, 0xbe, 0xe8, 0x40, 0xa5, 0xbd, 0xaa, 0x38, 0x65, 0x3e,
  0xdd, 0x31, 0x57, 0xbd, 0xa9, 0xcc, 0x0b, 0x3f, 0x15, 0x5a, 0x8b, 0xbd,
  0x3d, 0x3a, 0x41, 0xbe, 0x47, 0xa5, 0x91, 0xbe, 0x7b, 0x36, 0x72, 0xbd,
  0x26, 0x80, 0x32, 0xbe, 0x57, 0xb5, 0xa4, 0x3d, 0x6f, 0x76, 0x79, 0xbd,
  0x5b, 0x9d, 0xec, 0xbc, 0x54, 0x07, 0xa2, 0x3e, 0x11, 0x42, 0xcf, 0x3d,
  0x2e, 0x8f, 0x95, 0xbd, 0x45, 0xc4, 0x12, 0xbf, 0x22, 0x21, 0x3a, 0x3e,
  0x8c, 0xc4, 0x5f, 0x3d, 0xfd, 0x6a, 0x07, 0x3c, 0xc5, 0xeb, 0xe9, 0xbc,
  0xb7, 0xb7, 0x58, 0x3d, 0x3e, 0x49, 0x74, 0x3e, 0x86, 0xf5, 0x39, 0x3e,
  0x22, 0x37, 0x8a, 0x3c, 0x1a, 0x92, 0x5b, 0x3e, 0xab, 0x1d, 0x1f, 0x3d,
  0x9c, 0xec, 0x0b, 0x3e, 0xa2, 0xc9, 0xe1, 0xbd, 0x21, 0xa0, 0x38, 0x3d,
  0x92, 0xf7, 0x6b, 0xbe, 0xb4, 0x0a, 0xdb, 0xbb, 0xcf, 0x50, 0x9f, 0xbd,
  0x98, 0x73, 0xf9, 0xbd, 0x57, 0x47, 0x6b, 0xbe, 0x6e, 0x60, 0xec, 0xbd,
  0x8c, 0xc7, 0x45, 0xbf, 0x8a, 0xa3, 0x01, 0xbe, 0x9b, 0xc5, 0x76, 0x3e,
  0x09, 0xac, 0x34, 0x3c, 0x75, 0xb0, 0x64, 0xbd, 0x07, 0xfd, 0x37, 0xbd,
  0x25, 0x51, 0xb9, 0x3e, 0x5b, 0xb5, 0x67, 0x3c, 0xd2, 0x80, 0x6e, 0xbd,
  0x33, 0x35, 0x09, 0xbe, 0x85, 0x75, 0xd9, 0x3d, 0x5c, 0xb4, 0x09, 0xbe,
  0x5b, 0xc9, 0xa0, 0x3e, 0x04, 0x41, 0x38, 0x3e, 0xc7, 0x6a, 0xab, 0xbd,
  0xd7, 0xd8, 0x03, 0xbe, 0xda, 0xd7, 0x7c, 0x3c, 0x65, 0x5f, 0x81, 0x3d,
  0x7d, 0x7d, 0x8f, 0x3d, 0xb5, 0x94, 0xd0, 0x3d, 0xb6, 0xb7, 0x34, 0x3c,
  0x43, 0x8a, 0xc8, 0x3d, 0xec, 0xb3, 0xe6, 0x3d, 0x3d, 0x4d, 0xc7, 0x3d,
  0x86, 0x6a, 0x17, 0x3c, 0x1d, 0x57, 0xdd, 0x3d, 0xcc, 0x0d, 0x80, 0x3e,
  0x40, 0xa6, 0x8d, 0xbe, 0x7e, 0xc8, 0x0f, 0xbe, 0xae, 0x57, 0x15, 0xbe,
  0x0d, 0x4b, 0x17, 0xbe, 0x87, 0x0c, 0xfa, 0xbc, 0xfd, 0x0d, 0x82, 0xbd,
  0xca, 0xa7, 0x97, 0x3e, 0x40, 0x01, 0x26, 0xbd, 0x38, 0x65, 0xfb, 0xbd,
  0x55, 0xdb, 0x74, 0xbd, 0x49, 0x12, 0x6f, 0x3e, 0x52, 0x83, 0x46, 0x3e,
  0x74, 0x3b, 0x15, 0x3c, 0xe2, 0x6d, 0x54, 0x3e, 0xa7, 0x25, 0x26, 0xbe,
  0x73, 0x8f, 0x83, 0xbe, 0xa1, 0x0b, 0x8b, 0x3d, 0xe9, 0x3a, 0x01, 0xbd,
  0xc2, 0x6c, 0x21, 0x3d, 0xee, 0x0e, 0x09, 0xbe, 0xfd, 0x9c, 0x57, 0xbc,
  0x28, 0x6c, 0x34, 0x3d, 0x41, 0x3a, 0x20, 0x3e, 0x57, 0x37, 0x65, 0x3e,
  0x83, 0x62, 0x0d, 0xbe, 0x80, 0x2f, 0xb2, 0x3d, 0xda, 0x6e, 0x23, 0xbd,
  0xf6, 0xd4, 0x12, 0x3e, 0x30, 0xa2, 0x3b, 0x3c, 0x1a, 0x7f, 0x6b, 0xbe,
  0x01, 0x20, 0xff, 0xbc, 0xca, 0x86, 0xe6, 0x3d, 0x56, 0xa7, 0x1f, 0xbc,
  0x9f, 0xcc, 0x88, 0x3d, 0xcc, 0xc7, 0xa6, 0xbd, 0x92, 0xd9, 0x30, 0x3e,
  0xcb, 0x72, 0x8b, 0x3d, 0x6f, 0xe4, 0x91, 0x3a, 0xe1, 0xe6, 0xe0, 0x3d,
  0xdb, 0xec, 0xa0, 0xbb, 0x25, 0xa1, 0xdb, 0x3e, 0x9f, 0xa0, 0x9c, 0x3e,
  0xcb, 0x9f, 0x8a, 0xbc, 0x99, 0x67, 0x23, 0xbd, 0xb0, 0xba, 0xc5, 0x3d,
  0xd8, 0x4a, 0xd2, 0x3a, 0x8d, 0x71, 0x6a, 0xbb, 0x9b, 0x8b, 0x67, 0xbe,
  0x5f, 0x6b, 0xda, 0x3d, 0x8e, 0xc7, 0x68, 0x3e, 0xaa, 0x2c, 0x85, 0xbe,
  0x32, 0xdf, 0x8c, 0x3e, 0x1e, 0xc0, 0x92, 0xbd, 0x72, 0xe2, 0x80, 0x3b,
  0xd8, 0x4f, 0x34, 0x3e, 0x88, 0xf6, 0x39, 0x3e, 0xfe, 0x45, 0x5c, 0xbc,
  0xe5, 0x95, 0x9f, 0xbe, 0x59, 0x32, 0x21, 0xbd, 0xaf, 0x3b, 0xae, 0xbe,
  0xa6, 0x55, 0x0f, 0xbc, 0x6c, 0x77, 0x2c, 0x3e, 0x72, 0xff, 0xff, 0xff,
  0x04, 0x00, 0x00, 0x00, 0x80, 0x00, 0x00, 0x00, 0x2a, 0x83, 0x6a, 0xbf,
  0x69, 0x41, 0x45, 0xbd, 0x9a, 0x00, 0x53, 0x3f, 0x93, 0x79, 0x01, 0xbf,
  0x5d, 0xef, 0x9a, 0x3e, 0x92, 0xab, 0xdb, 0x3e, 0xf4, 0x89, 0xbd, 0xbd,
  0xd4, 0xd9, 0xfc, 0xbd, 0xeb, 0x4c, 0xf2, 0x3e, 0xd2, 0xa2, 0x88, 0x3d,
  0x04, 0x5d, 0xc7, 0x3d, 0x7f, 0xf5, 0xf8, 0xbc, 0x5a, 0xac, 0x8f, 0x3e,
  0x6a, 0xed, 0x9b, 0x3e, 0x99, 0x1d, 0x9c, 0x3e, 0xf7, 0x06, 0x20, 0x3d,
  0xb6, 0x13, 0x18, 0xbd, 0xf4, 0xd2, 0x11, 0xbe, 0xb5, 0x55, 0x88, 0xbe,
  0xf5, 0x70, 0xb7, 0xbd, 0xfb, 0x89, 0x10, 0x3f, 0x06, 0x68, 0x0a, 0x3e,
  0x40, 0x54, 0x98, 0x3e, 0x5b, 0x9f, 0x21, 0x3f, 0x2d, 0x67, 0xcc, 0x3e,
  0xbb, 0xaf, 0xe3, 0x3d, 0xe7, 0xb3, 0x02, 0xbe, 0x69, 0xcc, 0x16, 0x3d,
  0x70, 0x4c, 0x01, 0x3f, 0x1e, 0xba, 0xba, 0x3a, 0x9b, 0x42, 0xac, 0xbd,
  0x20, 0x5b, 0x1e, 0xbe, 0x00, 0x00, 0x06, 0x00, 0x08, 0x00, 0x04, 0x00,
  0x06, 0x00, 0x00, 0x00, 0x04, 0x00, 0x00, 0x00, 0x10, 0x00, 0x00, 0x00,
  0x53, 0xfa, 0x9a, 0x3d, 0xa2, 0x5f, 0x0f, 0x3e, 0x21, 0xb1, 0x37, 0x3e,
  0xac, 0x61, 0x6b, 0x3d, 0xa8, 0xfa, 0xff, 0xff, 0xac, 0xfa, 0xff, 0xff,
  0x0f, 0x00, 0x00, 0x00, 0x4d, 0x4c, 0x49, 0x52, 0x20, 0x43, 0x6f, 0x6e,
  0x76, 0x65, 0x72, 0x74, 0x65, 0x64, 0x2e, 0x00, 0x01, 0x00, 0x00, 0x00,
  0x14, 0x00, 0x00, 0x00, 0x00, 0x00, 0x0e, 0x00, 0x18, 0x00, 0x14, 0x00,
  0x10, 0x00, 0x0c, 0x00, 0x08, 0x00, 0x04, 0x00, 0x0e, 0x00, 0x00, 0x00,
  0x14, 0x00, 0x00, 0x00, 0x1c, 0x00, 0x00, 0x00, 0xec, 0x00, 0x00, 0x00,
  0xf0, 0x00, 0x00, 0x00, 0xf4, 0x00, 0x00, 0x00, 0x04, 0x00, 0x00, 0x00,
  0x6d, 0x61, 0x69, 0x6e, 0x00, 0x00, 0x00, 0x00, 0x03, 0x00, 0x00, 0x00,
  0x90, 0x00, 0x00, 0x00, 0x48, 0x00, 0x00, 0x00, 0x04, 0x00, 0x00, 0x00,
  0x8a, 0xff, 0xff, 0xff, 0x1c, 0x00, 0x00, 0x00, 0x00, 0x00, 0x00, 0x08,
  0x1c, 0x00, 0x00, 0x00, 0x20, 0x00, 0x00, 0x00, 0x00, 0x00, 0x0a, 0x00,
  0x08, 0x00, 0x00, 0x00, 0x00, 0x00, 0x07, 0x00, 0x0a, 0x00, 0x00, 0x00,
  0x00, 0x00, 0x00, 0x01, 0x01, 0x00, 0x00, 0x00, 0x09, 0x00, 0x00, 0x00,
  0x03, 0x00, 0x00, 0x00, 0x08, 0x00, 0x00, 0x00, 0x03, 0x00, 0x00, 0x00,
  0x01, 0x00, 0x00, 0x00, 0xca, 0xff, 0xff, 0xff, 0x10, 0x00, 0x00, 0x00,
  0x00, 0x00, 0x00, 0x08, 0x10, 0x00, 0x00, 0x00, 0x14, 0x00, 0x00, 0x00,
  0xba, 0xff, 0xff, 0xff, 0x00, 0x00, 0x01, 0x01, 0x01, 0x00, 0x00, 0x00,
  0x08, 0x00, 0x00, 0x00, 0x03, 0x00, 0x00, 0x00, 0x07, 0x00, 0x00, 0x00,
  0x04, 0x00, 0x00, 0x00, 0x02, 0x00, 0x00, 0x00, 0x00, 0x00, 0x0e, 0x00,
  0x16, 0x00, 0x00, 0x00, 0x10, 0x00, 0x0c, 0x00, 0x0b, 0x00, 0x04, 0x00,
  0x0e, 0x00, 0x00, 0x00, 0x1c, 0x00, 0x00, 0x00, 0x00, 0x00, 0x00, 0x08,
  0x1c, 0x00, 0x00, 0x00, 0x20, 0x00, 0x00, 0x00, 0x00, 0x00, 0x0a, 0x00,
  0x08, 0x00, 0x07, 0x00, 0x00, 0x00, 0x06, 0x00, 0x0a, 0x00, 0x00, 0x00,
  0x00, 0x00, 0x01, 0x01, 0x01, 0x00, 0x00, 0x00, 0x07, 0x00, 0x00, 0x00,
  0x03, 0x00, 0x00, 0x00, 0x00, 0x00, 0x00, 0x00, 0x05, 0x00, 0x00, 0x00,
  0x06, 0x00, 0x00, 0x00, 0x01, 0x00, 0x00, 0x00, 0x09, 0x00, 0x00, 0x00,
  0x01, 0x00, 0x00, 0x00, 0x00, 0x00, 0x00, 0x00, 0x0a, 0x00, 0x00, 0x00,
  0x00, 0x04, 0x00, 0x00, 0x84, 0x03, 0x00, 0x00, 0x08, 0x03, 0x00, 0x00,
  0x9c, 0x02, 0x00, 0x00, 0x34, 0x02, 0x00, 0x00, 0xcc, 0x01, 0x00, 0x00,
  0x50, 0x01, 0x00, 0x00, 0xd0, 0x00, 0x00, 0x00, 0x50, 0x00, 0x00, 0x00,
  0x04, 0x00, 0x00, 0x00, 0x3e, 0xfc, 0xff, 0xff, 0x00, 0x00, 0x00, 0x01,
  0x10, 0x00, 0x00, 0x00, 0x10, 0x00, 0x00, 0x00, 0x0a, 0x00, 0x00, 0x00,
  0x28, 0x00, 0x00, 0x00, 0x28, 0xfc, 0xff, 0xff, 0x19, 0x00, 0x00, 0x00,
  0x53, 0x74, 0x61, 0x74, 0x65, 0x66, 0x75, 0x6c, 0x50, 0x61, 0x72, 0x74,
  0x69, 0x74, 0x69, 0x6f, 0x6e, 0x65, 0x64, 0x43, 0x61, 0x6c, 0x6c, 0x3a,
  0x30, 0x00, 0x00, 0x00, 0x02, 0x00, 0x00, 0x00, 0x01, 0x00, 0x00, 0x00,
  0x04, 0x00, 0x00, 0x00, 0x86, 0xfc, 0xff, 0xff, 0x00, 0x00, 0x00, 0x01,
  0x10, 0x00, 0x00, 0x00, 0x10, 0x00, 0x00, 0x00, 0x09, 0x00, 0x00, 0x00,
  0x5c, 0x00, 0x00, 0x00, 0x70, 0xfc, 0xff, 0xff, 0x4c, 0x00, 0x00, 0x00,
  0x5f, 0x5f, 0x6d, 0x61, 0x69, 0x6e, 0x5f, 0x5f, 0x2e, 0x65, 0x32, 0x65,
  0x4e, 0x65, 0x74, 0x77, 0x6f, 0x72, 0x6b, 0x2f, 0x74, 0x6f, 0x72, 0x63,
  0x68, 0x2e, 0x6e, 0x6e, 0x2e, 0x6d, 0x6f, 0x64, 0x75, 0x6c, 0x65, 0x73,
  0x2e, 0x6c, 0x69, 0x6e, 0x65, 0x61, 0x72, 0x2e, 0x4c, 0x69, 0x6e, 0x65,
  0x61, 0x72, 0x5f, 0x66, 0x63, 0x32, 0x3b, 0x3b, 0x5f, 0x5f, 0x6d, 0x61,
  0x69, 0x6e, 0x5f, 0x5f, 0x2e, 0x65, 0x32, 0x65, 0x4e, 0x65, 0x74, 0x77,
  0x6f, 0x72, 0x6b, 0x3b, 0x00, 0x00, 0x00, 0x00, 0x02, 0x00, 0x00, 0x00,
  0x01, 0x00, 0x00, 0x00, 0x20, 0x00, 0x00, 0x00, 0x02, 0xfd, 0xff, 0xff,
  0x00, 0x00, 0x00, 0x01, 0x10, 0x00, 0x00, 0x00, 0x10, 0x00, 0x00, 0x00,
  0x08, 0x00, 0x00, 0x00, 0x5c, 0x00, 0x00, 0x00, 0xec, 0xfc, 0xff, 0xff,
  0x4c, 0x00, 0x00, 0x00, 0x5f, 0x5f, 0x6d, 0x61, 0x69, 0x6e, 0x5f, 0x5f,
  0x2e, 0x65, 0x32, 0x65, 0x4e, 0x65, 0x74, 0x77, 0x6f, 0x72, 0x6b, 0x2f,
  0x74, 0x6f, 0x72, 0x63, 0x68, 0x2e, 0x6e, 0x6e, 0x2e, 0x6d, 0x6f, 0x64,
  0x75, 0x6c, 0x65, 0x73, 0x2e, 0x6c, 0x69, 0x6e, 0x65, 0x61, 0x72, 0x2e,
  0x4c, 0x69, 0x6e, 0x65, 0x61, 0x72, 0x5f, 0x66, 0x63, 0x31, 0x3b, 0x3b,
  0x5f, 0x5f, 0x6d, 0x61, 0x69, 0x6e, 0x5f, 0x5f, 0x2e, 0x65, 0x32, 0x65,
  0x4e, 0x65, 0x74, 0x77, 0x6f, 0x72, 0x6b, 0x3b, 0x00, 0x00, 0x00, 0x00,
  0x02, 0x00, 0x00, 0x00, 0x01, 0x00, 0x00, 0x00, 0x40, 0x00, 0x00, 0x00,
  0x7e, 0xfd, 0xff, 0xff, 0x00, 0x00, 0x00, 0x01, 0x10, 0x00, 0x00, 0x00,
  0x10, 0x00, 0x00, 0x00, 0x07, 0x00, 0x00, 0x00, 0x5c, 0x00, 0x00, 0x00,
  0x68, 0xfd, 0xff, 0xff, 0x4c, 0x00, 0x00, 0x00, 0x5f, 0x5f, 0x6d, 0x61,
  0x69, 0x6e, 0x5f, 0x5f, 0x2e, 0x65, 0x32, 0x65, 0x4e, 0x65, 0x74, 0x77,
  0x6f, 0x72, 0x6b, 0x3b, 0x3b, 0x5f, 0x5f, 0x6d, 0x61, 0x69, 0x6e, 0x5f,
  0x5f, 0x2e, 0x65, 0x32, 0x65, 0x4e, 0x65, 0x74, 0x77, 0x6f, 0x72, 0x6b,
  0x2f, 0x74, 0x6f, 0x72, 0x63, 0x68, 0x2e, 0x6e, 0x6e, 0x2e, 0x6d, 0x6f,
  0x64, 0x75, 0x6c, 0x65, 0x73, 0x2e, 0x6c, 0x69, 0x6e, 0x65, 0x61, 0x72,
  0x2e, 0x4c, 0x69, 0x6e, 0x65, 0x61, 0x72, 0x5f, 0x66, 0x63, 0x31, 0x3b,
  0x00, 0x00, 0x00, 0x00, 0x01, 0x00, 0x00, 0x00, 0x40, 0x00, 0x00, 0x00,
  0xf6, 0xfd, 0xff, 0xff, 0x00, 0x00, 0x00, 0x01, 0x10, 0x00, 0x00, 0x00,
  0x10, 0x00, 0x00, 0x00, 0x06, 0x00, 0x00, 0x00, 0x44, 0x00, 0x00, 0x00,
  0xe0, 0xfd, 0xff, 0xff, 0x37, 0x00, 0x00, 0x00, 0x5f, 0x5f, 0x6d, 0x61,
  0x69, 0x6e, 0x5f, 0x5f, 0x2e, 0x65, 0x32, 0x65, 0x4e, 0x65, 0x74, 0x77,
  0x6f, 0x72, 0x6b, 0x2f, 0x74, 0x6f, 0x72, 0x63, 0x68, 0x2e, 0x6e, 0x6e,
  0x2e, 0x6d, 0x6f, 0x64, 0x75, 0x6c, 0x65, 0x73, 0x2e, 0x6c, 0x69, 0x6e,
  0x65, 0x61, 0x72, 0x2e, 0x4c, 0x69, 0x6e, 0x65, 0x61, 0x72, 0x5f, 0x66,
  0x63, 0x31, 0x3b, 0x00, 0x02, 0x00, 0x00, 0x00, 0x40, 0x00, 0x00, 0x00,
  0x0f, 0x00, 0x00, 0x00, 0x5a, 0xfe, 0xff, 0xff, 0x00, 0x00, 0x00, 0x01,
  0x10, 0x00, 0x00, 0x00, 0x10, 0x00, 0x00, 0x00, 0x05, 0x00, 0x00, 0x00,
  0x44, 0x00, 0x00, 0x00, 0x44, 0xfe, 0xff, 0xff, 0x37, 0x00, 0x00, 0x00,
  0x5f, 0x5f, 0x6d, 0x61, 0x69, 0x6e, 0x5f, 0x5f, 0x2e, 0x65, 0x32, 0x65,
  0x4e, 0x65, 0x74, 0x77, 0x6f, 0x72, 0x6b, 0x2f, 0x74, 0x6f, 0x72, 0x63,
  0x68, 0x2e, 0x6e, 0x6e, 0x2e, 0x6d, 0x6f, 0x64, 0x75, 0x6c, 0x65, 0x73,
  0x2e, 0x6c, 0x69, 0x6e, 0x65, 0x61, 0x72, 0x2e, 0x4c, 0x69, 0x6e, 0x65,
  0x61, 0x72, 0x5f, 0x66, 0x63, 0x32, 0x3b, 0x00, 0x02, 0x00, 0x00, 0x00,
  0x20, 0x00, 0x00, 0x00, 0x40, 0x00, 0x00, 0x00, 0xbe, 0xfe, 0xff, 0xff,
  0x00, 0x00, 0x00, 0x01, 0x10, 0x00, 0x00, 0x00, 0x10, 0x00, 0x00, 0x00,
  0x04, 0x00, 0x00, 0x00, 0x48, 0x00, 0x00, 0x00, 0xa8, 0xfe, 0xff, 0xff,
  0x38, 0x00, 0x00, 0x00, 0x5f, 0x5f, 0x6d, 0x61, 0x69, 0x6e, 0x5f, 0x5f,
  0x2e, 0x65, 0x32, 0x65, 0x4e, 0x65, 0x74, 0x77, 0x6f, 0x72, 0x6b, 0x2f,
  0x74, 0x6f, 0x72, 0x63, 0x68, 0x2e, 0x6e, 0x6e, 0x2e, 0x6d, 0x6f, 0x64,
  0x75, 0x6c, 0x65, 0x73, 0x2e, 0x6c, 0x69, 0x6e, 0x65, 0x61, 0x72, 0x2e,
  0x4c, 0x69, 0x6e, 0x65, 0x61, 0x72, 0x5f, 0x66, 0x63, 0x33, 0x3b, 0x31,
  0x00, 0x00, 0x00, 0x00, 0x02, 0x00, 0x00, 0x00, 0x04, 0x00, 0x00, 0x00,
  0x20, 0x00, 0x00, 0x00, 0x26, 0xff, 0xff, 0xff, 0x00, 0x00, 0x00, 0x01,
  0x10, 0x00, 0x00, 0x00, 0x10, 0x00, 0x00, 0x00, 0x03, 0x00, 0x00, 0x00,
  0x5c, 0x00, 0x00, 0x00, 0x10, 0xff, 0xff, 0xff, 0x4c, 0x00, 0x00, 0x00,
  0x5f, 0x5f, 0x6d, 0x61, 0x69, 0x6e, 0x5f, 0x5f, 0x2e, 0x65, 0x32, 0x65,
  0x4e, 0x65, 0x74, 0x77, 0x6f, 0x72, 0x6b, 0x3b, 0x3b, 0x5f, 0x5f, 0x6d,
  0x61, 0x69, 0x6e, 0x5f, 0x5f, 0x2e, 0x65, 0x32, 0x65, 0x4e, 0x65, 0x74,
  0x77, 0x6f, 0x72, 0x6b, 0x2f, 0x74, 0x6f, 0x72, 0x63, 0x68, 0x2e, 0x6e,
  0x6e, 0x2e, 0x6d, 0x6f, 0x64, 0x75, 0x6c, 0x65, 0x73, 0x2e, 0x6c, 0x69,
  0x6e, 0x65, 0x61, 0x72, 0x2e, 0x4c, 0x69, 0x6e, 0x65, 0x61, 0x72, 0x5f,
  0x66, 0x63, 0x32, 0x3b, 0x00, 0x00, 0x00, 0x00, 0x01, 0x00, 0x00, 0x00,
  0x20, 0x00, 0x00, 0x00, 0x9e, 0xff, 0xff, 0xff, 0x00, 0x00, 0x00, 0x01,
  0x10, 0x00, 0x00, 0x00, 0x10, 0x00, 0x00, 0x00, 0x02, 0x00, 0x00, 0x00,
  0x44, 0x00, 0x00, 0x00, 0x88, 0xff, 0xff, 0xff, 0x37, 0x00, 0x00, 0x00,
  0x5f, 0x5f, 0x6d, 0x61, 0x69, 0x6e, 0x5f, 0x5f, 0x2e, 0x65, 0x32, 0x65,
  0x4e, 0x65, 0x74, 0x77, 0x6f, 0x72, 0x6b, 0x2f, 0x74, 0x6f, 0x72, 0x63,
  0x68, 0x2e, 0x6e, 0x6e, 0x2e, 0x6d, 0x6f, 0x64, 0x75, 0x6c, 0x65, 0x73,
  0x2e, 0x6c, 0x69, 0x6e, 0x65, 0x61, 0x72, 0x2e, 0x4c, 0x69, 0x6e, 0x65,
  0x61, 0x72, 0x5f, 0x66, 0x63, 0x33, 0x3b, 0x00, 0x01, 0x00, 0x00, 0x00,
  0x04, 0x00, 0x00, 0x00, 0x00, 0x00, 0x16, 0x00, 0x18, 0x00, 0x14, 0x00,
  0x00, 0x00, 0x10, 0x00, 0x0c, 0x00, 0x08, 0x00, 0x00, 0x00, 0x00, 0x00,
  0x00, 0x00, 0x07, 0x00, 0x16, 0x00, 0x00, 0x00, 0x00, 0x00, 0x00, 0x01,
  0x14, 0x00, 0x00, 0x00, 0x14, 0x00, 0x00, 0x00, 0x01, 0x00, 0x00, 0x00,
  0x2c, 0x00, 0x00, 0x00, 0x04, 0x00, 0x04, 0x00, 0x04, 0x00, 0x00, 0x00,
  0x18, 0x00, 0x00, 0x00, 0x73, 0x65, 0x72, 0x76, 0x69, 0x6e, 0x67, 0x5f,
  0x64, 0x65, 0x66, 0x61, 0x75, 0x6c, 0x74, 0x5f, 0x61, 0x72, 0x67, 0x73,
  0x5f, 0x30, 0x3a, 0x30, 0x00, 0x00, 0x00, 0x00, 0x02, 0x00, 0x00, 0x00,
  0x01, 0x00, 0x00, 0x00, 0x0f, 0x00, 0x00, 0x00, 0x01, 0x00, 0x00, 0x00,
  0x10, 0x00, 0x00, 0x00, 0x0c, 0x00, 0x10, 0x00, 0x0f, 0x00, 0x00, 0x00,
  0x08, 0x00, 0x04, 0x00, 0x0c, 0x00, 0x00, 0x00, 0x09, 0x00, 0x00, 0x00,
  0x05, 0x00, 0x00, 0x00, 0x00, 0x00, 0x00, 0x09
};
unsigned int gen_ppo_tflite_len = 14972;
