unsigned char gen_ppo_tflite[] = {
  0x1c, 0x00, 0x00, 0x00, 0x54, 0x46, 0x4c, 0x33, 0x14, 0x00, 0x20, 0x00,
  0x1c, 0x00, 0x18, 0x00, 0x14, 0x00, 0x10, 0x00, 0x0c, 0x00, 0x00, 0x00,
  0x08, 0x00, 0x04, 0x00, 0x14, 0x00, 0x00, 0x00, 0x1c, 0x00, 0x00, 0x00,
  0x90, 0x00, 0x00, 0x00, 0xe8, 0x00, 0x00, 0x00, 0xb0, 0x35, 0x00, 0x00,
  0xc0, 0x35, 0x00, 0x00, 0x2c, 0x3b, 0x00, 0x00, 0x03, 0x00, 0x00, 0x00,
  0x01, 0x00, 0x00, 0x00, 0x10, 0x00, 0x00, 0x00, 0x00, 0x00, 0x0a, 0x00,
  0x10, 0x00, 0x0c, 0x00, 0x08, 0x00, 0x04, 0x00, 0x0a, 0x00, 0x00, 0x00,
  0x0c, 0x00, 0x00, 0x00, 0x1c, 0x00, 0x00, 0x00, 0x3c, 0x00, 0x00, 0x00,
  0x0f, 0x00, 0x00, 0x00, 0x73, 0x65, 0x72, 0x76, 0x69, 0x6e, 0x67, 0x5f,
  0x64, 0x65, 0x66, 0x61, 0x75, 0x6c, 0x74, 0x00, 0x01, 0x00, 0x00, 0x00,
  0x04, 0x00, 0x00, 0x00, 0x98, 0xff, 0xff, 0xff, 0x09, 0x00, 0x00, 0x00,
  0x04, 0x00, 0x00, 0x00, 0x08, 0x00, 0x00, 0x00, 0x6f, 0x75, 0x74, 0x70,
  0x75, 0x74, 0x5f, 0x30, 0x00, 0x00, 0x00, 0x00, 0x01, 0x00, 0x00, 0x00,
  0x04, 0x00, 0x00, 0x00, 0xf6, 0xca, 0xff, 0xff, 0x04, 0x00, 0x00, 0x00,
  0x06, 0x00, 0x00, 0x00, 0x61, 0x72, 0x67, 0x73, 0x5f, 0x30, 0x00, 0x00,
  0x02, 0x00, 0x00, 0x00, 0x34, 0x00, 0x00, 0x00, 0x04, 0x00, 0x00, 0x00,
  0xdc, 0xff, 0xff, 0xff, 0x0c, 0x00, 0x00, 0x00, 0x04, 0x00, 0x00, 0x00,
  0x13, 0x00, 0x00, 0x00, 0x43, 0x4f, 0x4e, 0x56, 0x45, 0x52, 0x53, 0x49,
  0x4f, 0x4e, 0x5f, 0x4d, 0x45, 0x54, 0x41, 0x44, 0x41, 0x54, 0x41, 0x00,
  0x08, 0x00, 0x0c, 0x00, 0x08, 0x00, 0x04, 0x00, 0x08, 0x00, 0x00, 0x00,
  0x0b, 0x00, 0x00, 0x00, 0x04, 0x00, 0x00, 0x00, 0x13, 0x00, 0x00, 0x00,
  0x6d, 0x69, 0x6e, 0x5f, 0x72, 0x75, 0x6e, 0x74, 0x69, 0x6d, 0x65, 0x5f,
  0x76, 0x65, 0x72, 0x73, 0x69, 0x6f, 0x6e, 0x00, 0x0d, 0x00, 0x00, 0x00,
  0xc4, 0x34, 0x00, 0x00, 0xbc, 0x34, 0x00, 0x00, 0x94, 0x34, 0x00, 0x00,
  0xfc, 0x33, 0x00, 0x00, 0xec, 0x30, 0x00, 0x00, 0xdc, 0x10, 0x00, 0x00,
  0xcc, 0x01, 0x00, 0x00, 0xbc, 0x00, 0x00, 0x00, 0xb4, 0x00, 0x00, 0x00,
  0xac, 0x00, 0x00, 0x00, 0xa4, 0x00, 0x00, 0x00, 0x84, 0x00, 0x00, 0x00,
  0x04, 0x00, 0x00, 0x00, 0x9e, 0xcb, 0xff, 0xff, 0x04, 0x00, 0x00, 0x00,
  0x70, 0x00, 0x00, 0x00, 0x10, 0x00, 0x00, 0x00, 0x00, 0x00, 0x00, 0x00,
  0x08, 0x00, 0x0e, 0x00, 0x08, 0x00, 0x04, 0x00, 0x08, 0x00, 0x00, 0x00,
  0x10, 0x00, 0x00, 0x00, 0x24, 0x00, 0x00, 0x00, 0x00, 0x00, 0x06, 0x00,
  0x08, 0x00, 0x04, 0x00, 0x06, 0x00, 0x00, 0x00, 0x04, 0x00, 0x00, 0x00,
  0x00, 0x00, 0x00, 0x00, 0x0c, 0x00, 0x1c, 0x00, 0x18, 0x00, 0x14, 0x00,
  0x10, 0x00, 0x04, 0x00, 0x0c, 0x00, 0x00, 0x00, 0x65, 0xf3, 0x71, 0x9e,
  0x86, 0x9a, 0xb9, 0x4d, 0x00, 0x00, 0x00, 0x00, 0x01, 0x00, 0x00, 0x00,
  0x02, 0x00, 0x00, 0x00, 0x04, 0x00, 0x00, 0x00, 0x12, 0x00, 0x00, 0x00,
  0x32, 0x2e, 0x32, 0x31, 0x2e, 0x30, 0x2d, 0x64, 0x65, 0x76, 0x32, 0x30,
  0x32, 0x35, 0x30, 0x38, 0x31, 0x38, 0x00, 0x00, 0x1a, 0xcc, 0xff, 0xff,
  0x04, 0x00, 0x00, 0x00, 0x10, 0x00, 0x00, 0x00, 0x32, 0x2e, 0x30, 0x2e,
  0x30, 0x00, 0x00, 0x00, 0x00, 0x00, 0x00, 0x00, 0x00, 0x00, 0x00, 0x00,
  0xb4, 0xc6, 0xff, 0xff, 0xb8, 0xc6, 0xff, 0xff, 0xbc, 0xc6, 0xff, 0xff,
  0x42, 0xcc, 0xff, 0xff, 0x04, 0x00, 0x00, 0x00, 0x00, 0x01, 0x00, 0x00,
  0xb0, 0x8a, 0xe6, 0xbf, 0xa7, 0xe6, 0x88, 0xc0, 0x78, 0xc4, 0xeb, 0xbf,
  0xb1, 0xed, 0x03, 0xc0, 0xee, 0x60, 0x30, 0x3d, 0x42, 0xd1, 0x76, 0xc0,
  0xcd, 0x38, 0xec, 0xbf, 0x39, 0x4a, 0x01, 0xc0, 0xf2, 0xb2, 0xd1, 0xc0,
  0xfd, 0xdf, 0x41, 0xc0, 0xeb, 0x66, 0x0c, 0xc0, 0xb8, 0x6e, 0x14, 0xc0,
  0xbe, 0x3a, 0x61, 0xc0, 0xd1, 0xf5, 0xc3, 0xbe, 0xbb, 0x71, 0x68, 0xc0,
  0xc8, 0x84, 0x20, 0xbf, 0x98, 0xf9, 0x7f, 0xc0, 0xc7, 0x00, 0x10, 0xc0,
  0xb4, 0x70, 0xd7, 0xbf, 0x2b, 0xa8, 0x43, 0xc0, 0x35, 0xea, 0x25, 0xbf,
  0x58, 0x38, 0x55, 0xc0, 0x30, 0x0a, 0xaa, 0xbf, 0x6e, 0x2f, 0xc3, 0xbf,
  0x9b, 0x4d, 0xfa, 0xbe, 0x03, 0x6f, 0x41, 0xc0, 0x65, 0x1e, 0xdd, 0xbf,
  0x3a, 0xc6, 0xa6, 0xbe, 0xa7, 0x2c, 0x0a, 0xbe, 0x4b, 0x3e, 0x05, 0x3f,
  0xa9, 0xb2, 0x3f, 0xbf, 0x3e, 0x3a, 0x09, 0xc0, 0x84, 0x1d, 0x61, 0xbf,
  0x94, 0x79, 0x4d, 0xc0, 0xcb, 0x09, 0x05, 0xc0, 0x4c, 0xe3, 0xe9, 0xbf,
  0x45, 0xcb, 0x12, 0xbf, 0x3c, 0xc2, 0xf5, 0xbe, 0x1f, 0xdd, 0xe0, 0xbf,
  0xb5, 0x1e, 0x5d, 0xc0, 0xae, 0x61, 0x26, 0xc0, 0x1b, 0x6d, 0xc1, 0xbf,
  0xe2, 0xcd, 0xf6, 0xbf, 0x3d, 0x1d, 0xfd, 0xbf, 0x62, 0x6c, 0x28, 0xc0,
  0xb2, 0xaa, 0x81, 0xc0, 0x42, 0xb4, 0x21, 0xc0, 0x0a, 0x62, 0xcf, 0xbf,
  0xc0, 0x80, 0x34, 0xbe, 0x04, 0xe6, 0x44, 0xc0, 0x2f, 0x59, 0x39, 0xbf,
  0xdf, 0x6b, 0xf8, 0xbf, 0x75, 0x43, 0x1f, 0xbf, 0xfc, 0x14, 0x28, 0xbf,
  0x5f, 0xa0, 0x49, 0xc0, 0xae, 0x48, 0xc5, 0x3e, 0x50, 0x5e, 0x15, 0xc0,
  0x3d, 0xc3, 0xb5, 0xbf, 0x07, 0xa9, 0x84, 0xc0, 0xde, 0x5c, 0x29, 0xbf,
  0xd5, 0x54, 0xa7, 0xbf, 0x7e, 0xe0, 0xf6, 0xbe, 0x7b, 0x41, 0x85, 0xbe,
  0xab, 0xae, 0x34, 0xc0, 0x4e, 0xcd, 0xff, 0xff, 0x04, 0x00, 0x00, 0x00,
  0x00, 0x0f, 0x00, 0x00, 0x78, 0x76, 0xdd, 0xbe, 0xf9, 0xa5, 0xad, 0xbe,
  0x9f, 0x68, 0x5b, 0xbe, 0x47, 0xab, 0xba, 0x3e, 0x98, 0x59, 0x84, 0xbe,
  0x72, 0x1f, 0x32, 0xc0, 0xa3, 0x06, 0x26, 0x3f, 0x2a, 0x60, 0xc7, 0x3e,
  0xc6, 0x74, 0x5b, 0xc0, 0x14, 0x6b, 0xca, 0xbe, 0xa7, 0xf7, 0x76, 0x3d,
  0xd9, 0x04, 0xa1, 0x3f, 0x58, 0x65, 0x66, 0x3e, 0x12, 0x64, 0x11, 0xbf,
  0x44, 0x52, 0x28, 0x3e, 0xd8, 0x96, 0xf6, 0xbf, 0x42, 0xd5, 0x4b, 0xbd,
  0x60, 0xb8, 0xff, 0xbd, 0x9c, 0x9e, 0xcc, 0xbe, 0xda, 0x51, 0xd9, 0xbe,
  0x90, 0x51, 0x37, 0x40, 0x68, 0x65, 0x91, 0x3d, 0xf6, 0xf6, 0x41, 0xbe,
  0xd2, 0xbe, 0x1e, 0x3d, 0x54, 0x79, 0xf9, 0xbd, 0x09, 0x57, 0xa7, 0xbd,
  0xa9, 0x79, 0x8f, 0xbf, 0x7c, 0x69, 0xce, 0x3e, 0xb1, 0x27, 0xa4, 0x3f,
  0xf4, 0x84, 0xd0, 0x3f, 0x96, 0x2f, 0x61, 0xbf, 0x88, 0x39, 0x80, 0xbf,
  0xd6, 0x70, 0xa3, 0xbe, 0x97, 0x8d, 0x4c, 0xbe, 0xf5, 0x1c, 0xa0, 0x3f,
  0x97, 0x99, 0x69, 0xbe, 0xc3, 0xd4, 0xe5, 0xbe, 0x95, 0x88, 0x1f, 0xbd,
  0xf0, 0xe5, 0x46, 0x40, 0x3a, 0xa5, 0x2c, 0x3f, 0x0e, 0x35, 0x43, 0x3f,
  0xa3, 0xa6, 0xfe, 0x3f, 0xc5, 0x46, 0x9a, 0xbe, 0x61, 0x5f, 0x9f, 0xbe,
  0xca, 0xba, 0xa5, 0x3e, 0xff, 0xfb, 0x8a, 0xbe, 0xdb, 0x3e, 0x87, 0xbf,
  0xb1, 0x4e, 0xe7, 0xbf, 0x20, 0x02, 0x07, 0xbf, 0x0d, 0x07, 0xe9, 0xbf,
  0x28, 0x28, 0x0b, 0x3f, 0x85, 0xcc, 0x19, 0x40, 0xcf, 0xb9, 0x56, 0x3f,
  0x10, 0x05, 0x2d, 0x40, 0xd7, 0x86, 0xab, 0x3e, 0x60, 0xe4, 0x2d, 0x3f,
  0x81, 0x55, 0x40, 0x3f, 0xae, 0xa6, 0x76, 0x3e, 0x7f, 0xa8, 0x36, 0x3f,
  0xc5, 0x72, 0x65, 0x3f, 0xce, 0x5d, 0xbf, 0x3d, 0x57, 0x0a, 0x54, 0x3e,
  0x9d, 0xa3, 0x65, 0xc0, 0xcf, 0x6e, 0xd8, 0x3e, 0xf1, 0x57, 0xe0, 0xbe,
  0xd6, 0xae, 0x56, 0x3e, 0x39, 0xe0, 0xd5, 0x3d, 0x1e, 0x51, 0x9f, 0x3e,
  0x90, 0x69, 0x8c, 0xbe, 0x7c, 0x4c, 0x8c, 0x3d, 0x79, 0x40, 0x7c, 0x3c,
  0x71, 0xef, 0xa0, 0x3f, 0x60, 0xc4, 0x90, 0x3d, 0x46, 0x5f, 0x94, 0x3d,
  0xd6, 0x30, 0x0a, 0x3d, 0x85, 0xaf, 0x94, 0x3c, 0x3a, 0x12, 0xaa, 0x3e,
  0x60, 0x86, 0xb8, 0xbf, 0x57, 0x6b, 0x98, 0xbf, 0x9d, 0x8e, 0x41, 0x3f,
  0x78, 0x05, 0x09, 0x40, 0xdb, 0x32, 0x89, 0x3e, 0xeb, 0x80, 0x80, 0xbf,
  0x22, 0xc3, 0xb1, 0x3e, 0xc7, 0x18, 0x83, 0xbe, 0x1a, 0x3a, 0xbf, 0xbe,
  0x1c, 0x43, 0xfa, 0x3f, 0x6b, 0x6e, 0x18, 0x3f, 0xa4, 0x3c, 0x55, 0x3f,
  0xee, 0x0e, 0x98, 0x3f, 0x16, 0xe4, 0x6f, 0xbf, 0xdd, 0x87, 0x00, 0xc0,
  0xeb, 0xbe, 0x13, 0x3e, 0x20, 0x7f, 0x04, 0x3e, 0x47, 0x63, 0x80, 0xbe,
  0x2b, 0x8b, 0x89, 0x3f, 0x98, 0x2f, 0xa2, 0x3e, 0xba, 0x7d, 0x5e, 0x3d,
  0x65, 0xed, 0xe1, 0x3e, 0xcc, 0xa3, 0xcc, 0xbe, 0x32, 0x85, 0x45, 0xbd,
  0xa5, 0x52, 0x80, 0x3e, 0x42, 0x39, 0xca, 0xbe, 0x5f, 0x2c, 0x3b, 0xbe,
  0x24, 0x97, 0x8a, 0x3e, 0x3f, 0x22, 0x91, 0xbd, 0x91, 0xb1, 0x96, 0x3e,
  0x6e, 0xd5, 0x2c, 0xbe, 0x76, 0xe5, 0x2b, 0x3f, 0x3e, 0xf0, 0xa9, 0xbe,
  0xc5, 0xab, 0x95, 0x40, 0x0c, 0x43, 0x92, 0xbf, 0xf7, 0xf8, 0x73, 0x3f,
  0xed, 0x2d, 0xa7, 0x3f, 0x48, 0x94, 0x1d, 0x3d, 0x86, 0x38, 0xed, 0xbc,
  0x39, 0xc2, 0xc4, 0xbf, 0xf9, 0x9c, 0x89, 0x3d, 0xf1, 0xfa, 0xb2, 0x3e,
  0x90, 0x25, 0x7a, 0xbf, 0x4f, 0x1c, 0x34, 0xbe, 0x63, 0x5f, 0xcd, 0x3d,
  0x5d, 0x9a, 0xae, 0x3e, 0x67, 0xee, 0x6d, 0xbf, 0xa7, 0xff, 0xb1, 0x3e,
  0x9c, 0x25, 0xbd, 0xbe, 0xf5, 0xdb, 0x4c, 0xbf, 0xa0, 0x42, 0x4c, 0x3e,
  0xf4, 0xfb, 0x31, 0x3e, 0xec, 0xcc, 0x8b, 0xbf, 0x0a, 0xaf, 0xf5, 0x3e,
  0xfb, 0xb1, 0xc0, 0xbf, 0x74, 0xb0, 0x53, 0x3e, 0x6e, 0xb0, 0x56, 0xbf,
  0x3d, 0x53, 0xb6, 0x3e, 0x4c, 0x5c, 0xb3, 0xbe, 0xd0, 0xa1, 0xfe, 0xbe,
  0x7e, 0x17, 0x50, 0xbf, 0x0d, 0x45, 0xd9, 0xbe, 0xd5, 0xee, 0x9e, 0xbe,
  0xb5, 0x5e, 0x5d, 0xbe, 0x26, 0x67, 0x73, 0x3e, 0x67, 0x03, 0xaf, 0xbe,
  0x2f, 0x71, 0x54, 0xbd, 0xe2, 0x89, 0x23, 0x3b, 0x1f, 0x31, 0xda, 0xbb,
  0x01, 0x33, 0x9e, 0x3f, 0xab, 0xb3, 0xc4, 0x3d, 0x66, 0x0b, 0x2b, 0x3e,
  0xd3, 0x22, 0x80, 0x3f, 0xe0, 0x34, 0x02, 0xbf, 0xfa, 0xb3, 0x1e, 0x3f,
  0x33, 0x7e, 0x3e, 0xbd, 0xf4, 0x34, 0xc9, 0xbe, 0x3b, 0x2e, 0x02, 0x40,
  0x5d, 0xae, 0x8f, 0x40, 0x18, 0xb7, 0xee, 0xbf, 0x16, 0xc1, 0x1e, 0x3f,
  0xb0, 0x01, 0x0f, 0xc0, 0x13, 0xb5, 0xe3, 0x3e, 0x07, 0xbb, 0x11, 0xbf,
  0x21, 0x2c, 0xa2, 0x3e, 0x34, 0xf0, 0x4c, 0xbf, 0xa8, 0x86, 0xaf, 0x3e,
  0xa5, 0x14, 0xbb, 0xbc, 0xad, 0x1f, 0xde, 0xbe, 0xc5, 0xd6, 0x85, 0xbf,
  0xf2, 0x56, 0x03, 0xbe, 0xc9, 0xe6, 0x19, 0xbd, 0x48, 0x91, 0x1e, 0x3f,
  0x9c, 0x69, 0x1a, 0x40, 0xd8, 0xaf, 0xc1, 0x3e, 0xcb, 0x26, 0xd1, 0xbe,
  0xe5, 0xa0, 0x27, 0xc0, 0x36, 0x0d, 0x7f, 0x3d, 0x60, 0xaf, 0xd9, 0x3e,
  0xd9, 0x58, 0x07, 0xbd, 0x34, 0xf1, 0x08, 0x3f, 0x6a, 0x27, 0x46, 0x3f,
  0x6c, 0xdf, 0x15, 0x3e, 0xd2, 0x31, 0x3e, 0xbf, 0x79, 0xde, 0xf4, 0xbe,
  0xe4, 0xf3, 0x64, 0xbf, 0x1c, 0xcb, 0x47, 0x3f, 0x7b, 0xff, 0xe8, 0xbd,
  0x4f, 0xb2, 0x92, 0x3f, 0xb0, 0xb2, 0x39, 0x3f, 0xbd, 0x94, 0x8a, 0xbe,
  0x53, 0x88, 0x9d, 0xbe, 0x85, 0xee, 0x86, 0x3e, 0x6c, 0xf9, 0xec, 0xbd,
  0x24, 0x87, 0xba, 0xbe, 0x01, 0xcb, 0x35, 0x3f, 0x7f, 0x81, 0x5c, 0x3e,
  0x2f, 0xb2, 0xb3, 0x3e, 0x31, 0x4b, 0xeb, 0xbf, 0xb9, 0x88, 0xc2, 0xbc,
  0x69, 0x69, 0x38, 0x3e, 0x4f, 0x50, 0x01, 0x3f, 0xc2, 0xe4, 0x54, 0xbe,
  0x78, 0x14, 0xb2, 0x40, 0x4e, 0xcd, 0x78, 0x3f, 0x1e, 0x26, 0x22, 0x3f,
  0x0d, 0xcd, 0xb6, 0x3e, 0xc8, 0x66, 0xb4, 0x3f, 0x86, 0x27, 0x83, 0x3d,
  0x7e, 0xe5, 0xbc, 0x3f, 0xf2, 0x8f, 0x24, 0x3e, 0x34, 0xe2, 0x87, 0x3f,
  0xb1, 0xef, 0x03, 0x3e, 0x66, 0x05, 0x26, 0xbf, 0xb6, 0xc9, 0x63, 0xbf,
  0xa9, 0xd6, 0x3e, 0x3e, 0xec, 0xa5, 0x0a, 0x3f, 0xfd, 0xec, 0xbc, 0xbe,
  0x5d, 0x47, 0x47, 0xc0, 0x5c, 0xeb, 0x4b, 0x3d, 0xa6, 0x2c, 0x4e, 0x3f,
  0x74, 0xdd, 0x3b, 0x40, 0x08, 0xae, 0xa3, 0xbf, 0xc8, 0xbc, 0xc2, 0x3d,
  0x74, 0xd3, 0x34, 0x3f, 0x8d, 0x9a, 0x0f, 0xbf, 0x5f, 0x00, 0x6b, 0xbe,
  0x79, 0x9f, 0xac, 0xbe, 0xdc, 0xd3, 0x93, 0x3e, 0x69, 0x53, 0xd9, 0xbf,
  0xa2, 0xb7, 0xfd, 0x3d, 0x20, 0xc9, 0x72, 0x3e, 0x22, 0xf5, 0x7c, 0xbe,
  0x98, 0x17, 0x6a, 0xbe, 0xd9, 0x97, 0x2a, 0x3e, 0xdc, 0xda, 0x1f, 0x3f,
  0x2e, 0x62, 0xb1, 0x40, 0xd6, 0xdb, 0xc1, 0xbd, 0x04, 0x8f, 0xc2, 0x3f,
  0x61, 0x31, 0x8a, 0x3e, 0x63, 0x30, 0x62, 0xbf, 0x05, 0x43, 0x11, 0x3d,
  0xb3, 0x56, 0x07, 0x3e, 0x7d, 0x52, 0x82, 0xbe, 0xe8, 0x17, 0x04, 0x3d,
  0x24, 0xf9, 0xe0, 0xbe, 0x49, 0x24, 0x9f, 0xbd, 0x22, 0xe7, 0x1a, 0xbe,
  0xf4, 0x8f, 0x43, 0x3f, 0xa8, 0x77, 0x30, 0xbf, 0xdc, 0xe4, 0x32, 0xbf,
  0x1f, 0x8d, 0xeb, 0xbe, 0xda, 0x8c, 0x8c, 0xbd, 0x06, 0x2b, 0x49, 0xbe,
  0x5b, 0x31, 0x83, 0x3f, 0x3d, 0x17, 0xda, 0xbe, 0x0d, 0xd9, 0xdc, 0xbd,
  0xc7, 0xdd, 0xd1, 0x3d, 0xe1, 0x56, 0x63, 0xbe, 0x09, 0xf8, 0xa2, 0xbf,
  0xd6, 0x24, 0x09, 0xbf, 0xd8, 0xa9, 0x8f, 0x3e, 0x84, 0xb8, 0x48, 0x3f,
  0x84, 0x94, 0x74, 0x3f, 0xd5, 0x3e, 0x31, 0xbf, 0xd7, 0xdb, 0x9e, 0xbc,
  0x7f, 0x3b, 0xc7, 0x3e, 0x8d, 0x07, 0x13, 0xbe, 0x3d, 0xb8, 0x28, 0x3e,
  0xc5, 0x24, 0xcf, 0x3e, 0x58, 0xe2, 0xd1, 0x3e, 0x93, 0x2f, 0x72, 0x3d,
  0x95, 0xd8, 0x18, 0xbe, 0x1e, 0x91, 0x39, 0x3d, 0xc5, 0x02, 0x9e, 0x3e,
  0x5a, 0xf2, 0x7f, 0xbe, 0xc3, 0x7b, 0x40, 0xbf, 0x20, 0xf9, 0x1e, 0x3f,
  0xd7, 0xeb, 0x49, 0xc0, 0x73, 0x6e, 0xeb, 0xbf, 0xc9, 0xc3, 0x6c, 0x3f,
  0xc2, 0xab, 0x81, 0xc0, 0x5e, 0x57, 0x31, 0xbe, 0xb2, 0xc3, 0x2c, 0xbe,
  0xa2, 0x7b, 0x2f, 0xbf, 0xee, 0x30, 0xd1, 0x3e, 0x9e, 0x65, 0xc9, 0x3e,
  0xb4, 0x1b, 0x24, 0x3d, 0xe5, 0x8f, 0x19, 0xbf, 0x4e, 0xb6, 0x66, 0xbf,
  0xcf, 0xb0, 0x7f, 0xbf, 0xba, 0x90, 0x85, 0xbf, 0x83, 0x21, 0x75, 0x3f,
  0xcd, 0xaa, 0x8a, 0xbe, 0x7b, 0xa7, 0xc2, 0x3f, 0x10, 0x1d, 0x82, 0xbf,
  0xa9, 0x7d, 0xed, 0xbd, 0x55, 0x45, 0xa2, 0x3d, 0xa6, 0x23, 0x6a, 0x3f,
  0x3b, 0x67, 0xc1, 0xbe, 0x89, 0xb5, 0xe1, 0x3e, 0x56, 0x20, 0x8b, 0xbe,
  0xb0, 0x05, 0x9a, 0x3f, 0xca, 0x16, 0x72, 0x3f, 0x87, 0x4d, 0xb9, 0x3e,
  0x35, 0x69, 0x4d, 0x3e, 0x5f, 0x54, 0x1d, 0x3e, 0xa7, 0xb1, 0xfd, 0xbe,
  0x90, 0xf1, 0x1a, 0xc0, 0xba, 0xbb, 0x9f, 0x3f, 0x3d, 0xb9, 0x51, 0x3f,
  0xd0, 0xe5, 0xf4, 0x3e, 0x51, 0x44, 0x29, 0xbf, 0x83, 0x9d, 0x86, 0x3d,
  0x44, 0xff, 0xe5, 0x3f, 0x5d, 0xad, 0x13, 0x3e, 0x8c, 0x1f, 0xaf, 0xbe,
  0xab, 0x38, 0x4d, 0x3f, 0x24, 0xff, 0xe9, 0xbe, 0x86, 0xb5, 0x51, 0xbf,
  0xa5, 0x7f, 0x15, 0xbf, 0x9b, 0x84, 0x31, 0x3e, 0x11, 0x4b, 0x47, 0xbf,
  0x05, 0xfd, 0x91, 0xbf, 0x70, 0x22, 0x21, 0x3e, 0x7b, 0x4d, 0x3d, 0x3f,
  0xa1, 0xe2, 0x6c, 0xbe, 0x5e, 0x57, 0x1f, 0xbf, 0xaf, 0x73, 0xa3, 0xbf,
  0xcf, 0xc5, 0xc7, 0x3f, 0x39, 0x3b, 0x41, 0x3f, 0x8b, 0x60, 0x21, 0xbf,
  0xf8, 0xaf, 0x43, 0xbc, 0xb0, 0x54, 0x18, 0xbf, 0xc6, 0x65, 0x1c, 0xc0,
  0x4d, 0xe2, 0x13, 0x3e, 0xb6, 0xc7, 0xb8, 0x3e, 0x1d, 0x05, 0x0e, 0xbf,
  0xa1, 0xcf, 0xf9, 0xbf, 0xf6, 0x69, 0x6e, 0xbe, 0xd7, 0xd9, 0x17, 0x3f,
  0x51, 0x28, 0xb9, 0xbe, 0xf1, 0xb1, 0xbe, 0xbb, 0x88, 0x30, 0xc3, 0xbd,
  0x9f, 0xf1, 0x45, 0xbf, 0x94, 0xef, 0xce, 0x3e, 0x31, 0xdc, 0x9a, 0xbe,
  0x95, 0xcd, 0x07, 0x3e, 0x93, 0x17, 0x19, 0xbe, 0xc0, 0x60, 0x2b, 0x3e,
  0xd6, 0x26, 0x87, 0x3d, 0x50, 0xda, 0xff, 0xbf, 0x04, 0x62, 0xf0, 0x3d,
  0x35, 0x29, 0xef, 0x3e, 0xcb, 0xab, 0xa3, 0xbf, 0x99, 0xd9, 0xf8, 0xbf,
  0xbf, 0xd9, 0xa8, 0xc0, 0x58, 0x45, 0xdf, 0xbe, 0xb9, 0x4d, 0x24, 0xbf,
  0xe2, 0x2f, 0x94, 0x3f, 0x9c, 0x57, 0x69, 0xbf, 0xb0, 0x2f, 0xab, 0x3e,
  0xb7, 0x4d, 0x67, 0x3e, 0x9c, 0x78, 0x5c, 0xc0, 0x58, 0x38, 0x94, 0x3b,
  0xae, 0xbb, 0xa1, 0x3d, 0x4d, 0x25, 0xc8, 0xbd, 0xf1, 0x96, 0x21, 0x3e,
  0x2f, 0x8c, 0x8b, 0x40, 0x5f, 0x1a, 0x15, 0x3e, 0xb8, 0x68, 0x34, 0x3f,
  0xb6, 0x3d, 0x01, 0x3c, 0xbc, 0xff, 0xb4, 0x3f, 0xaa, 0xde, 0x9e, 0xbc,
  0xbc, 0x8c, 0x4a, 0x3d, 0x48, 0x5a, 0x1f, 0x3e, 0x1c, 0xab, 0xa5, 0x3e,
  0xe6, 0xaf, 0x55, 0xbe, 0xd6, 0x31, 0xee, 0xbe, 0x12, 0xdd, 0x31, 0xbe,
  0x30, 0xfa, 0xd3, 0xbe, 0x87, 0x22, 0x9f, 0xbe, 0x15, 0xcb, 0x2c, 0x3e,
  0x04, 0x78, 0x73, 0x3e, 0xd9, 0x72, 0xb2, 0x3e, 0xe2, 0x48, 0x6b, 0xbf,
  0x56, 0xf0, 0x48, 0xbf, 0xa8, 0xf3, 0xa1, 0x3e, 0xde, 0x92, 0x3b, 0xbe,
  0x27, 0x67, 0x3b, 0x3f, 0xcc, 0x09, 0x0d, 0xbe, 0x87, 0x30, 0xb4, 0x3d,
  0x27, 0x31, 0x57, 0x3f, 0x09, 0x88, 0x3d, 0x3e, 0xa1, 0x73, 0x04, 0xbf,
  0x37, 0xf3, 0x99, 0xbe, 0x34, 0xb4, 0x2f, 0x3f, 0xd8, 0xe1, 0xd5, 0x3e,
  0xd0, 0xf0, 0x98, 0xc0, 0x54, 0xc3, 0x8c, 0xbe, 0x23, 0x98, 0x0f, 0x3f,
  0x19, 0xc2, 0xc9, 0xbd, 0x49, 0xa1, 0x6f, 0xbe, 0x9c, 0x00, 0x23, 0x3f,
  0x13, 0x1d, 0x21, 0xbf, 0x3d, 0xdd, 0xe6, 0xbe, 0xac, 0x61, 0x04, 0xbf,
  0x70, 0xb3, 0xd6, 0xbe, 0x97, 0x98, 0x1b, 0x3f, 0x53, 0x0e, 0x71, 0xbf,
  0x16, 0x89, 0x38, 0xbe, 0x42, 0x14, 0xaf, 0xbe, 0xe0, 0x44, 0xc5, 0xbf,
  0x75, 0x1d, 0xed, 0x3f, 0x2b, 0xe8, 0xdd, 0x3f, 0x43, 0x6b, 0x00, 0xbf,
  0xd4, 0x6f, 0x96, 0x40, 0xf0, 0xa5, 0xf1, 0xbe, 0x97, 0x39, 0x17, 0x3f,
  0x88, 0xd2, 0x05, 0x3f, 0x7e, 0xcc, 0x72, 0xbe, 0xfe, 0x0c, 0x77, 0x3f,
  0x42, 0x4e, 0xf2, 0x3e, 0x50, 0x39, 0x3f, 0x3f, 0xee, 0x08, 0x55, 0x3f,
  0xe5, 0x27, 0x5c, 0x3c, 0x6f, 0x13, 0xac, 0x3e, 0xfb, 0x99, 0x28, 0xbe,
  0x01, 0x19, 0x01, 0xbe, 0xac, 0xe7, 0xea, 0x3c, 0xaa, 0xb7, 0x1f, 0x3e,
  0xd3, 0x6b, 0xda, 0xbf, 0x25, 0x6a, 0xaf, 0xbe, 0x1f, 0x57, 0x24, 0xbf,
  0xd9, 0xf5, 0x06, 0xc0, 0x05, 0x77, 0x27, 0x3e, 0x77, 0xd5, 0x87, 0xbd,
  0x25, 0x4d, 0xf4, 0xbd, 0x13, 0xcf, 0xbd, 0xbf, 0x86, 0x1f, 0x3d, 0xbd,
  0x89, 0x92, 0x67, 0xbd, 0xed, 0xb4, 0xcc, 0x3e, 0x26, 0xa0, 0x18, 0xbf,
  0x2b, 0x43, 0x29, 0x3f, 0xca, 0xa4, 0x56, 0xbe, 0x60, 0xf8, 0x6d, 0x3e,
  0xae, 0x3d, 0x84, 0xbe, 0x6d, 0xcf, 0xcf, 0x3e, 0xc2, 0x0f, 0x35, 0x3e,
  0x3e, 0xaa, 0x70, 0x3e, 0x52, 0xbc, 0xba, 0xbd, 0x07, 0x4c, 0x44, 0x3e,
  0xff, 0x2c, 0x4d, 0x3d, 0x22, 0x1a, 0x27, 0x3f, 0x49, 0xe0, 0x50, 0xbe,
  0x78, 0xc8, 0xd9, 0xbd, 0x77, 0xa3, 0x0b, 0xbd, 0x76, 0x7e, 0x30, 0x3e,
  0x80, 0x46, 0xcf, 0x3e, 0xfb, 0x14, 0xb2, 0x3e, 0x8c, 0x85, 0x9d, 0x3c,
  0x2e, 0x71, 0xa8, 0xbe, 0x8e, 0xe3, 0xbe, 0xbe, 0xee, 0x6c, 0x2e, 0x3f,
  0x46, 0x4f, 0x27, 0xc0, 0xf3, 0x03, 0xf5, 0x3d, 0x40, 0xe3, 0x57, 0xbd,
  0x60, 0x50, 0x0c, 0xbe, 0x5e, 0x3c, 0xf2, 0x3c, 0xd4, 0xa3, 0xb9, 0xbf,
  0x16, 0x28, 0x2c, 0xbf, 0x1e, 0x93, 0xf4, 0x3e, 0x0d, 0x10, 0x21, 0xbe,
  0x01, 0xad, 0x3b, 0x40, 0xe8, 0x61, 0xb4, 0x3f, 0x26, 0xdc, 0x75, 0x3c,
  0x23, 0x4c, 0x51, 0xc0, 0xe7, 0xfe, 0xfd, 0x3e, 0x93, 0x6f, 0xbc, 0xbd,
  0x53, 0x77, 0x91, 0x3f, 0x41, 0x6c, 0xb6, 0x3f, 0xc7, 0x63, 0xa8, 0x3e,
  0x90, 0x23, 0x37, 0x3f, 0x48, 0xf2, 0x92, 0xbf, 0x9c, 0x89, 0xb9, 0x3e,
  0x74, 0xc2, 0xac, 0x3b, 0x4c, 0x4f, 0x1c, 0x3e, 0xbc, 0x58, 0xc8, 0xbf,
  0x03, 0x73, 0x59, 0xbf, 0x67, 0xcb, 0x9d, 0x3f, 0xbb, 0x7a, 0x3a, 0xbf,
  0xd8, 0x4c, 0x4c, 0xc0, 0x62, 0x92, 0x10, 0x3f, 0xbe, 0xba, 0x2d, 0xbf,
  0xd7, 0x41, 0x4a, 0x3f, 0xac, 0xe6, 0xe1, 0xbd, 0x6e, 0xab, 0x80, 0xbe,
  0xd0, 0x0b, 0x2b, 0x3f, 0x7c, 0x6b, 0xc7, 0xbd, 0x78, 0xaa, 0x35, 0xbe,
  0x6a, 0x73, 0xa6, 0xbf, 0xec, 0x31, 0x7a, 0xbd, 0xbd, 0xda, 0xac, 0x3f,
  0x20, 0xa5, 0x20, 0x3f, 0x73, 0x26, 0x88, 0x3f, 0xea, 0xbb, 0x86, 0xbf,
  0x2a, 0xf5, 0x9d, 0xbf, 0x7c, 0x79, 0x13, 0xbf, 0xd5, 0x60, 0x65, 0xbd,
  0x35, 0x88, 0xb0, 0x3f, 0x2b, 0x53, 0x32, 0x3e, 0x2c, 0x46, 0x5d, 0xbe,
  0xec, 0xe3, 0x99, 0x3f, 0x8c, 0x1f, 0x2a, 0xbe, 0x3b, 0xec, 0x94, 0xbe,
  0x29, 0x23, 0xef, 0xbf, 0x0b, 0x96, 0x74, 0x3f, 0x3e, 0x5d, 0x40, 0xbe,
  0x55, 0x06, 0x1f, 0x40, 0x04, 0xfe, 0x16, 0x3f, 0x98, 0xf1, 0x2b, 0x3f,
  0x93, 0x8b, 0xae, 0xbf, 0x8d, 0x7b, 0xa8, 0x3e, 0xd2, 0xa5, 0xf0, 0xbe,
  0xf0, 0x18, 0xa1, 0x3f, 0x43, 0x01, 0x60, 0x3f, 0x24, 0xa4, 0x22, 0x3f,
  0xe3, 0xfd, 0x0a, 0x3f, 0xf6, 0x22, 0x04, 0x3e, 0xee, 0xe9, 0xe7, 0xbb,
  0x4f, 0x6b, 0x99, 0xbe, 0xa0, 0xd2, 0xf7, 0x3e, 0x0f, 0x90, 0x4c, 0xbd,
  0xd1, 0x90, 0x17, 0xbf, 0xa1, 0x9f, 0xde, 0x3e, 0x74, 0xb9, 0x45, 0x3f,
  0x7d, 0x14, 0xc9, 0x40, 0x5c, 0x24, 0x01, 0x3f, 0xd7, 0xaa, 0x25, 0x3f,
  0xe7, 0xd8, 0xa7, 0x3f, 0xd0, 0xe0, 0xb3, 0xbf, 0x70, 0x08, 0x96, 0x3e,
  0x22, 0x81, 0x1a, 0x3e, 0x6f, 0xd3, 0x9f, 0x3e, 0x53, 0x34, 0x85, 0x3e,
  0x36, 0xce, 0x55, 0x3d, 0x9c, 0x83, 0x91, 0xbe, 0x2a, 0x87, 0xe2, 0xbf,
  0x59, 0x0a, 0xa6, 0xc0, 0x1d, 0xbc, 0x95, 0x3f, 0x37, 0x5d, 0x82, 0xbf,
  0xa4, 0x54, 0xdd, 0x3e, 0x9b, 0x83, 0x24, 0xbf, 0x87, 0xe2, 0x1c, 0xbe,
  0xad, 0x2c, 0xc0, 0xbc, 0xb3, 0xfe, 0x88, 0xbf, 0xf5, 0xe7, 0x4e, 0xbe,
  0x09, 0x2f, 0x8c, 0x3e, 0xd7, 0x34, 0xee, 0x3d, 0x70, 0xc7, 0x58, 0xc0,
  0x95, 0x8d, 0x0e, 0xbd, 0x90, 0xab, 0x29, 0x3e, 0x47, 0xa6, 0xdb, 0x3e,
  0x7c, 0xd5, 0x4f, 0xbe, 0x9b, 0x4c, 0x91, 0x3e, 0xf4, 0xe6, 0x13, 0x3e,
  0x8a, 0x68, 0x36, 0x40, 0xd4, 0x12, 0xb9, 0x3d, 0xf3, 0xea, 0xa3, 0x3f,
  0x76, 0xc1, 0x20, 0xbe, 0x78, 0xfa, 0xe8, 0xbe, 0x52, 0x1f, 0x18, 0xbd,
  0x04, 0x73, 0xca, 0x3c, 0xcf, 0x7c, 0x8e, 0xbd, 0x01, 0x33, 0x09, 0xbf,
  0x53, 0x8b, 0x75, 0x3c, 0xc5, 0x13, 0x40, 0x3e, 0x8d, 0xc9, 0xd5, 0x3f,
  0x8f, 0x7f, 0x0a, 0xbe, 0x0d, 0xa7, 0xf5, 0xbf, 0xdb, 0x0c, 0x3b, 0xbe,
  0x16, 0x6b, 0x83, 0x40, 0xcf, 0xb4, 0x41, 0x3d, 0x3d, 0x98, 0x74, 0x3e,
  0xd2, 0xc2, 0x8a, 0xbe, 0x40, 0x77, 0xe7, 0xbd, 0x9f, 0x54, 0x50, 0xbe,
  0x96, 0x20, 0xd6, 0x3d, 0x96, 0x3c, 0x5f, 0xbf, 0x9e, 0x11, 0x44, 0xbf,
  0x7b, 0x3e, 0x89, 0xbf, 0xf3, 0x39, 0x5a, 0xbf, 0x5c, 0xdf, 0xdc, 0xbf,
  0xce, 0x32, 0x79, 0x3b, 0x61, 0x72, 0x08, 0xbf, 0xa7, 0xff, 0x19, 0xbf,
  0xe7, 0xbf, 0x67, 0xbe, 0x2c, 0x7b, 0x9d, 0xbe, 0x4d, 0xe0, 0x31, 0xbf,
  0xda, 0x3b, 0x6a, 0x3e, 0x5d, 0xc5, 0x28, 0x3f, 0xbb, 0xc8, 0x10, 0x3f,
  0x49, 0x73, 0x8c, 0x3f, 0x85, 0x10, 0x67, 0xbf, 0x9e, 0x52, 0x6c, 0xbf,
  0xaa, 0xe6, 0x8d, 0xbf, 0x4f, 0xcc, 0x9b, 0x3d, 0xf9, 0xd8, 0xd4, 0x3e,
  0x30, 0x2f, 0x99, 0x3f, 0x22, 0xa7, 0x29, 0x3e, 0x30, 0xe3, 0xd4, 0xbe,
  0xde, 0x0d, 0x79, 0xbd, 0xda, 0xc4, 0x61, 0xbd, 0x63, 0xc2, 0x6d, 0x3e,
  0x1b, 0x25, 0x66, 0x3f, 0x3a, 0xcd, 0xd3, 0xbe, 0xda, 0x46, 0x6f, 0x3f,
  0x78, 0x77, 0x63, 0x3e, 0x9d, 0x96, 0xf9, 0x3d, 0x1c, 0xcc, 0xc8, 0x3e,
  0x68, 0x57, 0x2c, 0xbe, 0x9e, 0x0d, 0x01, 0xbe, 0x53, 0x5c, 0x93, 0x3f,
  0xe4, 0x29, 0x6f, 0x40, 0xf9, 0xf9, 0x4e, 0xbe, 0x95, 0xf0, 0xab, 0x3f,
  0x77, 0xe5, 0xe4, 0xbf, 0xe1, 0xdf, 0x06, 0x3f, 0xdb, 0xaa, 0xa5, 0xbe,
  0xf9, 0xe1, 0xa8, 0x3f, 0x9c, 0x04, 0x51, 0xbe, 0x08, 0x87, 0x84, 0x3f,
  0x40, 0x38, 0x3e, 0x3e, 0x2e, 0x3e, 0x49, 0x3e, 0xcb, 0x64, 0x0f, 0xbf,
  0x5b, 0x18, 0xe7, 0xbe, 0x07, 0x79, 0x9f, 0xbf, 0x73, 0x6d, 0x98, 0x3e,
  0x1d, 0x92, 0x8f, 0x3f, 0x73, 0x80, 0x0e, 0xbf, 0x12, 0x81, 0x05, 0xbf,
  0x30, 0x1b, 0x55, 0x40, 0x3f, 0x38, 0x31, 0x3e, 0xc2, 0x86, 0x08, 0x3f,
  0xd9, 0x42, 0xa8, 0x3e, 0x63, 0xb3, 0xe0, 0x3e, 0x82, 0xec, 0x0b, 0xbc,
  0x32, 0xbf, 0x20, 0x3e, 0x00, 0x2c, 0xd5, 0xbf, 0xa1, 0x39, 0xb8, 0x3e,
  0xa2, 0xa7, 0x0c, 0xbf, 0xed, 0xa0, 0xc0, 0x3e, 0xfa, 0x3f, 0x5d, 0x3f,
  0xf7, 0x7f, 0x94, 0xc0, 0x4b, 0xdf, 0x34, 0x3f, 0xa5, 0xe1, 0x18, 0x3f,
  0xff, 0xe4, 0xf8, 0x3f, 0xcb, 0x09, 0x8a, 0xbe, 0x68, 0xbe, 0x36, 0xbe,
  0xf9, 0x87, 0xff, 0xbf, 0x1e, 0xb7, 0x89, 0xbf, 0xc3, 0x97, 0x11, 0xbf,
  0x49, 0xda, 0xeb, 0x3e, 0x1a, 0xd1, 0xf6, 0xbe, 0xe6, 0x3d, 0xc1, 0xbf,
  0xaf, 0x8b, 0x1a, 0xbf, 0x96, 0x05, 0x9b, 0xbe, 0xde, 0xd7, 0x1e, 0xc0,
  0x47, 0x52, 0x64, 0x3f, 0x5b, 0x9d, 0x51, 0x3d, 0x8d, 0x75, 0x42, 0x3f,
  0x79, 0xc9, 0x8b, 0xbe, 0xce, 0x75, 0x1d, 0xbf, 0xe3, 0x28, 0x58, 0x3f,
  0xfc, 0x7c, 0x0e, 0x3f, 0x10, 0x63, 0x12, 0x3f, 0xb2, 0x77, 0xa6, 0x3e,
  0xc7, 0x94, 0x81, 0x3f, 0x03, 0xfe, 0xe0, 0xbf, 0x9e, 0xab, 0x14, 0xc0,
  0xad, 0xf6, 0x82, 0x3e, 0xb6, 0xa5, 0xbc, 0xbe, 0x41, 0xa3, 0x2a, 0xbf,
  0x83, 0x7a, 0xf0, 0x3e, 0xfa, 0x50, 0xb6, 0x3f, 0x33, 0xc5, 0x8f, 0xbf,
  0x78, 0xb3, 0xa5, 0x3f, 0xca, 0x43, 0x3d, 0x3f, 0xfd, 0x88, 0x0a, 0x3f,
  0xa7, 0x24, 0xc5, 0xbe, 0x78, 0x5e, 0x8f, 0xbe, 0x8a, 0xd8, 0x23, 0x3f,
  0x2e, 0x4c, 0xdd, 0x3f, 0xd2, 0x9e, 0x24, 0xbf, 0x9e, 0xe9, 0xff, 0xbe,
  0xc3, 0x92, 0xb8, 0xbf, 0xe9, 0x7d, 0xc2, 0x3d, 0x40, 0xd6, 0xa6, 0xbf,
  0x32, 0xda, 0xd9, 0x3f, 0xc6, 0xc1, 0x93, 0xbf, 0xab, 0xc4, 0x59, 0xbe,
  0x1b, 0x59, 0x94, 0xc0, 0x47, 0xa0, 0x9d, 0x3f, 0x54, 0xc6, 0x4e, 0xbf,
  0x7b, 0x0f, 0x88, 0xbf, 0x7b, 0x6a, 0x92, 0xbe, 0x35, 0x0e, 0x71, 0xbe,
  0x39, 0x1e, 0xd6, 0x3e, 0x1b, 0x15, 0x24, 0xbe, 0xbb, 0xba, 0x12, 0xbf,
  0x56, 0x47, 0x93, 0x3e, 0x4e, 0x3b, 0xd5, 0xbf, 0x9b, 0x8b, 0x9f, 0x3f,
  0x0b, 0x4c, 0x1a, 0xc0, 0x37, 0xa7, 0x98, 0x3f, 0x2d, 0xb4, 0xc4, 0xbf,
  0xc9, 0x8c, 0x87, 0x40, 0xa5, 0x58, 0x68, 0x3f, 0x02, 0x51, 0x09, 0x3f,
  0x5d, 0x0c, 0x3b, 0xbf, 0x74, 0x33, 0x26, 0x3f, 0x71, 0x76, 0x0e, 0x3d,
  0x15, 0xbb, 0xc2, 0xbc, 0xc8, 0x52, 0xd7, 0x3e, 0xfa, 0x20, 0xd2, 0x3e,
  0xca, 0x79, 0xbc, 0x3e, 0x6b, 0xd2, 0x8a, 0x3e, 0xdb, 0x34, 0x97, 0x3e,
  0x6d, 0xb5, 0x72, 0xbf, 0xea, 0x26, 0xcc, 0xbe, 0xd6, 0x2b, 0x0d, 0xbd,
  0xe6, 0x90, 0xd0, 0xbf, 0x47, 0xf7, 0x2f, 0xbe, 0x06, 0xfa, 0xe5, 0xbe,
  0x97, 0x72, 0xde, 0x3f, 0xb6, 0x26, 0x57, 0x3d, 0x6e, 0x2e, 0x87, 0x3d,
  0x04, 0xd5, 0xd8, 0xbe, 0x4c, 0xb4, 0xbb, 0xbe, 0x20, 0x02, 0x58, 0xbf,
  0xa9, 0x1d, 0x4d, 0xbf, 0x3b, 0x3a, 0x14, 0xbf, 0x8f, 0x88, 0x6e, 0xbe,
  0xa4, 0x47, 0x10, 0x3e, 0xcc, 0xb4, 0x07, 0xbf, 0x34, 0x46, 0x6d, 0x3f,
  0xdb, 0xac, 0x45, 0x3f, 0x84, 0x46, 0xa4, 0x3c, 0xd5, 0xc5, 0xb7, 0xbe,
  0x59, 0x9b, 0x2e, 0xc0, 0x28, 0xd1, 0x39, 0x3f, 0x6d, 0x4f, 0x4a, 0xbf,
  0x6b, 0xae, 0x03, 0x3f, 0x0b, 0xb3, 0x25, 0x3f, 0x5a, 0x1a, 0x07, 0xbe,
  0x7a, 0xd7, 0x30, 0xbe, 0x55, 0x0f, 0xac, 0xbf, 0xa7, 0x10, 0x60, 0x3f,
  0x40, 0x0e, 0x96, 0xc0, 0xb8, 0xe2, 0x34, 0x3e, 0x56, 0x4d, 0xa0, 0xbf,
  0x3b, 0xab, 0x34, 0x3f, 0xdc, 0x9d, 0x2f, 0xbf, 0xec, 0xb4, 0x43, 0x3e,
  0xb8, 0xc9, 0x1d, 0x3f, 0x54, 0x2d, 0xc5, 0xbd, 0xa4, 0xf4, 0x47, 0x3f,
  0x49, 0xef, 0x85, 0x3e, 0x33, 0xf1, 0xd0, 0xbe, 0x40, 0xaa, 0x0b, 0xbf,
  0x56, 0xb8, 0xf4, 0xbe, 0x84, 0x6e, 0x22, 0xbf, 0x6a, 0x30, 0x4e, 0x3e,
  0x19, 0x31, 0xa3, 0x40, 0x53, 0xac, 0x3c, 0xbf, 0xbb, 0x05, 0xb8, 0x3d,
  0xa7, 0xe2, 0x3a, 0x3f, 0x62, 0x81, 0x83, 0x3f, 0xf8, 0x4b, 0x97, 0x3e,
  0x5c, 0xdd, 0x1f, 0x3f, 0xbb, 0x7e, 0xed, 0x3c, 0x04, 0x2f, 0x4b, 0x3d,
  0xbb, 0xe5, 0x6a, 0xbd, 0x52, 0x6d, 0xcf, 0xbc, 0x18, 0xcd, 0x67, 0xbe,
  0x1d, 0xab, 0x31, 0xc0, 0xef, 0x2c, 0x9f, 0x3e, 0x99, 0xba, 0x45, 0x3e,
  0xb3, 0xa4, 0x33, 0x40, 0xd1, 0xb6, 0x40, 0x3f, 0x41, 0x83, 0x9b, 0x3e,
  0x35, 0xef, 0xed, 0x3f, 0x68, 0x64, 0x3d, 0x3f, 0xf4, 0xbc, 0xc6, 0x3e,
  0xaa, 0xea, 0xeb, 0x3f, 0x23, 0xec, 0xc6, 0xbe, 0xd0, 0x3a, 0xcf, 0x3e,
  0x3b, 0x0b, 0x16, 0x3f, 0x7a, 0x84, 0x9d, 0x3e, 0x5a, 0x95, 0xc4, 0x3e,
  0xb9, 0xc5, 0xa9, 0xc0, 0x86, 0xcb, 0xe3, 0x3e, 0x4b, 0x61, 0xaf, 0xbb,
  0xaf, 0x3a, 0xf5, 0xbc, 0xd9, 0x78, 0x1c, 0x3f, 0xaa, 0x59, 0x77, 0x3e,
  0x98, 0x33, 0x3c, 0xbf, 0x34, 0xc0, 0x03, 0x3d, 0x15, 0xff, 0xdf, 0xbc,
  0x76, 0x86, 0xf3, 0x3f, 0xbd, 0x92, 0xe0, 0x3d, 0x74, 0x7f, 0x7a, 0x3d,
  0x34, 0xf9, 0x1a, 0xbd, 0x83, 0xd3, 0x29, 0xbf, 0x58, 0x7a, 0x25, 0xbe,
  0xad, 0x24, 0xe0, 0xbf, 0xac, 0xd8, 0xee, 0xbe, 0x1b, 0x3b, 0x92, 0xbf,
  0x81, 0x7e, 0xa5, 0xbf, 0x7e, 0xf3, 0xb1, 0x3e, 0xd3, 0x40, 0x93, 0xbf,
  0xd9, 0x46, 0x39, 0xbf, 0xd6, 0xd9, 0x7c, 0x3f, 0x86, 0x43, 0x22, 0xbf,
  0xee, 0x36, 0xce, 0x3f, 0x7c, 0x13, 0xd9, 0x3d, 0xd3, 0x7e, 0xff, 0xbe,
  0x07, 0x1d, 0xd6, 0x3e, 0x62, 0x8c, 0x3e, 0xbd, 0x4c, 0x7d, 0xbe, 0xbf,
  0xca, 0x00, 0xba, 0xbd, 0x37, 0x18, 0xa3, 0x3e, 0x88, 0x49, 0xba, 0xbe,
  0x82, 0x58, 0xd4, 0xbd, 0x77, 0xa7, 0xf9, 0xbc, 0x84, 0xbb, 0xe4, 0x3e,
  0x2f, 0x1a, 0xf1, 0x3f, 0x4e, 0x12, 0x5d, 0x3c, 0x4f, 0xbb, 0x3f, 0x3f,
  0x4d, 0xbd, 0xb6, 0x3e, 0x94, 0x70, 0xda, 0xbe, 0x3e, 0x8a, 0xd9, 0xbc,
  0x89, 0x8c, 0xd4, 0x3d, 0xd7, 0x4d, 0xad, 0xbf, 0x96, 0xf2, 0xbd, 0xbc,
  0x9b, 0x9c, 0xc1, 0xbf, 0x28, 0x6c, 0x7d, 0x3f, 0xa9, 0x15, 0xca, 0xbd,
  0x8d, 0x88, 0xae, 0x3f, 0x44, 0xd9, 0xd4, 0xbd, 0xb6, 0x27, 0x18, 0x3f,
  0x7d, 0x10, 0x89, 0x3f, 0xda, 0xbe, 0x68, 0x3f, 0x01, 0xfe, 0x3e, 0xbe,
  0x0d, 0xe8, 0x4c, 0x40, 0x5e, 0xa7, 0x6c, 0xbf, 0x6c, 0x91, 0xa1, 0x3e,
  0x9d, 0x13, 0x25, 0x3f, 0xa1, 0x5f, 0x15, 0x3d, 0x17, 0x66, 0x04, 0x3f,
  0x54, 0x3b, 0x25, 0xbc, 0x40, 0x03, 0x12, 0x3f, 0x31, 0xb6, 0x35, 0x3f,
  0x49, 0xb2, 0x70, 0x3f, 0x8b, 0xd2, 0x17, 0x3f, 0xb2, 0x58, 0x2c, 0x3f,
  0xfc, 0x39, 0xa0, 0xc0, 0xde, 0x2b, 0xe2, 0xbd, 0xe3, 0x73, 0xd8, 0xbe,
  0x4b, 0x66, 0x6f, 0xbe, 0x73, 0xaf, 0x49, 0x3f, 0x42, 0x61, 0xa4, 0xbc,
  0x75, 0xf4, 0xa5, 0xbd, 0x0e, 0x81, 0xc3, 0xbf, 0x38, 0xe0, 0xa4, 0xbe,
  0x3f, 0x25, 0xe8, 0xbe, 0x0c, 0xc3, 0xa5, 0xbe, 0x62, 0xaf, 0xe1, 0xbd,
  0xc2, 0x8d, 0x73, 0x3e, 0x07, 0x21, 0xb2, 0x3f, 0x58, 0xab, 0x19, 0xbf,
  0x8e, 0x96, 0x55, 0x3f, 0x0a, 0x83, 0x57, 0x3e, 0x56, 0xde, 0x95, 0xbe,
  0x07, 0x5b, 0xb1, 0xbd, 0x52, 0xbc, 0x78, 0x3e, 0xc7, 0x6c, 0x82, 0xbf,
  0x66, 0xc6, 0xae, 0x3f, 0x93, 0xd0, 0xd5, 0x3c, 0x0f, 0x5b, 0xae, 0xbf,
  0xee, 0x65, 0x04, 0x3e, 0x2b, 0x8d, 0x70, 0xbe, 0x13, 0x5a, 0xe4, 0xbf,
  0xe8, 0xd3, 0x73, 0xbf, 0x59, 0xdc, 0x8a, 0x3f, 0xd5, 0x5c, 0x90, 0x3e,
  0x8c, 0x57, 0xfa, 0x3f, 0x9f, 0xf2, 0x9b, 0x3e, 0x60, 0x44, 0x79, 0x3f,
  0xf8, 0x77, 0x53, 0xbf, 0x0c, 0xbc, 0xcd, 0xbe, 0x74, 0x13, 0xe8, 0x3e,
  0x7c, 0x60, 0x06, 0x40, 0xbb, 0x7d, 0xe3, 0xbe, 0x9d, 0x09, 0x52, 0xbf,
  0xc4, 0x6f, 0xfd, 0xbe, 0x57, 0xd9, 0xa0, 0xbf, 0x6d, 0xa8, 0x9e, 0x3d,
  0x69, 0x3d, 0x42, 0x40, 0xf6, 0x43, 0x3f, 0xbf, 0x02, 0x8d, 0x48, 0xbf,
  0x42, 0xd9, 0x38, 0x40, 0xfc, 0x40, 0xab, 0x3e, 0xbd, 0xa5, 0xb0, 0xbe,
  0x36, 0xd8, 0x29, 0x3f, 0xe3, 0x9b, 0x7e, 0xbf, 0x65, 0x66, 0x0f, 0x3f,
  0xba, 0x48, 0x61, 0x3f, 0x1b, 0x40, 0x06, 0xbf, 0x3e, 0x64, 0x21, 0xbf,
  0x6f, 0x9b, 0x17, 0xbe, 0xdc, 0x9e, 0x04, 0xc0, 0xf9, 0x17, 0xe0, 0x3f,
  0x06, 0x2c, 0x80, 0x40, 0xc1, 0x28, 0x43, 0xbf, 0xdf, 0xbb, 0xc6, 0xbf,
  0x6b, 0xa0, 0x1b, 0x40, 0x87, 0xbb, 0xd4, 0x3e, 0x71, 0x8d, 0xa8, 0x3d,
  0x6e, 0xd8, 0x18, 0x3f, 0x00, 0xe9, 0xb3, 0xbe, 0xf9, 0x1d, 0x8a, 0xbe,
  0xef, 0xc5, 0x30, 0x3f, 0xb0, 0x78, 0x69, 0xbf, 0x85, 0xef, 0xbc, 0xbd,
  0xed, 0xdf, 0x77, 0xbd, 0xee, 0xea, 0x83, 0xbf, 0xa1, 0x4d, 0xb9, 0xbf,
  0x61, 0xda, 0xb7, 0x40, 0xee, 0xfe, 0x96, 0x3e, 0x49, 0xde, 0x98, 0xbf,
  0x9c, 0x39, 0xb0, 0xbf, 0xf6, 0xa5, 0x88, 0x3e, 0xcb, 0x42, 0xfd, 0xbe,
  0xc3, 0x69, 0x90, 0xbe, 0x58, 0x10, 0xe0, 0x3d, 0xcf, 0x81, 0x06, 0xbf,
  0x01, 0xda, 0x9f, 0x3e, 0x16, 0x64, 0x5a, 0x3e, 0x06, 0xb3, 0xe4, 0xbe,
  0x08, 0x45, 0x9f, 0xbe, 0xe0, 0x1a, 0x34, 0x3e, 0xd0, 0x1a, 0x8c, 0x3f,
  0x55, 0x4b, 0x44, 0xc0, 0x0f, 0x2a, 0x8a, 0xbf, 0x35, 0x48, 0x6d, 0x3e,
  0x8d, 0x1f, 0x29, 0x40, 0x3f, 0xc9, 0xf8, 0xbe, 0x20, 0xf1, 0x30, 0x3f,
  0xed, 0xc9, 0x92, 0x3f, 0x69, 0x92, 0xc5, 0x3e, 0xc3, 0xd1, 0xe0, 0xbd,
  0xa9, 0x4f, 0x6d, 0x3c, 0x5a, 0xdc, 0xff, 0xff, 0x04, 0x00, 0x00, 0x00,
  0x00, 0x20, 0x00, 0x00, 0x9e, 0xe0, 0x20, 0xbf, 0x49, 0xc0, 0xa5, 0x3d,
  0xc1, 0x1a, 0x98, 0x3c, 0xfb, 0x81, 0x4b, 0xbe, 0xa5, 0x9b, 0x81, 0xbf,
  0x8a, 0x1a, 0x68, 0xbd, 0x11, 0xbe, 0x25, 0xbf, 0xe7, 0xf3, 0x85, 0xbe,
  0x96, 0x2c, 0x82, 0xbf, 0xeb, 0x44, 0xfc, 0x3d, 0x53, 0x17, 0x66, 0xbe,
  0x6e, 0x01, 0xec, 0xbe, 0x1a, 0xde, 0x7f, 0xbe, 0x15, 0xd5, 0x0b, 0xbf,
  0x3e, 0xaf, 0x12, 0xbe, 0xac, 0x04, 0x06, 0xbe, 0x7e, 0xdf, 0xb5, 0xbe,
  0x98, 0xe9, 0x1b, 0xbf, 0xfe, 0x36, 0x3b, 0xbf, 0x45, 0x30, 0xfd, 0xbd,
  0xb3, 0x9f, 0xfc, 0xbe, 0x97, 0xc4, 0x49, 0xbe, 0x08, 0x39, 0x34, 0xbf,
  0x65, 0xa4, 0xf2, 0xbe, 0x1a, 0xa1, 0x08, 0xbf, 0xe3, 0xbd, 0x0a, 0xbe,
  0x0a, 0xa8, 0x2e, 0xbf, 0x85, 0x90, 0x89, 0xbe, 0x5d, 0x46, 0xa0, 0xbe,
  0x42, 0x94, 0x7d, 0x3e, 0x0f, 0x1e, 0x89, 0xbf, 0x2a, 0x34, 0xb9, 0xbd,
  0x43, 0xee, 0x28, 0xbf, 0x5d, 0x37, 0x56, 0xbe, 0xe6, 0x00, 0x08, 0xbe,
  0x15, 0xc4, 0x18, 0xbf, 0xad, 0x29, 0xd3, 0xbe, 0x5d, 0x55, 0x21, 0xbe,
  0xdc, 0xf1, 0x57, 0xbf, 0xa3, 0xf1, 0x86, 0x3d, 0x8d, 0x8c, 0x27, 0x3d,
  0x6d, 0xf1, 0x04, 0x3e, 0xce, 0x80, 0xb2, 0xbe, 0x41, 0xd0, 0x23, 0xbf,
  0x24, 0xcb, 0x0c, 0xbe, 0xdd, 0x33, 0x97, 0x3d, 0x5c, 0xd7, 0x51, 0xbe,
  0x1c, 0xe9, 0x79, 0xbf, 0x9d, 0xc3, 0xaf, 0xbc, 0x5f, 0xed, 0x98, 0x3e,
  0x42, 0x54, 0x00, 0xbe, 0x47, 0x88, 0xec, 0xbd, 0xd2, 0x76, 0x1d, 0x3d,
  0x95, 0x9d, 0x10, 0xbf, 0xb0, 0x4a, 0x7e, 0xbe, 0xae, 0x1f, 0x02, 0xbe,
  0x39, 0x5e, 0xdc, 0x3c, 0x30, 0x11, 0xc0, 0xbe, 0x7c, 0xae, 0x3a, 0xbc,
  0x3a, 0xd1, 0x44, 0xbf, 0x11, 0x49, 0x46, 0xbf, 0x6b, 0x4e, 0x07, 0xbf,
  0x5f, 0xf2, 0x6e, 0xbe, 0x69, 0x10, 0x89, 0xbd, 0xf2, 0xc3, 0x90, 0xbe,
  0xad, 0x5a, 0xb4, 0x3c, 0xcb, 0xd9, 0x14, 0xbe, 0xc5, 0x25, 0x15, 0xbd,
  0x9b, 0xa3, 0x24, 0xbe, 0xf0, 0xd6, 0xa3, 0x3d, 0x2e, 0x7b, 0xed, 0xbd,
  0x6a, 0x2e, 0x3b, 0xbd, 0x38, 0xc2, 0x12, 0xbe, 0xdc, 0x2d, 0x01, 0xbe,
  0xca, 0x08, 0x86, 0xbb, 0xba, 0x09, 0x99, 0xbd, 0x17, 0x73, 0x2d, 0xbe,
  0xad, 0x21, 0xac, 0xbe, 0x90, 0xf0, 0xa0, 0xbe, 0x8a, 0x9c, 0x06, 0xbd,
  0x0e, 0x33, 0x37, 0xbd, 0x53, 0x72, 0x72, 0xbd, 0x68, 0x61, 0x20, 0xbe,
  0x25, 0xdd, 0x58, 0xbd, 0xaa, 0x6a, 0x67, 0x3c, 0x18, 0x9f, 0xba, 0x3c,
  0xa6, 0xc1, 0x82, 0xbd, 0x1f, 0x8a, 0x56, 0xbe, 0x1e, 0xf5, 0x8d, 0xbe,
  0x47, 0x31, 0x87, 0xbe, 0x34, 0x8a, 0xa2, 0xbd, 0xf9, 0x74, 0xf2, 0xbd,
  0x7e, 0x46, 0x15, 0xbe, 0x8a, 0xb5, 0x7e, 0xbe, 0xbc, 0x88, 0x28, 0xbe,
  0xc6, 0xdb, 0x2e, 0x3c, 0x0f, 0xaa, 0x53, 0xbe, 0x68, 0x15, 0x71, 0x3c,
  0xf9, 0x18, 0x6e, 0xbe, 0x99, 0x93, 0x1a, 0x3d, 0x4c, 0x44, 0x2a, 0xbe,
  0x75, 0x85, 0xbc, 0xbd, 0x67, 0x34, 0x14, 0xbb, 0xaf, 0x59, 0x12, 0xbd,
  0x86, 0x09, 0x0d, 0xbd, 0x69, 0x67, 0x77, 0x3d, 0xbe, 0x93, 0xf6, 0xbd,
  0x60, 0xd1, 0x3d, 0xbc, 0x3c, 0x46, 0x2d, 0xbc, 0xc7, 0x4d, 0x2d, 0xbe,
  0x79, 0xf4, 0x37, 0xbe, 0xc4, 0xa0, 0x9a, 0xbe, 0x44, 0x77, 0xce, 0xbd,
  0xcd, 0x96, 0x86, 0x3c, 0x03, 0xdd, 0x6b, 0xbe, 0xb8, 0x8c, 0x97, 0xbe,
  0x90, 0x35, 0x2c, 0xbe, 0x50, 0x9c, 0x58, 0xbd, 0xf1, 0x41, 0x51, 0x3d,
  0x06, 0xc3, 0x5a, 0xbd, 0xdc, 0xf3, 0xcd, 0xba, 0xe5, 0x16, 0x16, 0xbe,
  0x73, 0x30, 0xdd, 0xbd, 0x46, 0xb7, 0x36, 0xbe, 0xf6, 0xf1, 0x07, 0xbe,
  0xe0, 0x5f, 0x29, 0xbe, 0x7a, 0xb1, 0x9d, 0xbe, 0x04, 0xd7, 0x36, 0xbe,
  0x93, 0x52, 0xd6, 0xbd, 0x14, 0xe9, 0xb2, 0x3c, 0x54, 0xc4, 0x5a, 0xbe,
  0xeb, 0x1b, 0x2b, 0xbc, 0x11, 0xf0, 0x22, 0xbe, 0x35, 0xf8, 0x2d, 0xbe,
  0x78, 0xdc, 0x94, 0xbe, 0x22, 0x56, 0x92, 0xbe, 0xc7, 0xe0, 0xe8, 0x3b,
  0xb9, 0x56, 0xe4, 0xbe, 0xab, 0xa2, 0x43, 0xbf, 0xc5, 0x69, 0xf0, 0xbe,
  0x4e, 0x40, 0x15, 0xbf, 0x97, 0x2b, 0x63, 0xbe, 0x2d, 0x33, 0xf0, 0xbd,
  0x35, 0x64, 0xff, 0xbd, 0xac, 0x19, 0xbd, 0xbe, 0xc8, 0x23, 0x04, 0xbf,
  0xdd, 0x81, 0x80, 0xbe, 0xbd, 0x04, 0x18, 0xbd, 0x3f, 0xf5, 0xa4, 0xbd,
  0xa1, 0x59, 0x7f, 0xbf, 0xed, 0x93, 0x8b, 0xbe, 0xac, 0x75, 0xf9, 0xbd,
  0x95, 0xb2, 0x58, 0xbd, 0xe6, 0xf4, 0xc9, 0x3e, 0xc8, 0xa5, 0x66, 0xbf,
  0xf3, 0x64, 0x88, 0xbd, 0xcb, 0x43, 0xce, 0xbe, 0xfe, 0xf3, 0xe1, 0xbe,
  0x84, 0xf8, 0x1f, 0xbd, 0x14, 0xe1, 0x80, 0xbe, 0x4b, 0x3b, 0xff, 0xbe,
  0xe1, 0x24, 0xb5, 0xbe, 0x57, 0x1c, 0xda, 0xbd, 0xf4, 0x14, 0x44, 0xbd,
  0xaa, 0xd1, 0x35, 0xbf, 0x71, 0x78, 0x2d, 0xbf, 0x3c, 0x67, 0xbe, 0xbe,
  0xb6, 0x3b, 0xeb, 0xbd, 0x95, 0xcf, 0x97, 0xbe, 0x17, 0x4d, 0x1b, 0xbe,
  0x03, 0x78, 0x63, 0x3e, 0xf2, 0x42, 0xaf, 0xbe, 0x1a, 0x14, 0x0c, 0xbf,
  0xdf, 0x41, 0x91, 0xbe, 0xd3, 0x39, 0xb3, 0xbd, 0xba, 0x05, 0x9b, 0xbe,
  0x7f, 0x60, 0xde, 0xbd, 0xc8, 0x31, 0xca, 0xbd, 0x96, 0xe4, 0x67, 0xbd,
  0x62, 0x47, 0x70, 0xbe, 0x08, 0x8e, 0x04, 0xbf, 0xbc, 0x0b, 0x91, 0xbe,
  0x65, 0x9a, 0xc0, 0xbd, 0x20, 0x19, 0xfc, 0xbe, 0x80, 0x2a, 0x71, 0xbe,
  0x25, 0xec, 0x3e, 0xbf, 0x42, 0x28, 0x00, 0xbf, 0x66, 0x94, 0xc8, 0xbe,
  0xae, 0xc9, 0x12, 0xbf, 0x03, 0xd5, 0x87, 0xbf, 0x9e, 0xdf, 0x3e, 0x3e,
  0x10, 0x74, 0xdb, 0xbe, 0xe7, 0x1c, 0x8a, 0x3e, 0x70, 0xd5, 0xf5, 0xbf,
  0xc0, 0xbd, 0xcf, 0x3b, 0x87, 0x4e, 0x38, 0xbf, 0x5f, 0x47, 0xd0, 0x3d,
  0x7a, 0xb7, 0x96, 0xbf, 0x02, 0x68, 0xc5, 0x3d, 0x7d, 0x39, 0x4d, 0x3e,
  0xc3, 0x34, 0x12, 0xc0, 0x8b, 0x8e, 0x1c, 0xbe, 0x7d, 0x5c, 0x0e, 0xbe,
  0x97, 0xba, 0x7f, 0xbe, 0xf9, 0xd5, 0x14, 0xbf, 0x95, 0x42, 0x56, 0xbf,
  0x4e, 0xc6, 0x46, 0x3e, 0x1b, 0x14, 0x36, 0x3d, 0x78, 0xaa, 0x0b, 0xbe,
  0x5f, 0xda, 0x0e, 0x3f, 0xe1, 0x35, 0x1a, 0xbf, 0x08, 0x77, 0xab, 0xbe,
  0xf8, 0x2b, 0x6a, 0x3d, 0x57, 0x08, 0x3c, 0xbe, 0xba, 0x0c, 0x71, 0x3e,
  0xf9, 0x83, 0xcb, 0x3d, 0x11, 0x72, 0x87, 0xbe, 0x9c, 0x56, 0xba, 0xbe,
  0xcc, 0x37, 0x38, 0x3f, 0x1a, 0x79, 0xb4, 0xbe, 0x09, 0xb0, 0x6c, 0x3d,
  0xed, 0xed, 0x64, 0xbe, 0x73, 0xa7, 0x7f, 0x3e, 0x16, 0x82, 0x62, 0xbe,
  0xa0, 0xa2, 0x8f, 0x3e, 0x6a, 0xc9, 0xf4, 0xbf, 0xd1, 0x6f, 0x29, 0xbf,
  0xd1, 0xd2, 0x62, 0x3e, 0x5a, 0xfa, 0xbc, 0x3e, 0x5d, 0x5d, 0xe5, 0x3d,
  0xcc, 0x81, 0x14, 0x3f, 0x5b, 0xea, 0xda, 0xbe, 0x8f, 0x0a, 0x9e, 0xbf,
  0x3a, 0x31, 0x21, 0xbf, 0x40, 0x44, 0xf0, 0xbb, 0xc4, 0x61, 0x0e, 0x3e,
  0x2f, 0xda, 0xf6, 0xbd, 0x5e, 0x32, 0x1b, 0xbf, 0x3e, 0xc9, 0xd7, 0xbd,
  0x45, 0xb4, 0xe7, 0xbe, 0xef, 0x5d, 0xb4, 0xbd, 0x81, 0x24, 0x90, 0xbe,
  0x9d, 0x1c, 0xcb, 0xbf, 0xf2, 0x52, 0x51, 0x3e, 0xef, 0xc8, 0xb0, 0xbe,
  0x44, 0xf8, 0xe8, 0xbe, 0xa2, 0x96, 0xb8, 0x3e, 0x85, 0x28, 0x7e, 0x3d,
  0xae, 0x8d, 0x01, 0xbf, 0x32, 0xae, 0xe4, 0xbd, 0x71, 0x63, 0x83, 0x3d,
  0x36, 0x4c, 0x56, 0x3b, 0xa2, 0xad, 0x39, 0x3f, 0x75, 0xbe, 0xa7, 0x3c,
  0x50, 0xfb, 0x08, 0xbe, 0x17, 0x81, 0x53, 0xbf, 0xdf, 0xf7, 0xa9, 0xbd,
  0xfe, 0x22, 0x63, 0xbe, 0xdb, 0x53, 0xb0, 0xbe, 0x7c, 0x2b, 0x01, 0xbe,
  0x9c, 0x8c, 0x1b, 0x3f, 0x24, 0xd7, 0x8c, 0x3d, 0xa9, 0xcf, 0x79, 0x3d,
  0x39, 0x6b, 0x03, 0x3d, 0xbe, 0xcc, 0x95, 0xbd, 0x2f, 0xa2, 0x8a, 0xbd,
  0x6f, 0xab, 0xd6, 0xbd, 0x6a, 0xb6, 0x2f, 0x3e, 0x9d, 0x41, 0xfa, 0x3d,
  0x90, 0x23, 0x81, 0xbb, 0xaf, 0x69, 0x0a, 0xbe, 0x3d, 0x57, 0x06, 0xbe,
  0x81, 0x9c, 0xf2, 0xbe, 0xbf, 0xb7, 0x60, 0x3e, 0xfc, 0x9d, 0xaa, 0xbd,
  0x80, 0x35, 0xb5, 0xbd, 0x8e, 0x98, 0xb9, 0xbd, 0x47, 0x79, 0x50, 0xbe,
  0xfe, 0x43, 0x34, 0xbe, 0x92, 0xdb, 0x28, 0xbd, 0x19, 0xb5, 0x6f, 0xbe,
  0x7a, 0x10, 0x3a, 0xbe, 0xc2, 0x25, 0xab, 0xbd, 0xf7, 0xae, 0xa5, 0xba,
  0x1e, 0xb7, 0xfc, 0xbd, 0xca, 0xa2, 0xb4, 0x3e, 0x23, 0x55, 0xd6, 0xbc,
  0x2e, 0xb0, 0xd3, 0xbc, 0xd1, 0x0f, 0x0e, 0xbe, 0x4f, 0xd8, 0x49, 0xbe,
  0xfb, 0xed, 0x5c, 0xbd, 0x14, 0x37, 0x96, 0xbd, 0x9c, 0xc5, 0x7c, 0xbd,
  0x8a, 0xfb, 0x8e, 0xbe, 0xdc, 0x55, 0x4c, 0xbe, 0xf7, 0x38, 0x03, 0xbd,
  0x93, 0x4f, 0xe0, 0x3d, 0x46, 0x7a, 0x3b, 0xbc, 0x17, 0x62, 0xb5, 0xbe,
  0xa3, 0xc0, 0x3e, 0xbe, 0xe5, 0x68, 0x8e, 0xbd, 0x53, 0xef, 0xa3, 0xbe,
  0xa1, 0x89, 0xca, 0xbe, 0x38, 0x26, 0x6a, 0xbd, 0x1c, 0x77, 0x3b, 0xbe,
  0xd1, 0xc4, 0xce, 0xbd, 0x45, 0x9f, 0x3d, 0xbc, 0x25, 0x55, 0xe8, 0xbe,
  0x0f, 0x29, 0x9f, 0xbd, 0x16, 0x1d, 0x0a, 0xbf, 0xd0, 0x6a, 0xa4, 0xbe,
  0xa7, 0xd4, 0xad, 0x3e, 0xef, 0x1b, 0x14, 0xbe, 0x3b, 0x4b, 0x2d, 0x3d,
  0x2e, 0xd2, 0x2a, 0x3d, 0xbc, 0x83, 0xfb, 0xbc, 0x3c, 0x72, 0x17, 0x3e,
  0x72, 0x9c, 0x0f, 0xbe, 0xcb, 0x53, 0xe4, 0xbd, 0x56, 0x1c, 0xfb, 0xbe,
  0xb7, 0x7e, 0x18, 0xbe, 0x83, 0x84, 0xc5, 0x3c, 0x48, 0x9d, 0x47, 0xbf,
  0xa6, 0x3d, 0x8e, 0xbf, 0x0e, 0xe4, 0xa1, 0xbf, 0x84, 0x05, 0x66, 0x3e,
  0x3b, 0x6a, 0x67, 0x3e, 0xf2, 0xca, 0x87, 0xbf, 0xc8, 0x65, 0x05, 0xbf,
  0x06, 0xec, 0x4b, 0x3f, 0x31, 0xf4, 0xcf, 0xbe, 0x12, 0xe6, 0x03, 0xbf,
  0xdd, 0xa5, 0x77, 0x3e, 0x43, 0x9c, 0xe7, 0xbd, 0x47, 0x4d, 0x08, 0xbf,
  0x36, 0xe1, 0x22, 0xbf, 0x3e, 0x79, 0x8f, 0xbe, 0x0f, 0x5c, 0x1d, 0xbf,
  0xd5, 0xc6, 0x90, 0xbe, 0x22, 0x90, 0xdd, 0xbd, 0xbf, 0xc1, 0xc8, 0xbe,
  0xba, 0x6b, 0xb1, 0xbf, 0x12, 0x80, 0xff, 0xbe, 0xe7, 0xdd, 0x7b, 0xbe,
  0xfe, 0xd4, 0x89, 0xbf, 0x65, 0xac, 0x6d, 0xbe, 0xc2, 0xd8, 0x03, 0xbf,
  0xf9, 0xfa, 0x8f, 0xbf, 0x8f, 0xa3, 0x99, 0x3d, 0x27, 0x78, 0xc4, 0xbe,
  0xbf, 0x00, 0x18, 0xbf, 0x04, 0xc4, 0x95, 0xbe, 0x32, 0xcc, 0x13, 0xc0,
  0xc5, 0xb4, 0x08, 0xbf, 0xaf, 0x3e, 0x30, 0x3e, 0xa1, 0xb0, 0xc9, 0xbf,
  0x53, 0x80, 0xa2, 0xbe, 0x9f, 0x14, 0x84, 0x3e, 0x9c, 0x5f, 0x98, 0xbf,
  0x8a, 0x63, 0x5e, 0xbf, 0x35, 0xdd, 0x84, 0xbd, 0x83, 0x15, 0x85, 0x3d,
  0xb7, 0xeb, 0x70, 0xbf, 0x1c, 0xdf, 0x03, 0xbf, 0xfa, 0xe2, 0x30, 0xbe,
  0xb3, 0xb2, 0x18, 0xbf, 0x1c, 0x5c, 0x42, 0x3e, 0x4e, 0xe7, 0x10, 0xbf,
  0x83, 0x79, 0x08, 0xbf, 0x60, 0x7b, 0x76, 0xbf, 0x72, 0x23, 0x3f, 0xbf,
  0x67, 0xd2, 0x20, 0x3c, 0x0b, 0x6a, 0xa3, 0x3d, 0x97, 0x84, 0x15, 0x3f,
  0x32, 0x5f, 0xa1, 0xbf, 0xcb, 0x54, 0xc7, 0xbd, 0x74, 0xcd, 0xa5, 0xbf,
  0x01, 0xe1, 0xbb, 0xbf, 0x65, 0xeb, 0x0a, 0xbf, 0xdd, 0xba, 0x39, 0xbf,
  0xd0, 0x86, 0x76, 0xbf, 0x3b, 0xf0, 0x83, 0xbf, 0x6a, 0xe1, 0x97, 0xbf,
  0x06, 0x78, 0x0c, 0xbf, 0x46, 0x26, 0xb0, 0xbd, 0x92, 0xfc, 0x12, 0xbc,
  0xe2, 0xd4, 0x2b, 0xbe, 0x57, 0xcb, 0x75, 0xbe, 0xf8, 0xeb, 0x90, 0xbe,
  0x69, 0xed, 0x9d, 0xbd, 0x86, 0x77, 0x30, 0xbe, 0x72, 0x3d, 0xe1, 0xbd,
  0xab, 0xe6, 0x76, 0xbe, 0x21, 0xb7, 0x2d, 0xbe, 0x81, 0x82, 0xba, 0xbd,
  0xaa, 0x82, 0xc8, 0xbd, 0xde, 0x9e, 0x89, 0xbe, 0xc1, 0x88, 0xae, 0xbd,
  0xe5, 0xe2, 0x15, 0xbe, 0x3c, 0xbe, 0x7f, 0xbe, 0xa4, 0xd8, 0x47, 0xbd,
  0x23, 0xd4, 0x94, 0xbd, 0x10, 0x91, 0x10, 0xbe, 0xf8, 0xa0, 0xf8, 0xbd,
  0xf4, 0x63, 0x05, 0xbd, 0xbe, 0xfc, 0xa0, 0xbc, 0xc8, 0x0f, 0x1a, 0xbe,
  0xca, 0xf4, 0x79, 0xbe, 0xc1, 0x23, 0xfc, 0xbc, 0x6f, 0x86, 0x0b, 0xbe,
  0xf1, 0x4e, 0x8d, 0x3c, 0x01, 0x7e, 0xd0, 0xbd, 0xae, 0xed, 0x40, 0xbd,
  0xfd, 0xef, 0xa4, 0xbd, 0x5f, 0x89, 0x2e, 0xbe, 0x53, 0x27, 0xe8, 0x3c,
  0x34, 0xcd, 0x1d, 0xbc, 0x94, 0xb7, 0xf7, 0xbd, 0x4a, 0xbf, 0x8c, 0xbe,
  0x2f, 0xae, 0xf6, 0xbc, 0xb5, 0x26, 0xd4, 0xbd, 0xc8, 0xad, 0x3f, 0xbe,
  0x38, 0xb7, 0x3a, 0xbe, 0x9b, 0xa1, 0xb2, 0xbd, 0x2a, 0x77, 0x0c, 0xbe,
  0x16, 0x33, 0xb7, 0xbb, 0xbb, 0x0f, 0xc9, 0x3b, 0xc9, 0xda, 0xde, 0xbe,
  0x83, 0x1c, 0x9f, 0x3d, 0xab, 0x89, 0xca, 0x3c, 0x27, 0xc3, 0x0a, 0xbc,
  0x3d, 0x8f, 0x70, 0xbe, 0xae, 0x44, 0x01, 0xbe, 0x57, 0xe2, 0x71, 0x3c,
  0x2b, 0xd0, 0xc5, 0xbd, 0x2f, 0xd5, 0x88, 0xbd, 0xe7, 0x24, 0x97, 0xbd,
  0xd0, 0x28, 0x45, 0xbe, 0x53, 0xfd, 0x23, 0xbe, 0xee, 0x9c, 0xc6, 0xbd,
  0x08, 0x08, 0x57, 0x3d, 0x1a, 0xc9, 0x05, 0xbe, 0x89, 0xc8, 0x91, 0x3d,
  0xb8, 0xd2, 0x82, 0xbd, 0x9d, 0xac, 0x41, 0xbc, 0xe9, 0xa1, 0x26, 0xbd,
  0xa1, 0x7a, 0x3f, 0x3d, 0x5a, 0x55, 0x75, 0xbe, 0x59, 0xf3, 0x44, 0xbe,
  0x62, 0x0f, 0xf1, 0xbd, 0xec, 0x45, 0x52, 0xbe, 0x1c, 0x43, 0x46, 0x3c,
  0x84, 0xff, 0x7a, 0xbd, 0xb0, 0x4f, 0x7a, 0x3d, 0xf5, 0xbb, 0x16, 0xbe,
  0x62, 0x4a, 0xd0, 0x3d, 0xa5, 0x52, 0x93, 0xbd, 0x02, 0x63, 0x32, 0x3d,
  0xcd, 0x26, 0x45, 0xbe, 0x2f, 0x00, 0xb7, 0xbe, 0x7b, 0xb5, 0x3f, 0xbd,
  0xb0, 0x27, 0xe5, 0xbe, 0xe1, 0x72, 0x09, 0xbd, 0xb5, 0x34, 0xc5, 0xbe,
  0x69, 0xc1, 0x8e, 0xbe, 0x4e, 0x5d, 0x32, 0xbf, 0xb1, 0x00, 0x6d, 0xbe,
  0x25, 0xa9, 0x81, 0xbd, 0x23, 0x45, 0x57, 0xbe, 0x1d, 0xec, 0xf5, 0xbd,
  0xe5, 0x2a, 0xda, 0xbd, 0xb2, 0x9f, 0x00, 0xbd, 0xf3, 0x55, 0x17, 0xbe,
  0x89, 0x7f, 0xef, 0xbd, 0xc3, 0x31, 0x90, 0xbe, 0x67, 0x09, 0xca, 0xbd,
  0x01, 0xb9, 0x20, 0xbf, 0xdb, 0xd9, 0xf1, 0xbe, 0xdb, 0x99, 0x06, 0xbe,
  0x1d, 0x7b, 0x2d, 0xbe, 0x9c, 0xb7, 0xae, 0xbe, 0x50, 0x35, 0xbd, 0x3d,
  0x70, 0x01, 0x07, 0xbd, 0x8f, 0x05, 0xfc, 0xbd, 0xf5, 0x9c, 0x7a, 0xbe,
  0xc1, 0xec, 0xba, 0xbe, 0x2e, 0xad, 0x87, 0xbe, 0xae, 0x19, 0x02, 0xbe,
  0x73, 0xab, 0xe0, 0xbd, 0xd5, 0xb6, 0x91, 0xbd, 0xf1, 0xb3, 0x6a, 0xbd,
  0xe0, 0xb5, 0x52, 0xbc, 0x28, 0x08, 0x6c, 0xbd, 0x08, 0xc7, 0x9d, 0x3c,
  0x88, 0xfc, 0x29, 0x3e, 0xbf, 0x12, 0xc8, 0xbe, 0x97, 0x7c, 0xd9, 0xbd,
  0x40, 0xd3, 0x23, 0xbe, 0xae, 0x4c, 0xb0, 0x3d, 0x3b, 0xd1, 0x72, 0xbe,
  0x51, 0x01, 0x93, 0xbe, 0x33, 0xb1, 0x07, 0x3e, 0x90, 0x34, 0x06, 0xbd,
  0xf0, 0x95, 0xe5, 0xbe, 0x29, 0x71, 0x36, 0xbe, 0xe2, 0x83, 0xc6, 0xbe,
  0x92, 0xec, 0x19, 0x3d, 0x1e, 0x08, 0x5a, 0xbd, 0xe1, 0x8b, 0x19, 0xbf,
  0xe4, 0xe7, 0x92, 0xbe, 0x8b, 0x40, 0x3f, 0xbe, 0x89, 0xf3, 0x2a, 0xbe,
  0x9a, 0x83, 0x5a, 0xbe, 0xc5, 0xff, 0x04, 0x3d, 0xaa, 0xc2, 0x12, 0xbe,
  0x18, 0xfa, 0x01, 0x3e, 0xdf, 0x03, 0x9b, 0xbd, 0x60, 0xfa, 0x36, 0xbd,
  0x41, 0x78, 0xaf, 0x3d, 0x2a, 0x78, 0x9b, 0xbe, 0x43, 0x9e, 0xab, 0xbe,
  0x28, 0x07, 0x23, 0xbd, 0x00, 0x93, 0x19, 0xbe, 0xcb, 0x8d, 0xd3, 0xbe,
  0xab, 0xdd, 0x2d, 0xbf, 0xfc, 0xb1, 0x59, 0xbe, 0x52, 0xc4, 0xa9, 0xbd,
  0xb1, 0x10, 0x2f, 0xbe, 0x15, 0x2b, 0x6a, 0xbd, 0x54, 0xe4, 0xfd, 0xbe,
  0x23, 0x9d, 0x98, 0xbe, 0x07, 0x0b, 0x4f, 0x3d, 0x69, 0xc1, 0x09, 0x3d,
  0xe8, 0xeb, 0xc5, 0xbe, 0x9a, 0x67, 0xb5, 0xbd, 0x8a, 0x83, 0xd1, 0xbc,
  0x6b, 0x9b, 0x57, 0xbe, 0xcc, 0xc9, 0xdf, 0xbd, 0x2a, 0x01, 0x75, 0xbe,
  0xce, 0x00, 0x37, 0xbd, 0x97, 0x19, 0x5b, 0xbe, 0xa4, 0x21, 0x07, 0xbf,
  0x3b, 0x1d, 0x88, 0xbc, 0x4d, 0x65, 0x77, 0xbe, 0x54, 0xc8, 0x9a, 0xbd,
  0x22, 0x93, 0x34, 0xbd, 0xe3, 0x9e, 0xb1, 0xbe, 0x46, 0x10, 0x4a, 0xbe,
  0x7b, 0xd6, 0x11, 0x3d, 0xd2, 0xa0, 0x31, 0xbe, 0x73, 0xcb, 0xa5, 0xbe,
  0x70, 0xb2, 0x7e, 0x3d, 0x11, 0x13, 0x3f, 0xbe, 0x2f, 0x01, 0xa9, 0xbe,
  0x46, 0x47, 0xd2, 0xbd, 0x78, 0xfc, 0xc1, 0xbe, 0xba, 0x93, 0x17, 0xbc,
  0x66, 0xbb, 0x3b, 0xbe, 0xd2, 0x6e, 0xb7, 0xbd, 0x13, 0x83, 0x62, 0xbe,
  0xe2, 0x1a, 0x78, 0x3d, 0x4a, 0x84, 0x72, 0xbe, 0x5b, 0xdc, 0x44, 0xbd,
  0x42, 0x9d, 0x84, 0x3b, 0xd4, 0xd7, 0x85, 0xbe, 0xcb, 0x3f, 0x3a, 0xbd,
  0x82, 0xb0, 0x40, 0xbe, 0xbe, 0xb4, 0x54, 0xbd, 0xc8, 0x24, 0x37, 0xbd,
  0xa4, 0x40, 0x58, 0xbe, 0x2e, 0xcb, 0xa5, 0xbd, 0xfe, 0x17, 0xa1, 0xbe,
  0xb3, 0x44, 0x3c, 0xbe, 0xae, 0xb5, 0xae, 0xbe, 0xe5, 0x83, 0xab, 0xbb,
  0xbb, 0x2a, 0x22, 0xbe, 0xa6, 0x28, 0x2d, 0xbf, 0xc3, 0xbc, 0xd9, 0xbe,
  0x14, 0x08, 0x13, 0x3f, 0x90, 0x00, 0x6a, 0x3f, 0x34, 0x6e, 0xb4, 0x3e,
  0x3c, 0xe0, 0x82, 0x3e, 0xdd, 0x42, 0x62, 0xbf, 0xf6, 0x45, 0xe5, 0xbf,
  0xee, 0x6b, 0x23, 0xbe, 0x5c, 0xff, 0xc3, 0xbe, 0x2e, 0x76, 0x8c, 0xbf,
  0x8c, 0x1e, 0xa5, 0xbd, 0xd1, 0x72, 0xd7, 0x3d, 0x50, 0xd0, 0x04, 0x3e,
  0xea, 0x3b, 0x2c, 0x3f, 0xb9, 0x3d, 0x6b, 0xbf, 0x25, 0x2a, 0xb6, 0xbf,
  0x28, 0x64, 0x79, 0xbf, 0x71, 0x41, 0xda, 0xbf, 0x2e, 0x4c, 0x15, 0xbe,
  0x5f, 0xeb, 0x34, 0xbf, 0x5f, 0xa8, 0xa0, 0xbd, 0xfb, 0x3e, 0xe3, 0xbf,
  0x4c, 0x05, 0x5f, 0xbf, 0xad, 0x7d, 0x02, 0xc0, 0x87, 0xb1, 0xb7, 0x3e,
  0x1a, 0xe6, 0x61, 0xbe, 0x4d, 0x7d, 0x68, 0xbe, 0xbe, 0xd1, 0xbb, 0xbe,
  0xdc, 0x44, 0x81, 0xbf, 0x73, 0x97, 0x88, 0xbf, 0x47, 0xf7, 0x10, 0xbf,
  0xe4, 0x91, 0xe8, 0xbe, 0x07, 0x34, 0xa1, 0xbf, 0xa1, 0xe3, 0x6d, 0xbd,
  0x34, 0xe1, 0x52, 0xbf, 0xec, 0x14, 0x39, 0xbf, 0xd4, 0xc0, 0x17, 0xbf,
  0x4c, 0x1c, 0x43, 0xbf, 0xea, 0xd6, 0x47, 0xbf, 0x7d, 0x12, 0x5b, 0xbf,
  0xe1, 0xa9, 0x94, 0xbe, 0x74, 0x20, 0x4f, 0x3c, 0x89, 0x0c, 0x87, 0xbe,
  0x47, 0xd5, 0x09, 0x3d, 0x67, 0x64, 0x45, 0xbd, 0x56, 0x04, 0x6f, 0xbe,
  0x03, 0x94, 0x1c, 0xbf, 0x0b, 0xa3, 0x74, 0xbf, 0xf4, 0xd5, 0x1c, 0x3e,
  0x11, 0xc3, 0xd2, 0xbf, 0xbb, 0xaf, 0xd3, 0xbe, 0x19, 0x41, 0x24, 0xbf,
  0xc7, 0x9e, 0x64, 0xbf, 0xe0, 0xe7, 0x69, 0xbf, 0x49, 0xbd, 0x6b, 0xbe,
  0xdb, 0x38, 0xed, 0x3d, 0xaa, 0x5e, 0x6f, 0xbf, 0xcb, 0x7f, 0x37, 0xbe,
  0xb3, 0x18, 0x99, 0xbf, 0x10, 0x07, 0x04, 0x3f, 0x34, 0xe7, 0x6a, 0xbe,
  0x1a, 0x73, 0x6c, 0x3b, 0xd5, 0xb8, 0xa1, 0xbf, 0x2b, 0x79, 0x1c, 0xbf,
  0x20, 0xd9, 0x94, 0x3d, 0x62, 0xb0, 0x05, 0xbe, 0x43, 0x7c, 0xad, 0x3b,
  0x4a, 0x3b, 0x42, 0xbf, 0xf4, 0xf2, 0x09, 0xbd, 0x1f, 0x75, 0x27, 0xbe,
  0x4d, 0x6b, 0x02, 0xbd, 0x7e, 0x03, 0x81, 0xbe, 0x9f, 0x17, 0x4d, 0x3d,
  0x62, 0xad, 0x13, 0xbe, 0x0a, 0xa4, 0x33, 0xbd, 0xf2, 0x53, 0x94, 0xbd,
  0x49, 0x52, 0x95, 0xbe, 0x3d, 0x34, 0x8c, 0xbe, 0x72, 0xf6, 0xb6, 0xbe,
  0xf5, 0x55, 0x9d, 0x3d, 0x32, 0x48, 0x8a, 0xbe, 0x7f, 0x94, 0x98, 0xbd,
  0xfb, 0xf9, 0x8a, 0xbc, 0x99, 0xf9, 0x07, 0xbe, 0x16, 0xca, 0x0c, 0xbf,
  0x45, 0xfc, 0x39, 0xbe, 0x40, 0xb1, 0x4d, 0xbe, 0xf6, 0x87, 0x48, 0xbf,
  0x2b, 0x2c, 0x12, 0x3d, 0x57, 0x1e, 0x0e, 0x3e, 0x1e, 0x68, 0x05, 0x3c,
  0x6a, 0x64, 0xf0, 0xbd, 0x78, 0x64, 0x89, 0xbe, 0x28, 0x5d, 0x74, 0xbe,
  0x58, 0xca, 0x5c, 0x3d, 0xc8, 0xba, 0xa7, 0xbe, 0x7f, 0xc4, 0x81, 0xbd,
  0xc9, 0x64, 0xc6, 0xbe, 0x22, 0x87, 0xa7, 0xbd, 0xbf, 0x8e, 0xba, 0xbe,
  0x2d, 0xda, 0xc0, 0xbe, 0xe3, 0xce, 0x3d, 0x3d, 0xec, 0xb0, 0xe6, 0xbd,
  0x4f, 0x67, 0x0e, 0x3d, 0xd4, 0x6f, 0x48, 0x3d, 0xca, 0x6f, 0xc1, 0xbe,
  0xf1, 0xf1, 0x3a, 0xbf, 0x67, 0x06, 0x32, 0xbe, 0x00, 0x11, 0x70, 0xbd,
  0xde, 0xe9, 0xd3, 0xbd, 0x34, 0xf3, 0x60, 0xbe, 0x9d, 0x59, 0x54, 0xbd,
  0x95, 0x5d, 0xd6, 0xbe, 0x62, 0x55, 0x0e, 0xbd, 0x56, 0x29, 0x51, 0xbe,
  0x9c, 0xae, 0x5d, 0x3c, 0xec, 0xdf, 0x38, 0xbe, 0xab, 0x09, 0x35, 0xbc,
  0x71, 0x76, 0xaf, 0xba, 0x45, 0xc4, 0x69, 0xbd, 0x25, 0xed, 0x3c, 0xbf,
  0x77, 0x8c, 0xfa, 0xba, 0x24, 0x91, 0x8c, 0xbe, 0x29, 0xf5, 0x4e, 0xbf,
  0x7f, 0x82, 0x47, 0xbe, 0x68, 0x89, 0x0d, 0xbe, 0x70, 0x29, 0x02, 0xbf,
  0x00, 0xdb, 0x8b, 0xbe, 0xb8, 0x57, 0x04, 0x3e, 0xc3, 0xa2, 0xec, 0xbd,
  0x4f, 0xcb, 0x18, 0x3d, 0x6b, 0x81, 0x7d, 0xbe, 0x7a, 0x8c, 0x33, 0x3e,
  0xf4, 0x9f, 0xc4, 0x3c, 0xd3, 0xa3, 0x8b, 0x3e, 0xe9, 0x7c, 0x7d, 0xbd,
  0xbd, 0x93, 0x7f, 0x3e, 0x28, 0x36, 0x58, 0x3f, 0x9b, 0x35, 0xf8, 0x3d,
  0x09, 0x56, 0xcb, 0x3e, 0x56, 0x67, 0xe0, 0x3d, 0xa9, 0xca, 0x1b, 0x3f,
  0xaf, 0x33, 0xbf, 0x3e, 0x47, 0x7a, 0x94, 0xbe, 0xf4, 0x28, 0x1d, 0xbe,
  0x59, 0x82, 0x4e, 0xbe, 0xd9, 0x60, 0x8d, 0x3e, 0x73, 0x32, 0x4d, 0xbe,
  0x77, 0x7e, 0xd7, 0xbe, 0x6a, 0x2b, 0x46, 0xbd, 0x6d, 0x38, 0x6b, 0x3f,
  0xf1, 0x3a, 0x82, 0x3e, 0x7b, 0x31, 0x33, 0xbf, 0x1c, 0xbd, 0x26, 0xbe,
  0xa2, 0x85, 0xb1, 0x3e, 0xc7, 0x6d, 0xde, 0x3d, 0x1a, 0xf1, 0x0b, 0xbd,
  0x5f, 0x1a, 0xba, 0x3d, 0x84, 0x67, 0x9b, 0x3c, 0x71, 0x4d, 0xca, 0xbe,
  0x5d, 0xee, 0xb0, 0xbe, 0x1a, 0x83, 0x0f, 0x3d, 0x18, 0x72, 0x0b, 0x3f,
  0x46, 0xee, 0xac, 0x3e, 0x5f, 0x7b, 0xe0, 0x3e, 0x24, 0x1a, 0xf2, 0xbd,
  0xb6, 0x87, 0xb4, 0x3d, 0x1d, 0x90, 0x8d, 0xbe, 0x77, 0x2d, 0x81, 0x3e,
  0xc8, 0x0c, 0xce, 0x3d, 0x24, 0xd8, 0xc8, 0x3c, 0x34, 0x97, 0x8a, 0xbe,
  0x01, 0x94, 0x2d, 0x3f, 0xd6, 0x3e, 0x0d, 0x3f, 0x31, 0x34, 0xfc, 0x3d,
  0x43, 0x38, 0xf8, 0x3b, 0xb4, 0x99, 0x80, 0x3f, 0x84, 0x66, 0x08, 0x3e,
  0xb0, 0x0b, 0xa2, 0x3e, 0x02, 0xcf, 0xa5, 0x3d, 0x07, 0x45, 0x23, 0xbd,
  0xec, 0x65, 0xaf, 0x3f, 0xe8, 0xc1, 0xa5, 0x3e, 0xb3, 0xaf, 0xa0, 0x3e,
  0x0d, 0xdd, 0x9d, 0xbe, 0x5e, 0xb3, 0x37, 0xbf, 0xf7, 0x2d, 0x45, 0x3d,
  0x35, 0x2e, 0x8b, 0xbf, 0x9b, 0xcb, 0xd8, 0xbe, 0xa2, 0xd9, 0x0b, 0xbf,
  0xcf, 0x85, 0xf0, 0xbe, 0xce, 0x66, 0x31, 0x3e, 0x0a, 0x53, 0x76, 0xbd,
  0xde, 0xe3, 0x0b, 0xbf, 0x7f, 0xff, 0xbc, 0x3b, 0xf2, 0x05, 0x17, 0xbf,
  0xc9, 0x11, 0x55, 0xbe, 0x88, 0x85, 0xe7, 0xbe, 0x29, 0xc1, 0x9a, 0x3e,
  0xbf, 0x88, 0x76, 0xbf, 0x10, 0x44, 0x41, 0xbf, 0x53, 0x07, 0x29, 0x3e,
  0xbb, 0xc2, 0xce, 0xbe, 0xfd, 0x4c, 0xfb, 0xbe, 0x6f, 0x63, 0x3b, 0xbf,
  0x09, 0x28, 0x45, 0xbf, 0xd0, 0x13, 0xcb, 0xbf, 0x11, 0x10, 0xd8, 0xbf,
  0xdb, 0xc6, 0xc5, 0xbf, 0x1b, 0x13, 0x47, 0xbe, 0x07, 0x96, 0xb6, 0x3d,
  0xb2, 0xfd, 0x27, 0xbe, 0x51, 0xa5, 0xb0, 0xbf, 0xc3, 0x2a, 0x0f, 0xc0,
  0x6a, 0x6b, 0x2e, 0xbf, 0x23, 0x77, 0xaf, 0xbf, 0x6b, 0xdf, 0x34, 0xbf,
  0x8c, 0xaf, 0xee, 0xbf, 0xb3, 0xd5, 0x03, 0xbf, 0x10, 0x41, 0x01, 0xc0,
  0xfc, 0xfe, 0x2c, 0xbf, 0x90, 0x2c, 0x8f, 0xbf, 0x4c, 0x48, 0xe4, 0xbe,
  0x6a, 0x0b, 0xdb, 0xbe, 0xd6, 0x48, 0xa6, 0xbf, 0xae, 0xf6, 0xb6, 0xbf,
  0xdb, 0x5d, 0xf0, 0xbe, 0x6d, 0xf8, 0x42, 0xbe, 0xba, 0x88, 0x69, 0x3e,
  0x5d, 0x74, 0x50, 0xbf, 0x60, 0x50, 0x39, 0xbf, 0xf4, 0x50, 0x9f, 0xbc,
  0x55, 0xc7, 0x5b, 0x3d, 0x7c, 0x53, 0x4a, 0xbf, 0xa4, 0xb2, 0x12, 0xbf,
  0xd2, 0x43, 0x04, 0xbf, 0xb1, 0xd6, 0x71, 0xbc, 0xa6, 0xfc, 0x04, 0x3f,
  0x38, 0x72, 0x8c, 0xbf, 0xdf, 0xf3, 0x54, 0xbf, 0x6f, 0x1d, 0x4e, 0xbf,
  0x46, 0x1a, 0xce, 0x3d, 0xcb, 0xcb, 0x8c, 0xbf, 0xda, 0x1a, 0x68, 0xbe,
  0xc3, 0xab, 0x71, 0xbf, 0x1c, 0x1e, 0x06, 0xbf, 0xcd, 0xe1, 0x70, 0x3d,
  0xaf, 0xb7, 0x1d, 0xbf, 0xe9, 0xec, 0xc2, 0xbf, 0xf4, 0xb5, 0x22, 0xbf,
  0xc8, 0xc1, 0xe0, 0xbf, 0xf5, 0xe9, 0xab, 0xbf, 0xb8, 0xd5, 0x21, 0xbf,
  0xac, 0xb2, 0x41, 0xbf, 0xd7, 0x4b, 0x28, 0xbe, 0x84, 0x8e, 0x87, 0x3e,
  0x4b, 0x59, 0x02, 0xc0, 0xea, 0x40, 0xaa, 0xbb, 0x20, 0x39, 0x8a, 0x3e,
  0xfd, 0xc1, 0xbb, 0xbc, 0x63, 0x14, 0xef, 0x3e, 0x46, 0x8d, 0x9d, 0x3c,
  0xf3, 0xbe, 0xb5, 0x3e, 0x66, 0xf2, 0xd4, 0xbf, 0x72, 0x66, 0x22, 0xbf,
  0xb0, 0x16, 0x99, 0xbe, 0x6b, 0x32, 0xdc, 0x3d, 0x80, 0x50, 0xdd, 0xbe,
  0xed, 0x87, 0x55, 0x3e, 0x0b, 0xd3, 0xba, 0x3e, 0x7b, 0xfc, 0xa5, 0xbe,
  0xda, 0xbf, 0x92, 0xbd, 0x8d, 0xdb, 0x09, 0x3e, 0x2d, 0xec, 0xe0, 0x3e,
  0xcd, 0x19, 0x20, 0xbf, 0x25, 0x41, 0x75, 0xbe, 0x68, 0x30, 0x88, 0x3f,
  0x73, 0xd6, 0x07, 0xbe, 0xab, 0xf7, 0x86, 0xbe, 0x5a, 0xcf, 0xd2, 0x3e,
  0xea, 0xf3, 0x20, 0xbf, 0x5a, 0xda, 0x0a, 0x3e, 0x3e, 0x3d, 0x68, 0x3e,
  0xdc, 0xf6, 0x6b, 0x3e, 0x62, 0xd6, 0x23, 0x3c, 0xdb, 0xd1, 0x87, 0x3e,
  0x42, 0xd9, 0x7a, 0x3e, 0xa4, 0x08, 0x99, 0xbe, 0xbc, 0x71, 0x54, 0x3f,
  0xd8, 0xb9, 0x7e, 0x3e, 0x1d, 0xd5, 0x4a, 0xbe, 0x56, 0xef, 0x76, 0xbe,
  0x7a, 0x96, 0x28, 0x3e, 0xff, 0xe9, 0x85, 0xbe, 0x4b, 0xe2, 0x85, 0x3e,
  0xe0, 0x40, 0x89, 0xbe, 0x42, 0x63, 0x01, 0x3e, 0xa6, 0xef, 0x95, 0x3e,
  0xe8, 0x26, 0xa1, 0xbe, 0x32, 0xed, 0x7e, 0x3e, 0x24, 0x82, 0xc8, 0xbe,
  0xb1, 0x7b, 0xb6, 0xbe, 0x0c, 0x13, 0x17, 0x3f, 0x6d, 0x55, 0x17, 0xbe,
  0x70, 0x4e, 0x40, 0xbf, 0xb3, 0x93, 0x71, 0x3e, 0xfb, 0xc6, 0xbe, 0xbc,
  0x3b, 0x21, 0xfa, 0xbd, 0x93, 0xd4, 0xd9, 0xbe, 0x0a, 0x8d, 0xf0, 0x3e,
  0x62, 0x9b, 0x2a, 0xbe, 0x40, 0x04, 0x09, 0xbf, 0x80, 0x55, 0xac, 0x3e,
  0xf7, 0x25, 0x32, 0xbf, 0xe3, 0x38, 0x21, 0x3e, 0xc0, 0x02, 0x0f, 0xbe,
  0x28, 0x3e, 0xc7, 0xbe, 0xf6, 0xde, 0x20, 0xbc, 0x8e, 0x9b, 0x12, 0x3f,
  0x1b, 0xe0, 0x9c, 0xbe, 0xab, 0xa1, 0x54, 0x3f, 0xb3, 0xfe, 0x08, 0xbe,
  0xb7, 0x4d, 0x30, 0x3e, 0x6e, 0x3b, 0x01, 0xbf, 0x8a, 0xb4, 0xbe, 0xbe,
  0xea, 0x46, 0x07, 0xbf, 0x0f, 0x4e, 0xe7, 0xbf, 0xf7, 0xa0, 0x10, 0xbe,
  0xc1, 0x0b, 0x02, 0x3f, 0x60, 0x69, 0xf9, 0x3b, 0x84, 0x9b, 0x4f, 0xbf,
  0x9e, 0xaa, 0x35, 0xbf, 0x50, 0xc1, 0x30, 0xbf, 0x6e, 0x88, 0x20, 0x3f,
  0x5a, 0xae, 0x65, 0xbd, 0x88, 0xbc, 0xb8, 0xbe, 0x10, 0xd0, 0xf4, 0xbe,
  0xff, 0xa8, 0x2f, 0xbf, 0x4f, 0x88, 0x2b, 0xbf, 0x1e, 0x17, 0xc7, 0x3d,
  0xe4, 0x9d, 0xc2, 0xbe, 0x1c, 0x2d, 0xd8, 0xbe, 0xbc, 0x3f, 0x08, 0x3e,
  0x9f, 0x06, 0x5f, 0x3c, 0x66, 0xbb, 0x20, 0xbf, 0x62, 0x3b, 0x98, 0xbf,
  0x96, 0x00, 0x8f, 0xbe, 0xaf, 0x84, 0xec, 0xbe, 0x4f, 0xf6, 0x62, 0xbf,
  0x41, 0x2b, 0x01, 0xbf, 0xc2, 0x19, 0x77, 0xbf, 0xc9, 0x3e, 0x8f, 0x3c,
  0xf8, 0x9c, 0x2e, 0xbe, 0x5c, 0x3d, 0xde, 0xbf, 0xfc, 0x27, 0x9f, 0xbe,
  0x63, 0x29, 0xa2, 0xbe, 0x60, 0x55, 0xff, 0xbe, 0x22, 0xc4, 0xa3, 0x3d,
  0xbb, 0x8c, 0xb2, 0x3e, 0x54, 0x77, 0xc1, 0x3e, 0xab, 0x21, 0x53, 0xbd,
  0x93, 0x15, 0x6b, 0xbf, 0x69, 0xcf, 0xc1, 0x3d, 0x81, 0x1e, 0x35, 0xbf,
  0x3b, 0xb3, 0xd0, 0xbf, 0xcc, 0x78, 0xb5, 0x3d, 0xa1, 0xef, 0x00, 0xbf,
  0x92, 0xd1, 0x96, 0xbf, 0xd3, 0xb0, 0x5b, 0x3d, 0x8f, 0xa4, 0x08, 0xbf,
  0x8b, 0x31, 0x2b, 0xbe, 0x20, 0x9c, 0xf2, 0xbf, 0x3a, 0xa2, 0x2f, 0xbf,
  0x47, 0xbf, 0x1d, 0x3f, 0xbe, 0x6c, 0xe5, 0xbe, 0xa9, 0x5e, 0xd6, 0xbe,
  0x6a, 0xd7, 0x62, 0xbf, 0xf1, 0xb0, 0x55, 0xbe, 0x9a, 0xff, 0xfb, 0xbe,
  0x79, 0x33, 0x03, 0xbf, 0xcc, 0x67, 0x3f, 0xbf, 0xe2, 0xe6, 0xd0, 0xbe,
  0x33, 0x42, 0x22, 0xbe, 0xf1, 0x4a, 0x31, 0xbd, 0x7a, 0x87, 0xc6, 0xbc,
  0x2b, 0x2d, 0x01, 0x3c, 0x35, 0xdd, 0xa0, 0xbd, 0x92, 0x09, 0x8c, 0xbe,
  0x52, 0x6a, 0x16, 0x3d, 0x85, 0x48, 0xce, 0xbd, 0xbc, 0x81, 0xf7, 0xbd,
  0xe5, 0xd2, 0x31, 0xbe, 0xca, 0x60, 0xfc, 0xbd, 0x0a, 0x96, 0x94, 0xba,
  0x5d, 0x1b, 0x24, 0xbe, 0xfb, 0xd1, 0xac, 0xbd, 0xf5, 0x19, 0x23, 0xbd,
  0x5c, 0x2a, 0x32, 0xbe, 0x40, 0x53, 0xdb, 0xbc, 0xd3, 0x6b, 0x02, 0xbe,
  0xfa, 0xb8, 0xc6, 0xbd, 0xad, 0xa8, 0x31, 0xbd, 0x67, 0x60, 0x0c, 0xbe,
  0x75, 0xb8, 0x00, 0xbe, 0xc6, 0x34, 0xeb, 0xbd, 0xe1, 0xe1, 0x67, 0xbd,
  0xaa, 0x6e, 0x19, 0xbe, 0x28, 0xab, 0x15, 0xbe, 0xc7, 0x2a, 0x08, 0xbb,
  0xeb, 0xd6, 0x88, 0xbc, 0x86, 0xc1, 0xbc, 0xbc, 0x76, 0xb7, 0xaf, 0xbd,
  0xa4, 0x67, 0x31, 0x3c, 0xe6, 0x7c, 0x0c, 0xbe, 0xa4, 0xfa, 0xc7, 0x3b,
  0xe4, 0x82, 0x07, 0x3d, 0x0c, 0xdd, 0x05, 0x3d, 0xed, 0x73, 0xc6, 0xbd,
  0x8d, 0xb7, 0x29, 0x3d, 0xf1, 0x39, 0x1f, 0xbd, 0x59, 0x11, 0x46, 0xbe,
  0x2d, 0xfe, 0xfa, 0xbd, 0xda, 0x91, 0xb5, 0xbd, 0x51, 0x35, 0x1a, 0xbe,
  0x38, 0x0a, 0xb0, 0xbd, 0x3c, 0x3d, 0x88, 0xbc, 0x58, 0x2b, 0x01, 0xbe,
  0x21, 0xb1, 0xbb, 0x3d, 0xa4, 0x3b, 0x20, 0xbc, 0x24, 0xbb, 0x50, 0xbd,
  0x5e, 0x24, 0x05, 0xbd, 0x1b, 0x08, 0xcc, 0xbd, 0xd5, 0xd6, 0x32, 0xbe,
  0x6c, 0x04, 0x0e, 0x3d, 0x33, 0x5f, 0xef, 0xbd, 0xb5, 0xf5, 0x4b, 0x3d,
  0x89, 0x33, 0x9c, 0xbc, 0x94, 0x01, 0x15, 0xbe, 0x3c, 0xf7, 0x6f, 0x3c,
  0x7f, 0x4d, 0x26, 0xbe, 0x46, 0x52, 0x88, 0x3b, 0x8a, 0x1f, 0xff, 0xbd,
  0xa6, 0xd6, 0x98, 0xbd, 0x57, 0x9c, 0x2a, 0xbe, 0x24, 0xfe, 0xb1, 0xbc,
  0xd4, 0x10, 0xd1, 0xbc, 0x19, 0x96, 0x17, 0xbe, 0x2f, 0xaa, 0x03, 0xbf,
  0xca, 0x07, 0x95, 0xbc, 0x80, 0x4d, 0x2f, 0xbf, 0x6b, 0xd3, 0xd6, 0x3d,
  0xf4, 0xd8, 0xad, 0xbc, 0x14, 0x95, 0x66, 0x3d, 0xd4, 0x0b, 0x15, 0xbf,
  0xa3, 0xd9, 0x13, 0x3c, 0xb0, 0xda, 0x78, 0xbe, 0x33, 0x21, 0x35, 0xbe,
  0x41, 0x27, 0x8d, 0xbe, 0x9d, 0xf6, 0x04, 0xbf, 0x2d, 0x4f, 0x59, 0xbe,
  0xbb, 0xfd, 0x34, 0xbe, 0x16, 0xd2, 0x43, 0xbe, 0xa2, 0x41, 0xa8, 0xbe,
  0xb5, 0xa5, 0x58, 0x3c, 0x88, 0x89, 0x9c, 0xbe, 0xbf, 0x9e, 0x1c, 0xbe,
  0x33, 0x69, 0x90, 0xbe, 0x5c, 0x4f, 0xe5, 0x3d, 0xed, 0xee, 0xe8, 0xbe,
  0xfa, 0xe5, 0x58, 0xbf, 0x20, 0x0c, 0x87, 0xbd, 0x81, 0xdd, 0x66, 0xbf,
  0xc6, 0x8b, 0x0e, 0xbe, 0x41, 0x4b, 0x75, 0xbf, 0x73, 0x39, 0x93, 0xbc,
  0x64, 0x3a, 0x04, 0xbf, 0xf5, 0x2c, 0xa4, 0xbd, 0xf7, 0x2c, 0xab, 0xbe,
  0x4d, 0xee, 0x19, 0xbe, 0x36, 0x61, 0x2f, 0xbe, 0x23, 0x60, 0x93, 0xbe,
  0xac, 0xfb, 0x24, 0xbf, 0x58, 0xde, 0xa0, 0x3d, 0x47, 0x9d, 0x8a, 0xbe,
  0xa0, 0x4d, 0x01, 0x3e, 0xdb, 0x09, 0x12, 0xbe, 0x2e, 0x39, 0xd9, 0xbd,
  0x23, 0x3b, 0xaa, 0xbe, 0xfd, 0x90, 0x15, 0xbf, 0xae, 0xe1, 0x20, 0xbf,
  0x8d, 0x25, 0xab, 0xbe, 0xf5, 0xf5, 0x6d, 0x3e, 0x22, 0x3e, 0xcb, 0xbd,
  0xa8, 0x49, 0x05, 0xbe, 0x64, 0xc8, 0xea, 0xbe, 0x00, 0x9b, 0x32, 0xbe,
  0xa4, 0x20, 0x18, 0xbf, 0xc6, 0x38, 0x2d, 0xbe, 0x91, 0xcf, 0xd4, 0xbe,
  0xad, 0xf1, 0x12, 0xbe, 0x59, 0x75, 0x4c, 0xbe, 0x5d, 0xde, 0xe6, 0xbe,
  0xa8, 0x23, 0xaf, 0xbc, 0x46, 0xc0, 0x9c, 0xbe, 0xd4, 0x4e, 0xa9, 0xbe,
  0xa9, 0xf5, 0x2e, 0xbf, 0x59, 0xe9, 0x15, 0xbf, 0xc7, 0xd2, 0xfc, 0xbe,
  0x2c, 0xe5, 0xbd, 0xbd, 0x62, 0xc3, 0x09, 0xbe, 0xef, 0xc2, 0xfc, 0xbe,
  0x9c, 0x6c, 0xd8, 0xbf, 0x73, 0x5b, 0xdf, 0x3e, 0xb5, 0xad, 0xc6, 0xbd,
  0xf3, 0x91, 0xb1, 0xbd, 0xf0, 0xf2, 0x4c, 0xbe, 0x67, 0xe5, 0x4e, 0xbe,
  0x4a, 0xd2, 0x71, 0xbe, 0x43, 0xc2, 0x12, 0x3d, 0x2d, 0x76, 0x88, 0xbe,
  0xbf, 0x8e, 0xee, 0xbe, 0x20, 0xf6, 0x8a, 0xbe, 0xbc, 0x5c, 0x38, 0xbf,
  0x28, 0x63, 0xe6, 0xbd, 0xe7, 0x81, 0x0a, 0xbf, 0xc6, 0x7e, 0x59, 0xbe,
  0x04, 0x42, 0x38, 0xbf, 0x54, 0x36, 0x59, 0xbe, 0xcc, 0x72, 0x80, 0xbe,
  0x02, 0x29, 0x7f, 0xbe, 0x28, 0x42, 0xa3, 0x3d, 0xe9, 0x0f, 0xd3, 0xbe,
  0xa0, 0xb7, 0x62, 0xbf, 0xec, 0x2a, 0xfe, 0xbe, 0x2d, 0xcd, 0x50, 0xbe,
  0xf9, 0x88, 0xaf, 0xbe, 0x96, 0x1c, 0x09, 0xbe, 0x4b, 0xab, 0x95, 0xbf,
  0x9f, 0x50, 0x92, 0xbd, 0xbd, 0xbc, 0x0d, 0xbd, 0x15, 0x19, 0x08, 0xbf,
  0xd2, 0xd5, 0x46, 0xbf, 0x3f, 0x25, 0x69, 0xbe, 0x1d, 0x1b, 0x87, 0xbe,
  0xa3, 0xca, 0x6f, 0x3e, 0x88, 0xda, 0xd7, 0xbe, 0x80, 0x38, 0x70, 0xbe,
  0xb7, 0xd5, 0x93, 0xbe, 0x8b, 0x38, 0xe4, 0xbe, 0x28, 0xac, 0x90, 0xbe,
  0x08, 0x27, 0x28, 0x3d, 0x6d, 0x65, 0x15, 0x3d, 0x41, 0x2e, 0xdd, 0xbe,
  0xa7, 0xfe, 0x27, 0xbf, 0x90, 0x6f, 0xc8, 0xbe, 0x73, 0x6f, 0x60, 0xbe,
  0xf8, 0xd9, 0xa3, 0x3c, 0x19, 0x7e, 0x08, 0xbe, 0xc0, 0xb9, 0x15, 0xbf,
  0x80, 0x81, 0x57, 0x3d, 0x4f, 0xde, 0x1f, 0xbf, 0x5a, 0x98, 0x1c, 0xbe,
  0x79, 0x45, 0x0e, 0xbe, 0x81, 0x7f, 0xac, 0xbe, 0x7c, 0x9f, 0x84, 0xbe,
  0x9d, 0x62, 0x0f, 0xbe, 0x1e, 0xc1, 0x27, 0xbe, 0x39, 0xdd, 0x9d, 0x3e,
  0xb0, 0x74, 0x33, 0xbf, 0xdf, 0xba, 0xda, 0x3d, 0x9e, 0x66, 0x20, 0xbf,
  0x50, 0xa7, 0x2e, 0xbf, 0x33, 0x7f, 0x16, 0xbe, 0x13, 0xe2, 0x9f, 0xbe,
  0x3f, 0xbb, 0x15, 0x3e, 0xac, 0xce, 0x23, 0xbf, 0x12, 0xc1, 0x84, 0xbd,
  0x5d, 0x9d, 0xc0, 0x3e, 0x1e, 0xf4, 0xef, 0x3c, 0xe9, 0xeb, 0xf8, 0xbe,
  0xaa, 0xd8, 0x8b, 0x3d, 0x60, 0x98, 0x50, 0xbf, 0xd2, 0xf4, 0xb7, 0x3c,
  0x97, 0xb0, 0xf3, 0xbe, 0xeb, 0x2b, 0x37, 0xbf, 0x1d, 0x54, 0x03, 0xbf,
  0x36, 0x04, 0xf9, 0xbe, 0xa2, 0x0a, 0xc1, 0xbe, 0x12, 0x97, 0x8e, 0xbd,
  0x9f, 0xff, 0x88, 0xbe, 0x75, 0x20, 0x85, 0xbf, 0xcb, 0xd9, 0x4d, 0xbf,
  0x3a, 0xdc, 0x71, 0xbf, 0x01, 0x88, 0x17, 0xbe, 0x3f, 0xed, 0x3f, 0x3d,
  0xab, 0x51, 0x82, 0xbe, 0x04, 0xa0, 0x06, 0xbf, 0x3a, 0x09, 0x0a, 0xbf,
  0x3f, 0x8f, 0x2c, 0xbe, 0x27, 0x3d, 0xaf, 0xbf, 0xaa, 0x98, 0x82, 0xbe,
  0x6c, 0x01, 0x7e, 0xbf, 0x92, 0xc2, 0x28, 0xbb, 0x2a, 0xc8, 0x57, 0xbf,
  0x29, 0xb1, 0x4c, 0xbc, 0x42, 0x35, 0x91, 0xbf, 0x3f, 0x26, 0xb1, 0xbc,
  0x48, 0x35, 0x57, 0xbf, 0x25, 0x4b, 0xb5, 0x3e, 0x21, 0xbe, 0xf1, 0xbe,
  0xa0, 0x9f, 0x6b, 0xbe, 0x50, 0x50, 0x00, 0xbe, 0xaf, 0x65, 0x53, 0xbf,
  0x47, 0x15, 0x64, 0xbf, 0xd2, 0x46, 0x0d, 0x3f, 0xc5, 0xae, 0xdb, 0xbe,
  0x6e, 0x94, 0x0f, 0xbe, 0x2d, 0xa1, 0x4e, 0xbf, 0xb0, 0x5f, 0x80, 0xbf,
  0xc0, 0xb2, 0xa6, 0xbe, 0x0c, 0xa9, 0xdf, 0xbc, 0x1c, 0xa2, 0x0a, 0xbe,
  0x90, 0x61, 0x70, 0xbf, 0x05, 0x21, 0x76, 0xbe, 0x82, 0xbd, 0x76, 0xbf,
  0xb6, 0xe4, 0xc2, 0xbe, 0xeb, 0xe0, 0x0c, 0xbf, 0xcf, 0xaf, 0xd2, 0xbe,
  0x16, 0xb1, 0x10, 0xbf, 0xb4, 0x2d, 0x98, 0xbe, 0xc3, 0x4d, 0x8a, 0x3e,
  0x50, 0x0d, 0x94, 0x3c, 0x94, 0xf1, 0xac, 0xbe, 0x2f, 0x96, 0xa8, 0xbe,
  0xdd, 0x6e, 0x14, 0xbf, 0x16, 0xcf, 0x25, 0xbf, 0x27, 0x54, 0xbf, 0xbe,
  0x05, 0x72, 0x7f, 0xbf, 0xa7, 0xc0, 0x0d, 0xbf, 0x19, 0xd5, 0x83, 0xbe,
  0x0c, 0x5d, 0x3e, 0x3d, 0x09, 0x86, 0x5f, 0x3d, 0x5a, 0x95, 0xd4, 0xbd,
  0xad, 0x0d, 0xd8, 0xbd, 0xe3, 0x75, 0x6a, 0xbc, 0xa7, 0x37, 0xea, 0xbd,
  0x53, 0xcf, 0x2b, 0xbe, 0x78, 0x54, 0x3e, 0xbe, 0x89, 0x6d, 0x8e, 0xbd,
  0xf9, 0xfe, 0x1a, 0x3d, 0x52, 0xcf, 0x51, 0xbe, 0xfd, 0x83, 0x94, 0xbd,
  0xe4, 0x94, 0x94, 0xbe, 0x37, 0x13, 0x21, 0xbe, 0x02, 0x47, 0x19, 0xbe,
  0x9f, 0x53, 0xd1, 0xbe, 0xa3, 0xf1, 0x2f, 0xbe, 0xb1, 0x6c, 0x98, 0xbc,
  0x2d, 0x44, 0x3c, 0xbe, 0x8a, 0x65, 0x58, 0xbe, 0x73, 0x02, 0xa3, 0xbc,
  0xbb, 0x8f, 0xe7, 0xbe, 0x0e, 0xe7, 0x04, 0xbc, 0xfb, 0x4e, 0x72, 0xbe,
  0xfa, 0x71, 0xd4, 0xbd, 0x9f, 0xc9, 0x51, 0xbe, 0xa9, 0x1b, 0x09, 0xbe,
  0xeb, 0xb6, 0x1e, 0xbc, 0x1d, 0x68, 0x52, 0xbe, 0xe9, 0x41, 0x84, 0xbe,
  0x24, 0xd1, 0x73, 0xbd, 0xd8, 0x2c, 0x77, 0xbe, 0x4a, 0x5e, 0x01, 0x3c,
  0x70, 0x4d, 0x09, 0xbe, 0x40, 0x37, 0xac, 0x3b, 0xe3, 0x49, 0x97, 0xbd,
  0x57, 0x74, 0x35, 0xbe, 0x87, 0x46, 0x5a, 0xbe, 0x31, 0xe8, 0xfd, 0xbd,
  0x85, 0x79, 0x5f, 0xbe, 0xa7, 0x70, 0x21, 0xbb, 0xa8, 0xfe, 0xf5, 0xbd,
  0x06, 0x62, 0x54, 0xbe, 0x89, 0x5f, 0x6e, 0x3d, 0x8c, 0x7c, 0x7d, 0xbd,
  0xa3, 0x0b, 0x32, 0xbc, 0x2f, 0xbe, 0x12, 0xbe, 0x5d, 0x4a, 0x19, 0xbd,
  0x56, 0xcf, 0x1d, 0xbe, 0xc8, 0x2f, 0x96, 0xbd, 0xbe, 0xdd, 0x84, 0x3d,
  0xef, 0xa3, 0xf2, 0xbd, 0xfe, 0x4d, 0xfb, 0xbd, 0xe2, 0x54, 0x02, 0xbe,
  0x9a, 0x22, 0x4f, 0xbe, 0x1b, 0xf8, 0xae, 0xbd, 0x00, 0xec, 0xd0, 0xbe,
  0x1e, 0xa5, 0xd6, 0xbd, 0xf1, 0xf4, 0xe1, 0xbd, 0xe7, 0x27, 0xbd, 0xbe,
  0x5a, 0xa1, 0x9d, 0xbd, 0x51, 0x24, 0x62, 0x3d, 0x82, 0x90, 0xf2, 0xbd,
  0xd6, 0xe8, 0xaa, 0xbe, 0xd6, 0x70, 0x0d, 0x3e, 0xfc, 0x49, 0xc5, 0xbd,
  0xdc, 0xd3, 0x0d, 0xbd, 0x6b, 0xe7, 0x6d, 0xbe, 0x46, 0xde, 0x8e, 0xbd,
  0xea, 0x6a, 0xda, 0xbe, 0x81, 0x5f, 0x17, 0xbe, 0x95, 0x43, 0xd1, 0xbd,
  0xbf, 0x66, 0x28, 0x3c, 0xf3, 0xf5, 0xbe, 0xbe, 0x69, 0x17, 0xb0, 0xbd,
  0xd1, 0x84, 0x9c, 0x3c, 0x91, 0xa1, 0x2d, 0xbe, 0x63, 0xb3, 0x9e, 0xbd,
  0x2a, 0xbc, 0xa9, 0x3d, 0x90, 0x34, 0x23, 0xbc, 0x14, 0x49, 0xc6, 0xbe,
  0x12, 0xa8, 0x55, 0xbe, 0x0d, 0x18, 0x23, 0x3d, 0xdb, 0x8d, 0x96, 0xbe,
  0x00, 0x1d, 0xa1, 0xbe, 0xef, 0xa6, 0x8f, 0xbe, 0x32, 0x98, 0x47, 0x3e,
  0x3a, 0x89, 0x95, 0xbe, 0x42, 0xe2, 0x8e, 0xbc, 0x0e, 0xe8, 0xb6, 0xbe,
  0x08, 0xe8, 0xf8, 0xbd, 0xa7, 0xb8, 0x0d, 0xbe, 0xcd, 0x31, 0x24, 0xbe,
  0xf9, 0x4b, 0xb4, 0xbe, 0x6c, 0x1c, 0x8d, 0x3c, 0x63, 0x76, 0x90, 0xbe,
  0xa7, 0xcd, 0x14, 0x3d, 0xc5, 0xc3, 0x8c, 0xbe, 0x31, 0xf4, 0xb2, 0xbd,
  0x67, 0xfe, 0xce, 0xbd, 0x44, 0x75, 0xc6, 0xbe, 0x7a, 0x9a, 0xd3, 0xbd,
  0x2a, 0x8d, 0x6c, 0x3d, 0xdd, 0x02, 0x07, 0xbe, 0xf7, 0xa3, 0xde, 0x3c,
  0x54, 0xd5, 0x92, 0xbd, 0xc4, 0x08, 0xbb, 0xbe, 0xb8, 0x33, 0x01, 0x3d,
  0x90, 0x93, 0x9d, 0xbd, 0x0e, 0x20, 0xf8, 0xbd, 0x4c, 0x8f, 0x65, 0xbc,
  0x76, 0x23, 0xed, 0xbd, 0xf6, 0xd9, 0x63, 0xbe, 0x06, 0xe9, 0xf4, 0xbe,
  0x39, 0x07, 0x81, 0xbe, 0xa7, 0xd3, 0x9c, 0xbe, 0xc7, 0x4f, 0x18, 0xbe,
  0xed, 0xd9, 0x99, 0xbd, 0xd1, 0x3c, 0x23, 0xbe, 0x13, 0x2b, 0x12, 0xbd,
  0x64, 0x80, 0xa9, 0xbe, 0x46, 0x8e, 0xb5, 0x3d, 0xc3, 0x80, 0x85, 0xbe,
  0xc5, 0x30, 0x2b, 0xbf, 0x20, 0x29, 0xb1, 0xbe, 0xcb, 0x67, 0x11, 0xbe,
  0xc1, 0xec, 0xa2, 0xbe, 0x15, 0xab, 0xd4, 0xbe, 0xec, 0x32, 0x6a, 0x3f,
  0x99, 0x0a, 0xa5, 0xbf, 0xd9, 0xec, 0x59, 0xbf, 0x8e, 0xd0, 0x2e, 0xbf,
  0x56, 0x32, 0x33, 0x3e, 0x62, 0xa0, 0x07, 0x3d, 0x8d, 0x91, 0x2d, 0xbf,
  0x57, 0xbb, 0x3f, 0xbf, 0xf6, 0x60, 0xd8, 0x3c, 0x8f, 0x7a, 0x41, 0xbf,
  0x0f, 0x38, 0x99, 0x3e, 0x24, 0x15, 0x41, 0xbf, 0x96, 0xf9, 0xdd, 0xbe,
  0x81, 0xa2, 0xa0, 0xbe, 0x87, 0xb1, 0x6c, 0xbf, 0xc6, 0x30, 0xf1, 0xbd,
  0xe1, 0x49, 0x51, 0xbf, 0x14, 0x48, 0x01, 0xbf, 0xf2, 0x18, 0xdb, 0xbe,
  0x68, 0xf4, 0x25, 0xbf, 0xb9, 0xf0, 0x77, 0x3c, 0x80, 0xf1, 0x76, 0xbf,
  0x92, 0x67, 0x2b, 0xbf, 0x75, 0x86, 0x9b, 0xbd, 0x75, 0x1b, 0x4c, 0xbf,
  0x0c, 0x6a, 0x42, 0x3d, 0x1b, 0x42, 0x62, 0x3d, 0xb8, 0x99, 0x94, 0xbf,
  0x16, 0xa9, 0x3f, 0xbf, 0xec, 0x6e, 0xf4, 0xbe, 0x07, 0xb9, 0xf3, 0xbe,
  0x91, 0x85, 0x0d, 0xbf, 0xec, 0x74, 0xba, 0xbc, 0x91, 0x79, 0x1e, 0x3d,
  0x4a, 0x7f, 0x77, 0xbf, 0xd9, 0xf5, 0x82, 0xbf, 0xfe, 0x74, 0xc9, 0xbf,
  0x52, 0xac, 0xb3, 0xbf, 0x20, 0x7c, 0xa4, 0xbf, 0xc5, 0x91, 0x5e, 0x3f,
  0xe4, 0x9d, 0x9d, 0xbe, 0xf8, 0x57, 0x06, 0xbe, 0x2d, 0xd5, 0x3a, 0xbf,
  0xaf, 0x2b, 0x92, 0x3e, 0xfd, 0x20, 0x12, 0xbf, 0xde, 0xe0, 0x88, 0xbe,
  0xc9, 0xe8, 0x48, 0xbf, 0x33, 0xc3, 0x3b, 0xbf, 0x77, 0x7e, 0x9c, 0xbd,
  0xc4, 0x71, 0xfa, 0xbd, 0x70, 0x03, 0x8d, 0xbf, 0xa2, 0x69, 0x68, 0xbd,
  0x3d, 0xa3, 0xd8, 0xbe, 0xde, 0x8e, 0xef, 0xbe, 0x8b, 0x25, 0x53, 0xbe,
  0x8f, 0x3b, 0x28, 0x3d, 0xe2, 0x63, 0x0e, 0xbe, 0xc7, 0x5e, 0xe5, 0x3e,
  0x2c, 0xba, 0x87, 0xbf, 0xae, 0xf3, 0x07, 0xbf, 0xb1, 0xdf, 0x04, 0xbf,
  0x10, 0xf6, 0x30, 0x3e, 0xc7, 0x15, 0x41, 0x3d, 0x16, 0x40, 0x5e, 0x3e,
  0xd5, 0xc0, 0x28, 0xbf, 0x39, 0x11, 0x62, 0xbd, 0x55, 0xda, 0x92, 0xbe,
  0xde, 0xe0, 0x63, 0xbf, 0x92, 0xd4, 0xea, 0x3e, 0x19, 0xac, 0xa1, 0x3e,
  0xde, 0xe6, 0x92, 0x3e, 0xc4, 0xed, 0xf4, 0xbe, 0xbb, 0x02, 0x2a, 0x3f,
  0x30, 0x06, 0x0b, 0x3f, 0xa9, 0xa6, 0x1a, 0xbf, 0xed, 0x2e, 0xfd, 0xbe,
  0x6e, 0x3c, 0xd2, 0xbd, 0xa7, 0x8e, 0x27, 0x3e, 0xd5, 0xa1, 0x4f, 0xbe,
  0x04, 0xcd, 0x79, 0x3d, 0xc4, 0x5c, 0xfc, 0xbe, 0xd2, 0x63, 0x3c, 0x3c,
  0x44, 0xa9, 0x1e, 0xbf, 0x13, 0x01, 0x1b, 0x3c, 0x45, 0x20, 0x11, 0xbf,
  0x13, 0x22, 0xe8, 0xbe, 0xb9, 0xd4, 0x29, 0xbe, 0xf5, 0xc7, 0x8f, 0xbe,
  0x07, 0xa7, 0x00, 0x3f, 0x1b, 0x5c, 0xbe, 0x3e, 0x33, 0x6a, 0x6c, 0xbf,
  0xf0, 0x9e, 0x3f, 0xbe, 0x8e, 0x45, 0x16, 0xbf, 0xd5, 0x5b, 0x0c, 0xbe,
  0x82, 0x19, 0xc1, 0x3c, 0xc8, 0x9d, 0xe9, 0xbe, 0xc0, 0x2e, 0x09, 0x3e,
  0x1e, 0xbb, 0x48, 0x3d, 0xdf, 0x31, 0xa1, 0xbe, 0xf1, 0x42, 0xc6, 0x3e,
  0x15, 0x02, 0x13, 0xbf, 0x14, 0x8d, 0x02, 0xbf, 0xbf, 0xef, 0xba, 0xbf,
  0x57, 0x1f, 0x58, 0x3d, 0xc1, 0x82, 0x8f, 0xbf, 0x6f, 0xcb, 0x02, 0x3c,
  0x18, 0x49, 0xba, 0xbe, 0x82, 0x99, 0x8f, 0xbf, 0x7e, 0x61, 0x10, 0x3e,
  0x15, 0x84, 0xbc, 0x3e, 0x39, 0xfa, 0xc1, 0xbe, 0xcb, 0x6d, 0x62, 0xbf,
  0x34, 0xe0, 0xea, 0xbf, 0xa0, 0xa5, 0x6d, 0xbd, 0x0f, 0xba, 0x3a, 0xbe,
  0x62, 0xae, 0x80, 0x3f, 0xa7, 0xc7, 0xcb, 0xbf, 0xa7, 0xd1, 0xae, 0xbe,
  0x75, 0x81, 0x1e, 0xbf, 0x78, 0xe4, 0x5f, 0xbf, 0x47, 0xf5, 0x8e, 0xbe,
  0x89, 0x29, 0xc1, 0xbe, 0xf5, 0x70, 0x08, 0xbf, 0xb1, 0x6a, 0x2f, 0x3c,
  0x00, 0x78, 0x7f, 0xbd, 0xe7, 0x3e, 0x23, 0xbd, 0xf9, 0xa0, 0xaa, 0x3e,
  0x2b, 0x9f, 0xfd, 0xbf, 0x90, 0x7d, 0x04, 0xbf, 0x3c, 0xd8, 0x0b, 0xbe,
  0xfd, 0x9d, 0xe4, 0x3c, 0xf9, 0x15, 0x59, 0xbf, 0x6e, 0xcd, 0x3f, 0xbe,
  0x46, 0xf6, 0x38, 0xbf, 0x0a, 0x72, 0x12, 0xbe, 0xff, 0x3e, 0x89, 0xbe,
  0x57, 0x1b, 0x02, 0xbf, 0x62, 0x92, 0xbc, 0xbf, 0x2b, 0x47, 0x76, 0xbe,
  0xec, 0x11, 0x6a, 0xbf, 0xde, 0x7d, 0x41, 0xbf, 0x55, 0x4f, 0xd7, 0xbe,
  0xdf, 0x63, 0xb4, 0xbe, 0x19, 0x1f, 0xb5, 0xbe, 0x4d, 0x07, 0x80, 0xbe,
  0x96, 0x5e, 0x23, 0x3d, 0xf1, 0x15, 0xcd, 0xbe, 0x62, 0x3b, 0x21, 0x3d,
  0x77, 0x28, 0x3c, 0xbf, 0x01, 0x7e, 0xad, 0xbe, 0xc8, 0x5c, 0x6d, 0xbf,
  0xa3, 0xc1, 0xaf, 0xbe, 0xa2, 0xb6, 0x83, 0x3e, 0xe5, 0xf8, 0x67, 0xbf,
  0x5b, 0xd7, 0xd0, 0xbe, 0x10, 0x63, 0xf4, 0xbd, 0xd8, 0xb6, 0xef, 0xbe,
  0x66, 0x10, 0x87, 0xbe, 0x58, 0x80, 0x98, 0xbe, 0xba, 0xea, 0x54, 0xbf,
  0xb5, 0x03, 0xdb, 0x3c, 0x5d, 0x2c, 0x14, 0xbf, 0xbe, 0xcc, 0x00, 0xbf,
  0x09, 0x16, 0x24, 0xbf, 0xa7, 0x90, 0x5a, 0xbf, 0xb3, 0x17, 0x98, 0xbf,
  0x18, 0x21, 0xba, 0xbe, 0x21, 0xb5, 0xf5, 0xbd, 0x12, 0x89, 0x18, 0xbf,
  0x54, 0x89, 0xe6, 0xbe, 0x89, 0x6b, 0x23, 0xbf, 0x55, 0xdd, 0x32, 0xb7,
  0xc6, 0x81, 0x43, 0x3e, 0x6f, 0x2e, 0x63, 0x3e, 0x2c, 0xd6, 0x42, 0xbe,
  0x74, 0xf2, 0xac, 0xbf, 0x6f, 0x12, 0x37, 0x3e, 0xa3, 0xc2, 0xf9, 0xbd,
  0x7f, 0x37, 0xd6, 0xbe, 0x0f, 0x44, 0x05, 0xbf, 0xcc, 0xdc, 0x61, 0xb8,
  0x5b, 0x51, 0xac, 0xbe, 0xcb, 0x6d, 0xdb, 0xbe, 0x6a, 0xfc, 0x7d, 0xbe,
  0x32, 0x1a, 0xcc, 0xbd, 0x45, 0x56, 0x6e, 0xbf, 0x1e, 0x81, 0xaa, 0xbf,
  0x0f, 0xda, 0xf0, 0xbe, 0x6b, 0xc5, 0x18, 0xbf, 0x67, 0xa4, 0x8a, 0xbf,
  0x78, 0xb0, 0x63, 0x3d, 0x83, 0xd5, 0xbe, 0xbe, 0x9b, 0x0a, 0xe7, 0xbe,
  0x75, 0xeb, 0xcd, 0xbd, 0xa3, 0x36, 0x0d, 0x3e, 0xcc, 0x30, 0x56, 0xbe,
  0xd8, 0xfe, 0x26, 0xbd, 0x84, 0xee, 0x36, 0xbf, 0x49, 0x18, 0x6a, 0xbd,
  0xc7, 0xf8, 0xa9, 0x3e, 0x1f, 0x86, 0x0d, 0x3e, 0xd9, 0xdd, 0x70, 0xbe,
  0x72, 0xe1, 0x86, 0xbe, 0xfa, 0x92, 0xa1, 0x3e, 0x4b, 0x19, 0x06, 0x3e,
  0x73, 0xbd, 0xfb, 0xbd, 0xf1, 0xfc, 0xc2, 0xbe, 0x9b, 0x30, 0x22, 0xbf,
  0xab, 0x6d, 0xc0, 0xbe, 0x5c, 0x0b, 0x29, 0x3d, 0x64, 0x23, 0xd4, 0xbc,
  0x93, 0x3a, 0x1a, 0xbd, 0x7a, 0xb7, 0xce, 0x3d, 0x5b, 0x87, 0xa9, 0xbe,
  0x0b, 0x97, 0x91, 0x3d, 0xab, 0xa5, 0xb1, 0xbe, 0x45, 0x4c, 0x6e, 0x3e,
  0xa5, 0x2f, 0x1e, 0xbb, 0x2d, 0x0e, 0xc8, 0x3d, 0xd5, 0xc8, 0x65, 0xbd,
  0x6e, 0x00, 0x87, 0x3e, 0x77, 0x93, 0x89, 0xbe, 0xa6, 0xcb, 0x20, 0x3d,
  0xc8, 0xba, 0x9e, 0xbe, 0x88, 0x91, 0x59, 0xbd, 0x54, 0x9f, 0x75, 0x3e,
  0x8c, 0xaa, 0xcb, 0xbc, 0x2f, 0x6e, 0x19, 0x3d, 0xd5, 0x61, 0x8d, 0x3e,
  0x2e, 0xff, 0x2b, 0xbf, 0x19, 0x44, 0xaa, 0xbd, 0xd3, 0x9c, 0xfe, 0xbe,
  0xb2, 0x6c, 0x88, 0xbe, 0x44, 0xcb, 0xfe, 0x3d, 0x67, 0x2d, 0xaa, 0xbe,
  0x8a, 0x0b, 0xc0, 0x3d, 0xdc, 0x97, 0xc1, 0xbb, 0xaa, 0xf4, 0x72, 0xbf,
  0x3e, 0x55, 0x9d, 0xbe, 0xf3, 0xf0, 0x8b, 0xbe, 0xbd, 0xbf, 0xfb, 0xbd,
  0x4e, 0x3a, 0x72, 0xbf, 0xf5, 0xf8, 0xc3, 0x3d, 0x51, 0xa1, 0x17, 0x3c,
  0x18, 0x45, 0x9c, 0xbe, 0xa5, 0x26, 0x47, 0xbf, 0x6d, 0xc5, 0x13, 0xbf,
  0xc1, 0xcc, 0xe5, 0xbd, 0x3f, 0xd3, 0x16, 0xbf, 0x31, 0xc0, 0xd4, 0xbd,
  0xde, 0xd2, 0x9e, 0xbe, 0x32, 0xaa, 0x43, 0xbf, 0xba, 0xb2, 0xf8, 0xbd,
  0x04, 0xed, 0x64, 0x3e, 0x4a, 0x2e, 0xc2, 0x3d, 0x80, 0x68, 0xf9, 0xbe,
  0x7f, 0x3b, 0x8c, 0xbe, 0xdd, 0x06, 0xe0, 0xbe, 0x3b, 0xdd, 0xb8, 0xbd,
  0xf5, 0xd4, 0xf4, 0xbe, 0xee, 0xc6, 0x9f, 0xbe, 0x22, 0xb0, 0x2d, 0xbe,
  0x82, 0x28, 0xb5, 0xbe, 0x8c, 0x9f, 0x62, 0xbf, 0x4c, 0x5e, 0x0a, 0xbf,
  0xfb, 0x06, 0x1b, 0xbf, 0x31, 0xa5, 0xbb, 0xbe, 0x21, 0x8c, 0x56, 0xbd,
  0x06, 0xd4, 0xd5, 0x3d, 0xa7, 0x14, 0x9c, 0xbe, 0xde, 0x0e, 0xbe, 0xbe,
  0x66, 0xb0, 0x29, 0xbe, 0x75, 0x60, 0x2e, 0xbe, 0xd2, 0x33, 0xbd, 0xbe,
  0x20, 0x34, 0xb8, 0x3e, 0x7f, 0x70, 0x2f, 0xbf, 0x48, 0x4d, 0x4d, 0xbf,
  0xe9, 0x6f, 0x23, 0xbf, 0xa8, 0x06, 0xd5, 0xbe, 0xd0, 0xbd, 0x6e, 0xbf,
  0xe1, 0x84, 0xd6, 0x3e, 0x83, 0xc2, 0xd2, 0xbe, 0x67, 0xce, 0xe5, 0x3d,
  0xe1, 0x87, 0x41, 0xbf, 0xaa, 0x12, 0x8a, 0xbf, 0x9a, 0x2c, 0x87, 0xbe,
  0x11, 0x46, 0x0a, 0xbf, 0xd6, 0xfb, 0xf0, 0xbd, 0x6f, 0x2a, 0xce, 0xbe,
  0x72, 0xfc, 0x8e, 0xbe, 0xdc, 0x97, 0xed, 0xbd, 0x21, 0x68, 0x25, 0xbe,
  0xf0, 0xdc, 0x24, 0xbf, 0xe5, 0x73, 0x2b, 0x3e, 0x86, 0xd8, 0x20, 0xbf,
  0xc4, 0xe1, 0xe3, 0x3e, 0x79, 0x89, 0x1d, 0xbf, 0x58, 0x48, 0x81, 0xbe,
  0x23, 0x23, 0xcd, 0xbe, 0x2e, 0x85, 0x37, 0xbf, 0x22, 0x17, 0xfe, 0x3c,
  0x68, 0xa7, 0x55, 0x3d, 0xe1, 0x22, 0x86, 0xbe, 0xf0, 0x6d, 0x6b, 0xbd,
  0xa5, 0xb7, 0x8e, 0xbe, 0xcc, 0x19, 0x89, 0xbe, 0x5f, 0xb7, 0xb4, 0xbe,
  0x42, 0xd6, 0x57, 0xbe, 0x72, 0x06, 0xa8, 0x3d, 0x10, 0x3d, 0x19, 0x3f,
  0x6f, 0x8e, 0x98, 0xbe, 0x1c, 0x90, 0x99, 0xbe, 0x15, 0x4d, 0xf6, 0xbc,
  0xd5, 0x4e, 0xc1, 0xbe, 0x4d, 0xf2, 0x91, 0xbe, 0xe7, 0x5c, 0x24, 0xbf,
  0x00, 0xc8, 0x64, 0xbf, 0x2d, 0x67, 0xc9, 0xbc, 0xe0, 0x89, 0x18, 0xbf,
  0x63, 0xc9, 0x2d, 0xbd, 0xc5, 0x63, 0x25, 0xc0, 0x90, 0x33, 0x21, 0xbf,
  0x5c, 0x96, 0x81, 0xbd, 0x06, 0x6d, 0x43, 0xbd, 0x07, 0x4b, 0x90, 0x3e,
  0xa3, 0xd2, 0x35, 0x3e, 0x1b, 0x03, 0xfd, 0x3d, 0x3f, 0x86, 0x9d, 0xbf,
  0x08, 0xb3, 0x4e, 0x3e, 0x33, 0xf7, 0x91, 0x3e, 0x4d, 0x79, 0x64, 0x3d,
  0x5d, 0x43, 0xb8, 0x3d, 0xcb, 0x29, 0xe1, 0x3d, 0x29, 0xde, 0x4f, 0xbe,
  0xdd, 0xd7, 0x86, 0xbd, 0xc9, 0x6e, 0xea, 0x3d, 0xc1, 0x24, 0xea, 0xbe,
  0xef, 0x21, 0xc3, 0x3e, 0x8b, 0x69, 0x1a, 0xbf, 0xa0, 0xbb, 0x1e, 0xbf,
  0x98, 0x3e, 0x10, 0xbf, 0x2e, 0xbf, 0x32, 0xbe, 0xb5, 0x93, 0x86, 0xbf,
  0x40, 0x66, 0x9c, 0x3e, 0x9a, 0x61, 0x49, 0x3e, 0x42, 0x00, 0x05, 0xbe,
  0x74, 0x52, 0x42, 0xbe, 0x37, 0x82, 0x11, 0xbe, 0xb3, 0xb0, 0x33, 0x3d,
  0x78, 0x9a, 0x10, 0xbe, 0xb2, 0x90, 0xf0, 0x3e, 0xd9, 0xe6, 0x86, 0xbf,
  0x2a, 0x5a, 0x84, 0x3f, 0xc1, 0x27, 0x1a, 0xbd, 0xdf, 0x02, 0xdb, 0x3c,
  0x0a, 0x7e, 0xd5, 0xbe, 0x88, 0x76, 0x47, 0x3b, 0xd7, 0xab, 0x8c, 0xbe,
  0x2f, 0xbe, 0x73, 0xbf, 0xef, 0x46, 0xba, 0xbe, 0x1d, 0x27, 0xa3, 0x3e,
  0xac, 0x65, 0x06, 0xbf, 0xfc, 0x73, 0x41, 0xbf, 0x99, 0x7c, 0xb0, 0xbe,
  0xa4, 0x2d, 0x0f, 0xbe, 0x5a, 0x52, 0xdd, 0xbf, 0x40, 0xf8, 0xf8, 0xbe,
  0x90, 0x6a, 0x93, 0x3e, 0xb8, 0xff, 0x2e, 0xbf, 0xaf, 0xf8, 0x3c, 0x3e,
  0x9a, 0x37, 0x18, 0xbf, 0x8e, 0x4c, 0xa9, 0xbd, 0x92, 0xe4, 0x9e, 0x3e,
  0x55, 0x97, 0x58, 0xbf, 0xdb, 0xcd, 0x8c, 0xbe, 0x17, 0x93, 0x87, 0xbe,
  0x4b, 0x5b, 0x42, 0x3d, 0x2a, 0xf1, 0x48, 0x3f, 0x1e, 0xe2, 0xd1, 0xbf,
  0x21, 0x59, 0xe7, 0xbe, 0x40, 0xa6, 0x99, 0xbf, 0x4e, 0xa6, 0x64, 0xbe,
  0x80, 0xae, 0xb5, 0xbe, 0x77, 0x0a, 0x5d, 0xbe, 0xc3, 0x30, 0x04, 0x3e,
  0x68, 0x08, 0x2e, 0xbe, 0x6c, 0xce, 0x88, 0x3c, 0xf5, 0xe9, 0x57, 0xbe,
  0x5d, 0x7e, 0x44, 0xbe, 0x62, 0xe1, 0x04, 0xbe, 0x7d, 0x8c, 0xc2, 0xbd,
  0xd2, 0x07, 0x75, 0xbd, 0xc7, 0xad, 0x97, 0xbe, 0x3f, 0x6f, 0x5c, 0xbe,
  0xc4, 0x2c, 0xb4, 0xbe, 0xc5, 0x20, 0x4a, 0x3c, 0x3d, 0x12, 0x33, 0x3d,
  0x76, 0x15, 0x29, 0xbe, 0x6d, 0xb5, 0x0c, 0x3e, 0xf3, 0xe6, 0xac, 0xbe,
  0x5d, 0x54, 0x3d, 0xbe, 0xe2, 0xc4, 0x4f, 0xbe, 0x9a, 0x7e, 0x12, 0xbe,
  0x59, 0x24, 0x43, 0xbd, 0x95, 0x62, 0x89, 0xbe, 0x4b, 0x12, 0xae, 0xbe,
  0x97, 0x4f, 0xe1, 0xbd, 0x5a, 0x5f, 0x59, 0xbe, 0xc3, 0x1e, 0xc8, 0xbe,
  0x0f, 0xcb, 0x8c, 0xbe, 0xb6, 0x22, 0x8d, 0xbd, 0x9c, 0xc1, 0x0c, 0xbe,
  0xb7, 0xf3, 0xc4, 0xbd, 0x0f, 0x65, 0x95, 0xbe, 0x0c, 0x57, 0x9b, 0xbe,
  0x09, 0x54, 0x0d, 0xbf, 0x71, 0xc5, 0x4b, 0xbd, 0x4a, 0xe0, 0x8b, 0xbe,
  0x29, 0x33, 0x81, 0xbe, 0xc4, 0x65, 0x58, 0xbe, 0x93, 0xa5, 0x29, 0x3d,
  0xa6, 0x9e, 0x9e, 0xbe, 0x59, 0xe8, 0x97, 0xbd, 0xd8, 0xc1, 0xba, 0xbd,
  0x7c, 0x77, 0x84, 0xbe, 0x2b, 0x15, 0xad, 0xbe, 0xf4, 0x0e, 0x12, 0xbe,
  0x72, 0x79, 0x4f, 0x3d, 0x18, 0xba, 0x37, 0xbe, 0x55, 0x13, 0xe0, 0xbd,
  0x91, 0x02, 0xd4, 0xbe, 0xae, 0x06, 0x5e, 0xbe, 0xcc, 0x22, 0x5a, 0xbe,
  0x5b, 0xca, 0x3b, 0xbe, 0xd5, 0xbd, 0x11, 0xbe, 0xef, 0xfb, 0x46, 0x3e,
  0x10, 0xb6, 0xa9, 0xbe, 0xb1, 0xc4, 0xa3, 0xbc, 0x20, 0xb2, 0x35, 0xbe,
  0x28, 0xb2, 0x6f, 0xbc, 0x35, 0xf2, 0x16, 0xbf, 0xcd, 0xf3, 0xb9, 0xbd,
  0x5f, 0x9c, 0xe8, 0xbe, 0xd6, 0x30, 0x13, 0xbf, 0x16, 0x30, 0x11, 0xbe,
  0xf8, 0x76, 0x2c, 0xbe, 0xdf, 0x57, 0x5e, 0xbe, 0x72, 0xd1, 0x6b, 0x3d,
  0x0a, 0x6d, 0xa9, 0xbe, 0x86, 0x1c, 0x6e, 0xbf, 0xb0, 0xdd, 0xc3, 0x3d,
  0xe8, 0x4f, 0x9b, 0xbf, 0x4a, 0x62, 0xcb, 0xbc, 0x7a, 0x6a, 0x46, 0xbf,
  0x59, 0x94, 0x39, 0x3d, 0xd1, 0xd3, 0x89, 0xbe, 0xd2, 0x44, 0x50, 0x3d,
  0x02, 0x84, 0x2d, 0xbf, 0xdf, 0xd6, 0xf4, 0xbe, 0x4b, 0x8b, 0x07, 0xbe,
  0x82, 0xf2, 0xa3, 0xbf, 0xd1, 0x8d, 0xfb, 0xbe, 0x34, 0x82, 0x7d, 0xbf,
  0xbd, 0x9c, 0xcf, 0xbe, 0x3f, 0x4a, 0x7b, 0xbe, 0xc4, 0xd3, 0x7a, 0xbf,
  0x61, 0x13, 0x7e, 0xbe, 0xe8, 0xeb, 0xc8, 0xbe, 0x1c, 0xfb, 0x01, 0xc0,
  0x95, 0x12, 0xa8, 0xbe, 0xbd, 0x68, 0x06, 0xbf, 0x9b, 0x47, 0xe2, 0x3c,
  0xf9, 0x43, 0x68, 0xbf, 0xc9, 0x82, 0xe7, 0xbe, 0xf0, 0xb8, 0x38, 0x3e,
  0x1e, 0xd3, 0x9d, 0xbe, 0xdb, 0xfd, 0xbb, 0xbf, 0x78, 0x5c, 0xcb, 0xbf,
  0x53, 0xe2, 0x83, 0xbd, 0xbb, 0x10, 0xb6, 0xbe, 0x80, 0x05, 0x15, 0xbf,
  0x11, 0x4b, 0xe3, 0xbe, 0x0c, 0xc0, 0xba, 0xbf, 0x5c, 0x99, 0x10, 0xbf,
  0x4c, 0x30, 0x6f, 0xbe, 0xde, 0xaa, 0xb4, 0xbf, 0x6f, 0xd2, 0x03, 0xbf,
  0x0c, 0xac, 0x02, 0xbe, 0xb5, 0x7c, 0x37, 0xbf, 0x96, 0x0a, 0xe9, 0xbf,
  0xd7, 0xcb, 0xcc, 0x3d, 0x51, 0xb6, 0x3c, 0x3f, 0x2c, 0x75, 0x98, 0xbd,
  0x95, 0x7d, 0x82, 0xbe, 0xc1, 0x53, 0x4e, 0xbf, 0x61, 0x18, 0xb0, 0xbf,
  0xa0, 0xb9, 0x97, 0xbf, 0xfc, 0xb6, 0x95, 0xbf, 0x5d, 0xdd, 0x89, 0xbf,
  0x60, 0xf4, 0xe2, 0xbe, 0x5d, 0xe4, 0x05, 0x3f, 0xac, 0x9c, 0x08, 0xbf,
  0x5f, 0xf8, 0x85, 0xbf, 0x30, 0x93, 0x38, 0xbe, 0xd6, 0xa5, 0x9f, 0xbc,
  0x10, 0xce, 0x87, 0x3e, 0xe2, 0xdc, 0x3d, 0xc0, 0xd6, 0x9c, 0x0e, 0x3e,
  0x21, 0xf5, 0xc3, 0xbe, 0x46, 0xa0, 0xc3, 0xbf, 0xcd, 0xd6, 0x0a, 0xbf,
  0x5b, 0x82, 0xae, 0xbe, 0xc4, 0x53, 0xda, 0xbe, 0x87, 0xad, 0xc9, 0xbe,
  0xa2, 0x92, 0x28, 0x3e, 0x9c, 0xdd, 0xd1, 0xbd, 0x32, 0x0d, 0x09, 0x3d,
  0x96, 0x43, 0x87, 0xbf, 0x7e, 0xd6, 0x91, 0x3e, 0x30, 0xa5, 0xbc, 0xbe,
  0x1c, 0x21, 0xcd, 0x3e, 0xaf, 0x8f, 0x2c, 0xbf, 0xd9, 0xfd, 0xe2, 0xbe,
  0x1c, 0xb3, 0xeb, 0xbe, 0x9b, 0x03, 0x02, 0xbe, 0xa3, 0x9f, 0xae, 0xbe,
  0x66, 0x88, 0x66, 0x3d, 0xa9, 0x34, 0x3e, 0xbf, 0x3b, 0x92, 0xc8, 0xbe,
  0x67, 0xea, 0x9b, 0xbe, 0x6b, 0x72, 0xcd, 0xbd, 0x2f, 0xd2, 0x50, 0xbd,
  0x3d, 0x7c, 0x82, 0xbe, 0xc4, 0xbf, 0x90, 0xbf, 0xdc, 0xf6, 0x42, 0xbf,
  0x20, 0xa0, 0x8d, 0xbf, 0x57, 0x68, 0xf5, 0x3e, 0x9a, 0xdf, 0x46, 0xbf,
  0x9d, 0x51, 0x5b, 0x3c, 0xad, 0x2c, 0xff, 0xbe, 0x47, 0x52, 0xea, 0x3d,
  0x0a, 0x87, 0x59, 0xbf, 0x9f, 0x7f, 0x9e, 0xbe, 0x85, 0x58, 0xc5, 0x3d,
  0x21, 0x3e, 0xfb, 0xbd, 0x51, 0x82, 0x10, 0xbf, 0xab, 0xb3, 0x02, 0xbe,
  0x9b, 0xae, 0x1e, 0xbf, 0xec, 0x46, 0xd8, 0xbe, 0xac, 0x77, 0xd4, 0xbe,
  0x17, 0x56, 0x1c, 0xbe, 0xef, 0xd2, 0xb6, 0xbe, 0x19, 0xfe, 0xe4, 0xbe,
  0x53, 0x77, 0x1e, 0xbe, 0x62, 0xb3, 0x86, 0xbe, 0x5e, 0x9b, 0x20, 0x3e,
  0xcb, 0x06, 0x52, 0x3d, 0x81, 0x00, 0x7e, 0x3e, 0x97, 0x35, 0xb2, 0xbe,
  0xe7, 0x43, 0x83, 0xbd, 0x9a, 0xfb, 0x0a, 0xbf, 0xe8, 0xf6, 0x9c, 0xbe,
  0x33, 0xfc, 0x18, 0xbf, 0x44, 0xcb, 0x00, 0xbe, 0x26, 0xbf, 0x05, 0xbf,
  0xb2, 0x38, 0x2c, 0xbf, 0xec, 0x41, 0x87, 0xbe, 0x16, 0xaa, 0xa4, 0xbe,
  0x2b, 0x69, 0x1e, 0xbf, 0x5c, 0x36, 0x1c, 0xbf, 0x29, 0x6b, 0xe1, 0xbd,
  0x21, 0x1f, 0xc6, 0xbe, 0x4c, 0x62, 0x33, 0x3e, 0xfc, 0x5d, 0x36, 0xbe,
  0x4c, 0x24, 0x48, 0xbf, 0xdd, 0xc8, 0x0e, 0xbc, 0xa0, 0xa5, 0x8d, 0xbf,
  0x44, 0xd9, 0x24, 0xbf, 0x9c, 0x65, 0x3a, 0x3e, 0x43, 0xa7, 0x01, 0xc0,
  0x2c, 0xd6, 0xb2, 0xbe, 0x3f, 0xa7, 0x83, 0x3e, 0xfd, 0x29, 0x52, 0xbf,
  0x2f, 0xbb, 0xab, 0xbf, 0x5b, 0xb4, 0x1b, 0xbf, 0xe3, 0xdc, 0x29, 0xbf,
  0x80, 0xe2, 0x0d, 0xc0, 0xd7, 0x65, 0x8b, 0xbf, 0x8f, 0xd1, 0x8f, 0xbf,
  0xea, 0x8a, 0xe6, 0xbe, 0x43, 0x13, 0xb2, 0xbf, 0x97, 0x5e, 0xe4, 0xbf,
  0x72, 0x66, 0x26, 0xc0, 0x66, 0xa0, 0x05, 0x3e, 0x34, 0xc6, 0x5f, 0x3f,
  0xf7, 0x3e, 0x99, 0xbd, 0x45, 0x56, 0xee, 0x3d, 0x29, 0x5f, 0xd5, 0xbe,
  0xed, 0xb5, 0x55, 0xbd, 0xe9, 0x98, 0xa9, 0xbe, 0x21, 0x2e, 0x42, 0xc0,
  0xd9, 0xdd, 0x16, 0xbe, 0xa8, 0x7a, 0xa6, 0xbf, 0xc6, 0x53, 0xb6, 0xbf,
  0x6c, 0x70, 0x90, 0xbf, 0x11, 0x66, 0x6a, 0xbf, 0x37, 0x70, 0x37, 0xbe,
  0x78, 0x7f, 0x0c, 0x3f, 0x5d, 0x10, 0xec, 0xbf, 0x84, 0x4b, 0x05, 0xbd,
  0xa7, 0x1a, 0xad, 0xbe, 0x57, 0xdb, 0xab, 0xbe, 0x8a, 0xd9, 0x0f, 0xbe,
  0xf9, 0xa3, 0xe1, 0xbf, 0xb1, 0x61, 0x42, 0x3f, 0x61, 0x01, 0xde, 0xbe,
  0xa2, 0x82, 0x5e, 0xbf, 0xb2, 0xf6, 0x34, 0xbf, 0xe1, 0xe4, 0xb9, 0xbf,
  0xa6, 0x93, 0x0d, 0xbd, 0x6c, 0x68, 0x99, 0xbd, 0x24, 0x4d, 0x48, 0xbf,
  0x0b, 0xcb, 0x6d, 0xbd, 0xb4, 0x63, 0xdf, 0xbf, 0xce, 0xf1, 0x9a, 0xbf,
  0x26, 0xe6, 0x32, 0x3e, 0x50, 0xea, 0xd0, 0xbf, 0x96, 0x4a, 0x47, 0xbf,
  0x48, 0x9b, 0xba, 0xbf, 0x93, 0x8a, 0xf0, 0xbe, 0x33, 0xfa, 0x6f, 0xbf,
  0x5d, 0xdc, 0x8b, 0xbf, 0x21, 0x6d, 0xc7, 0xbe, 0x16, 0x26, 0xf3, 0xbf,
  0xa3, 0xd7, 0xb1, 0xbe, 0x1d, 0xb2, 0x74, 0xbf, 0x2e, 0x7b, 0x2c, 0xc0,
  0x07, 0x2b, 0x28, 0xbe, 0xab, 0x24, 0xe7, 0xbf, 0xd8, 0xf6, 0x00, 0xbf,
  0x4c, 0xf1, 0x82, 0xbf, 0xbf, 0xa4, 0x6f, 0xbe, 0x18, 0xa6, 0xb5, 0xbf,
  0xf3, 0x2e, 0xe1, 0xbe, 0x13, 0x3d, 0xfe, 0xbe, 0xff, 0x83, 0x71, 0xbf,
  0x91, 0x55, 0x13, 0xbe, 0x6c, 0x1b, 0x4c, 0xbf, 0xa7, 0xcb, 0x52, 0xbd,
  0x2c, 0xa0, 0xb5, 0xbf, 0x17, 0x38, 0x1a, 0xc0, 0x8c, 0xb2, 0xb2, 0xbe,
  0x2e, 0x0f, 0xb1, 0xbf, 0xc4, 0x40, 0xd0, 0xbf, 0x5a, 0x3a, 0x76, 0xbf,
  0x0b, 0x1a, 0x6e, 0xbe, 0x48, 0xb1, 0x9e, 0x3a, 0x48, 0xc6, 0x21, 0xbf,
  0x3b, 0x2c, 0xfe, 0xbe, 0xd9, 0x6c, 0x44, 0xbf, 0xb9, 0x89, 0x46, 0xbf,
  0x2c, 0x51, 0xdb, 0xbe, 0x88, 0x16, 0x19, 0xbe, 0x8a, 0xa8, 0x47, 0xbd,
  0x93, 0x3b, 0x74, 0xbf, 0x1d, 0xa8, 0x56, 0xbe, 0xef, 0x08, 0xa7, 0x3d,
  0x06, 0x35, 0xbb, 0xbf, 0x2e, 0xf4, 0x2a, 0xbf, 0xef, 0x10, 0x7a, 0xbf,
  0x94, 0xab, 0x04, 0xbe, 0x28, 0x67, 0xbb, 0xbf, 0x17, 0xe7, 0x55, 0x3e,
  0x72, 0x63, 0xe2, 0xbb, 0x2a, 0xac, 0xab, 0xbf, 0xb5, 0x91, 0xee, 0xbf,
  0xd5, 0x72, 0x2a, 0xbf, 0x99, 0x1c, 0xa7, 0xbe, 0xb2, 0x6a, 0x38, 0xbf,
  0x73, 0xb7, 0x89, 0xbe, 0xdd, 0x16, 0x47, 0xbf, 0xae, 0x2f, 0x53, 0x3f,
  0xcf, 0x81, 0x35, 0xc0, 0x13, 0x2b, 0x43, 0x3e, 0xff, 0x84, 0xfc, 0x3e,
  0x24, 0x25, 0x08, 0xbe, 0x6c, 0xc9, 0x2e, 0xbf, 0xfc, 0xa1, 0x9b, 0xbd,
  0x3c, 0x14, 0x17, 0xbf, 0x7c, 0xe9, 0x31, 0x3e, 0x79, 0x10, 0x3f, 0xbe,
  0xd4, 0xb3, 0x9a, 0xbf, 0xce, 0x38, 0x4e, 0xbe, 0x65, 0x19, 0x91, 0xbe,
  0x9e, 0xc0, 0x58, 0xbf, 0x74, 0xc7, 0xc6, 0x3e, 0x81, 0x39, 0xc6, 0xbf,
  0x75, 0x0f, 0x00, 0xbf, 0x4d, 0xcc, 0x85, 0xbf, 0x8e, 0xc5, 0x5c, 0xbf,
  0x61, 0x9a, 0xd4, 0xbe, 0x18, 0x1b, 0xc4, 0xbe, 0x5e, 0xbf, 0x64, 0xbe,
  0x66, 0xfc, 0xff, 0xff, 0x04, 0x00, 0x00, 0x00, 0x00, 0x03, 0x00, 0x00,
  0x89, 0x6a, 0xf5, 0x3d, 0x9c, 0x58, 0x02, 0xbe, 0x72, 0x9a, 0x52, 0x3e,
  0xe9, 0xc8, 0xb2, 0xbe, 0xf8, 0x7a, 0x43, 0xbe, 0xc6, 0xbc, 0x80, 0x3e,
  0x9d, 0x1e, 0x4f, 0x3e, 0xc5, 0xe2, 0x26, 0xbe, 0x3f, 0xd3, 0xb3, 0x3e,
  0x54, 0x27, 0xa6, 0x3d, 0x9b, 0x60, 0x03, 0x3e, 0x05, 0x77, 0x00, 0xbe,
  0x93, 0x23, 0x59, 0xbf, 0x7f, 0x16, 0x88, 0xbd, 0x69, 0xb5, 0xaf, 0x3e,
  0x22, 0xe3, 0x8d, 0x3d, 0x5f, 0x3e, 0xc2, 0x3c, 0xb5, 0x9b, 0x5c, 0xbe,
  0xac, 0x25, 0x3d, 0xbe, 0x1e, 0x97, 0x8c, 0xbe, 0x0a, 0xa0, 0xb4, 0x3e,
  0x81, 0xcb, 0x16, 0x3f, 0x12, 0x8f, 0x35, 0xbf, 0x43, 0x78, 0x93, 0x3e,
  0x0e, 0x9a, 0xc9, 0xbd, 0x72, 0x65, 0xbd, 0x3e, 0xc3, 0x18, 0x20, 0xbf,
  0x81, 0xda, 0x37, 0x3c, 0x9a, 0x0e, 0x11, 0x3f, 0x08, 0x96, 0xa3, 0xbd,
  0xca, 0x53, 0x38, 0x3f, 0x8f, 0x76, 0xb5, 0xbe, 0x2b, 0x2b, 0x8f, 0xbe,
  0xce, 0xb5, 0x80, 0xbe, 0x20, 0x84, 0x50, 0x3e, 0x22, 0xfd, 0xa9, 0x3e,
  0xd8, 0x8f, 0x4e, 0x3e, 0x9e, 0xe7, 0x2a, 0x3e, 0xbd, 0x33, 0x0b, 0x3d,
  0xaf, 0xaa, 0x7a, 0x3e, 0x0d, 0x1b, 0x2b, 0xbe, 0xd0, 0x5e, 0x36, 0xbf,
  0x0c, 0x49, 0xa8, 0xbe, 0x1a, 0x99, 0x92, 0x3a, 0xd6, 0xa7, 0xab, 0xbe,
  0x4f, 0xb9, 0x30, 0xbe, 0x7e, 0x9b, 0xaf, 0xbd, 0xcd, 0xa9, 0xbe, 0xbc,
  0x08, 0x86, 0x34, 0xbd, 0x7c, 0x8b, 0xfc, 0xbe, 0xc0, 0x91, 0x02, 0xbd,
  0x85, 0xa7, 0x81, 0x3e, 0x9d, 0x36, 0xd7, 0x3e, 0x29, 0x0d, 0x61, 0xbe,
  0xbd, 0xbb, 0xc3, 0xbd, 0x0f, 0x0a, 0x4b, 0x3e, 0x53, 0xab, 0x6a, 0x3d,
  0xf4, 0xd0, 0x40, 0x3e, 0xe7, 0x5a, 0x53, 0x3f, 0x33, 0xf0, 0xf8, 0xbc,
  0xf7, 0x3f, 0x46, 0x3f, 0xae, 0xea, 0x0f, 0xbb, 0xed, 0xfe, 0x6d, 0xbf,
  0xc5, 0x72, 0x70, 0x3e, 0x3c, 0xb0, 0x16, 0x3f, 0x96, 0xa9, 0xbc, 0x3e,
  0x74, 0xbd, 0xf4, 0xbc, 0xa7, 0x90, 0x71, 0xbe, 0xdb, 0x93, 0xc9, 0x3d,
  0x93, 0xed, 0x69, 0xbe, 0x13, 0x91, 0xaa, 0xbd, 0xe4, 0x8b, 0x22, 0x3e,
  0x2d, 0xaa, 0x58, 0x3f, 0x3c, 0x98, 0x49, 0x3e, 0x57, 0xbf, 0x4c, 0xbe,
  0x4d, 0xe2, 0x1d, 0xbd, 0xdf, 0x06, 0x80, 0xbf, 0xcb, 0xce, 0x02, 0x3e,
  0xdf, 0x54, 0xca, 0xbb, 0x6a, 0xda, 0xa4, 0x3c, 0x50, 0x2b, 0xea, 0xbd,
  0xbf, 0x71, 0xb5, 0x3d, 0xdc, 0x1f, 0x0b, 0xbe, 0xe5, 0xe2, 0x2c, 0x3d,
  0xdd, 0x43, 0x9e, 0x3e, 0x9d, 0xb5, 0x4f, 0x3e, 0x10, 0x42, 0x94, 0xbd,
  0x5d, 0xd4, 0x5d, 0xbd, 0x39, 0x02, 0xf9, 0x3d, 0x26, 0x5c, 0xff, 0xbd,
  0x70, 0x91, 0x19, 0x3b, 0x3c, 0x4e, 0xf0, 0x3d, 0xb3, 0xd9, 0x7a, 0xbe,
  0xc1, 0x68, 0x81, 0xbd, 0x95, 0xe3, 0x7b, 0xbe, 0xa7, 0xf2, 0x29, 0x3e,
  0x2f, 0x09, 0x8d, 0xbe, 0x7f, 0x43, 0x54, 0xbe, 0x2e, 0x57, 0x80, 0x3e,
  0x81, 0x1a, 0x09, 0x3d, 0xd6, 0x29, 0x35, 0x3d, 0xa7, 0x58, 0x03, 0x3e,
  0x53, 0x4a, 0x2d, 0x3e, 0xcd, 0x88, 0xca, 0x3d, 0x61, 0xde, 0x00, 0xbf,
  0x53, 0x2a, 0xb2, 0xbc, 0xb3, 0x95, 0xb9, 0x3c, 0x30, 0xc3, 0xf7, 0x3d,
  0x2b, 0x94, 0x72, 0x3c, 0x8d, 0xce, 0x82, 0x3c, 0x57, 0x3c, 0x1f, 0x3e,
  0x57, 0x42, 0xa4, 0xbd, 0x01, 0x3c, 0x3a, 0xbe, 0x0e, 0xa8, 0x2c, 0xbe,
  0x13, 0xf5, 0x96, 0x3e, 0x1f, 0x10, 0xca, 0xbc, 0xe1, 0x5e, 0x12, 0x3d,
  0x53, 0x2d, 0x93, 0xbe, 0x4f, 0xd2, 0x67, 0x3e, 0x87, 0x05, 0x8d, 0x3e,
  0x0d, 0x97, 0x63, 0xbe, 0xa8, 0x01, 0x56, 0x3d, 0xa4, 0x23, 0xa1, 0x3c,
  0x9a, 0x1c, 0x1e, 0x3d, 0x3d, 0x84, 0x3e, 0x3e, 0x10, 0x25, 0x1d, 0x3d,
  0x9e, 0x41, 0x0b, 0x3e, 0x2b, 0xc9, 0x3a, 0x3b, 0x22, 0x0d, 0x8a, 0xbe,
  0x91, 0xb0, 0x63, 0xbe, 0x69, 0x84, 0xa3, 0xbd, 0x23, 0x8a, 0xc0, 0xbc,
  0x54, 0x03, 0xad, 0x3b, 0x48, 0x49, 0x0d, 0xbe, 0x0f, 0x07, 0x4f, 0x3e,
  0xdf, 0x8f, 0x7f, 0xbe, 0x41, 0xb0, 0x1a, 0x3f, 0xcd, 0xd5, 0xd0, 0x3d,
  0x76, 0xca, 0x2d, 0x3f, 0xbb, 0xc1, 0x96, 0xbc, 0x76, 0xd0, 0xcf, 0xbd,
  0xb0, 0x1b, 0xfc, 0x3d, 0x1e, 0x0b, 0x8e, 0x3e, 0xe9, 0xe9, 0x24, 0xbe,
  0x5c, 0x39, 0xdb, 0xbc, 0x49, 0x8a, 0x8d, 0x3e, 0x4a, 0xe5, 0x52, 0xbe,
  0x16, 0x21, 0x8a, 0x3e, 0x7f, 0x6b, 0x08, 0x3e, 0xe5, 0x2a, 0x39, 0x3e,
  0x8f, 0xc8, 0xa3, 0x3d, 0xdd, 0x35, 0x71, 0xbe, 0xbf, 0x89, 0x35, 0xbe,
  0xd5, 0x01, 0xbc, 0x3d, 0x09, 0xb9, 0x16, 0x3d, 0xaa, 0x6f, 0x20, 0xbe,
  0x24, 0xaa, 0x8c, 0x3e, 0xf4, 0xce, 0x0d, 0x3e, 0xe1, 0x86, 0xbf, 0xb9,
  0xa7, 0x47, 0xed, 0x3d, 0x2d, 0xf7, 0xdd, 0x3e, 0x5e, 0x65, 0x42, 0xbd,
  0x50, 0xf7, 0xb1, 0x3e, 0xd8, 0xd1, 0xcc, 0x3d, 0x6e, 0xe3, 0x01, 0xbd,
  0xc5, 0xdc, 0x64, 0x3e, 0xc9, 0x77, 0x18, 0xbe, 0xd5, 0xcf, 0x79, 0x3e,
  0x02, 0xac, 0x65, 0x3c, 0xc2, 0x3e, 0x24, 0xbd, 0x2b, 0x85, 0xe1, 0x3d,
  0x5b, 0xad, 0x19, 0xbd, 0xdf, 0x69, 0x0d, 0x3f, 0x3c, 0x19, 0x7a, 0x3c,
  0x34, 0xda, 0x1a, 0xbd, 0x4b, 0x10, 0x41, 0xbe, 0x9a, 0x86, 0x69, 0xbd,
  0x96, 0x41, 0xd9, 0xbe, 0xca, 0xfd, 0x91, 0x3e, 0x5a, 0x1b, 0x6d, 0xbe,
  0x16, 0x2f, 0x82, 0x3e, 0x62, 0x78, 0xae, 0xbd, 0xec, 0x1f, 0x36, 0x3d,
  0x26, 0x53, 0x90, 0x3d, 0x4a, 0x1c, 0x2f, 0x3e, 0xa4, 0xd0, 0x47, 0x3e,
  0x67, 0xd3, 0x09, 0xbd, 0xed, 0x25, 0x83, 0x3d, 0x6f, 0xe9, 0x2d, 0xbd,
  0xd9, 0x7e, 0xde, 0xbe, 0xb2, 0xbf, 0x7c, 0x3c, 0xec, 0xfd, 0x87, 0x3d,
  0x72, 0xff, 0xff, 0xff, 0x04, 0x00, 0x00, 0x00, 0x80, 0x00, 0x00, 0x00,
  0xbe, 0xe9, 0x2f, 0xbf, 0x86, 0x2b, 0x16, 0xbe, 0x81, 0xa5, 0x4b, 0xbf,
  0xfb, 0x92, 0x84, 0x3f, 0x14, 0x77, 0x03, 0x40, 0xc2, 0x76, 0x93, 0xbf,
  0x07, 0x75, 0x35, 0xbe, 0xab, 0x44, 0x06, 0xbf, 0xd7, 0xa1, 0x20, 0xbf,
  0x4d, 0xd3, 0x2c, 0xbf, 0xe1, 0x4b, 0x2c, 0xbf, 0x4c, 0x4b, 0xd3, 0x3d,
  0xfc, 0xde, 0x8f, 0xbf, 0x4a, 0xd9, 0x22, 0x3f, 0x3f, 0xda, 0x5b, 0xbe,
  0x0e, 0x92, 0xd8, 0xbd, 0x1b, 0x0d, 0x4a, 0xbf, 0xfa, 0x8c, 0x0c, 0xbf,
  0x52, 0x74, 0x49, 0xbf, 0x19, 0xf1, 0x44, 0xbe, 0x6f, 0x51, 0x42, 0xbf,
  0xa3, 0x00, 0x39, 0xbf, 0x7a, 0x02, 0x5e, 0xc0, 0x7a, 0x46, 0x1a, 0xbf,
  0x1a, 0x54, 0x7d, 0xc0, 0x7b, 0xb4, 0x1e, 0xbf, 0x85, 0x74, 0x49, 0x3f,
  0x68, 0x96, 0x80, 0xbe, 0x40, 0xfb, 0x31, 0xbf, 0x75, 0x2c, 0x8f, 0xbf,
  0x0d, 0xb1, 0x61, 0xbf, 0xce, 0x3e, 0x97, 0xbf, 0x00, 0x00, 0x06, 0x00,
  0x08, 0x00, 0x04, 0x00, 0x06, 0x00, 0x00, 0x00, 0x04, 0x00, 0x00, 0x00,
  0x18, 0x00, 0x00, 0x00, 0x42, 0xd7, 0x48, 0x3f, 0x81, 0xc3, 0x14, 0xbf,
  0x02, 0x68, 0x27, 0x3e, 0x55, 0x80, 0x2e, 0xbf, 0x10, 0xdf, 0x02, 0xbf,
  0xf7, 0xb3, 0x18, 0xbf, 0xa8, 0xfa, 0xff, 0xff, 0xac, 0xfa, 0xff, 0xff,
  0x0f, 0x00, 0x00, 0x00, 0x4d, 0x4c, 0x49, 0x52, 0x20, 0x43, 0x6f, 0x6e,
  0x76, 0x65, 0x72, 0x74, 0x65, 0x64, 0x2e, 0x00, 0x01, 0x00, 0x00, 0x00,
  0x14, 0x00, 0x00, 0x00, 0x00, 0x00, 0x0e, 0x00, 0x18, 0x00, 0x14, 0x00,
  0x10, 0x00, 0x0c, 0x00, 0x08, 0x00, 0x04, 0x00, 0x0e, 0x00, 0x00, 0x00,
  0x14, 0x00, 0x00, 0x00, 0x1c, 0x00, 0x00, 0x00, 0xec, 0x00, 0x00, 0x00,
  0xf0, 0x00, 0x00, 0x00, 0xf4, 0x00, 0x00, 0x00, 0x04, 0x00, 0x00, 0x00,
  0x6d, 0x61, 0x69, 0x6e, 0x00, 0x00, 0x00, 0x00, 0x03, 0x00, 0x00, 0x00,
  0x90, 0x00, 0x00, 0x00, 0x48, 0x00, 0x00, 0x00, 0x04, 0x00, 0x00, 0x00,
  0x8a, 0xff, 0xff, 0xff, 0x1c, 0x00, 0x00, 0x00, 0x00, 0x00, 0x00, 0x08,
  0x1c, 0x00, 0x00, 0x00, 0x20, 0x00, 0x00, 0x00, 0x00, 0x00, 0x0a, 0x00,
  0x08, 0x00, 0x00, 0x00, 0x00, 0x00, 0x07, 0x00, 0x0a, 0x00, 0x00, 0x00,
  0x00, 0x00, 0x00, 0x01, 0x01, 0x00, 0x00, 0x00, 0x09, 0x00, 0x00, 0x00,
  0x03, 0x00, 0x00, 0x00, 0x08, 0x00, 0x00, 0x00, 0x03, 0x00, 0x00, 0x00,
  0x01, 0x00, 0x00, 0x00, 0xca, 0xff, 0xff, 0xff, 0x10, 0x00, 0x00, 0x00,
  0x00, 0x00, 0x00, 0x08, 0x10, 0x00, 0x00, 0x00, 0x14, 0x00, 0x00, 0x00,
  0xba, 0xff, 0xff, 0xff, 0x00, 0x00, 0x01, 0x01, 0x01, 0x00, 0x00, 0x00,
  0x08, 0x00, 0x00, 0x00, 0x03, 0x00, 0x00, 0x00, 0x07, 0x00, 0x00, 0x00,
  0x04, 0x00, 0x00, 0x00, 0x02, 0x00, 0x00, 0x00, 0x00, 0x00, 0x0e, 0x00,
  0x16, 0x00, 0x00, 0x00, 0x10, 0x00, 0x0c, 0x00, 0x0b, 0x00, 0x04, 0x00,
  0x0e, 0x00, 0x00, 0x00, 0x1c, 0x00, 0x00, 0x00, 0x00, 0x00, 0x00, 0x08,
  0x1c, 0x00, 0x00, 0x00, 0x20, 0x00, 0x00, 0x00, 0x00, 0x00, 0x0a, 0x00,
  0x08, 0x00, 0x07, 0x00, 0x00, 0x00, 0x06, 0x00, 0x0a, 0x00, 0x00, 0x00,
  0x00, 0x00, 0x01, 0x01, 0x01, 0x00, 0x00, 0x00, 0x07, 0x00, 0x00, 0x00,
  0x03, 0x00, 0x00, 0x00, 0x00, 0x00, 0x00, 0x00, 0x05, 0x00, 0x00, 0x00,
  0x06, 0x00, 0x00, 0x00, 0x01, 0x00, 0x00, 0x00, 0x09, 0x00, 0x00, 0x00,
  0x01, 0x00, 0x00, 0x00, 0x00, 0x00, 0x00, 0x00, 0x0a, 0x00, 0x00, 0x00,
  0x00, 0x04, 0x00, 0x00, 0x84, 0x03, 0x00, 0x00, 0x08, 0x03, 0x00, 0x00,
  0x9c, 0x02, 0x00, 0x00, 0x34, 0x02, 0x00, 0x00, 0xcc, 0x01, 0x00, 0x00,
  0x50, 0x01, 0x00, 0x00, 0xd0, 0x00, 0x00, 0x00, 0x50, 0x00, 0x00, 0x00,
  0x04, 0x00, 0x00, 0x00, 0x3e, 0xfc, 0xff, 0xff, 0x00, 0x00, 0x00, 0x01,
  0x10, 0x00, 0x00, 0x00, 0x10, 0x00, 0x00, 0x00, 0x0a, 0x00, 0x00, 0x00,
  0x28, 0x00, 0x00, 0x00, 0x28, 0xfc, 0xff, 0xff, 0x19, 0x00, 0x00, 0x00,
  0x53, 0x74, 0x61, 0x74, 0x65, 0x66, 0x75, 0x6c, 0x50, 0x61, 0x72, 0x74,
  0x69, 0x74, 0x69, 0x6f, 0x6e, 0x65, 0x64, 0x43, 0x61, 0x6c, 0x6c, 0x3a,
  0x30, 0x00, 0x00, 0x00, 0x02, 0x00, 0x00, 0x00, 0x01, 0x00, 0x00, 0x00,
  0x06, 0x00, 0x00, 0x00, 0x86, 0xfc, 0xff, 0xff, 0x00, 0x00, 0x00, 0x01,
  0x10, 0x00, 0x00, 0x00, 0x10, 0x00, 0x00, 0x00, 0x09, 0x00, 0x00, 0x00,
  0x5c, 0x00, 0x00, 0x00, 0x70, 0xfc, 0xff, 0xff, 0x4c, 0x00, 0x00, 0x00,
  0x5f, 0x5f, 0x6d, 0x61, 0x69, 0x6e, 0x5f, 0x5f, 0x2e, 0x65, 0x32, 0x65,
  0x4e, 0x65, 0x74, 0x77, 0x6f, 0x72, 0x6b, 0x2f, 0x74, 0x6f, 0x72, 0x63,
  0x68, 0x2e, 0x6e, 0x6e, 0x2e, 0x6d, 0x6f, 0x64, 0x75, 0x6c, 0x65, 0x73,
  0x2e, 0x6c, 0x69, 0x6e, 0x65, 0x61, 0x72, 0x2e, 0x4c, 0x69, 0x6e, 0x65,
  0x61, 0x72, 0x5f, 0x66, 0x63, 0x32, 0x3b, 0x3b, 0x5f, 0x5f, 0x6d, 0x61,
  0x69, 0x6e, 0x5f, 0x5f, 0x2e, 0x65, 0x32, 0x65, 0x4e, 0x65, 0x74, 0x77,
  0x6f, 0x72, 0x6b, 0x3b, 0x00, 0x00, 0x00, 0x00, 0x02, 0x00, 0x00, 0x00,
  0x01, 0x00, 0x00, 0x00, 0x20, 0x00, 0x00, 0x00, 0x02, 0xfd, 0xff, 0xff,
  0x00, 0x00, 0x00, 0x01, 0x10, 0x00, 0x00, 0x00, 0x10, 0x00, 0x00, 0x00,
  0x08, 0x00, 0x00, 0x00, 0x5c, 0x00, 0x00, 0x00, 0xec, 0xfc, 0xff, 0xff,
  0x4c, 0x00, 0x00, 0x00, 0x5f, 0x5f, 0x6d, 0x61, 0x69, 0x6e, 0x5f, 0x5f,
  0x2e, 0x65, 0x32, 0x65, 0x4e, 0x65, 0x74, 0x77, 0x6f, 0x72, 0x6b, 0x2f,
  0x74, 0x6f, 0x72, 0x63, 0x68, 0x2e, 0x6e, 0x6e, 0x2e, 0x6d, 0x6f, 0x64,
  0x75, 0x6c, 0x65, 0x73, 0x2e, 0x6c, 0x69, 0x6e, 0x65, 0x61, 0x72, 0x2e,
  0x4c, 0x69, 0x6e, 0x65, 0x61, 0x72, 0x5f, 0x66, 0x63, 0x31, 0x3b, 0x3b,
  0x5f, 0x5f, 0x6d, 0x61, 0x69, 0x6e, 0x5f, 0x5f, 0x2e, 0x65, 0x32, 0x65,
  0x4e, 0x65, 0x74, 0x77, 0x6f, 0x72, 0x6b, 0x3b, 0x00, 0x00, 0x00, 0x00,
  0x02, 0x00, 0x00, 0x00, 0x01, 0x00, 0x00, 0x00, 0x40, 0x00, 0x00, 0x00,
  0x7e, 0xfd, 0xff, 0xff, 0x00, 0x00, 0x00, 0x01, 0x10, 0x00, 0x00, 0x00,
  0x10, 0x00, 0x00, 0x00, 0x07, 0x00, 0x00, 0x00, 0x5c, 0x00, 0x00, 0x00,
  0x68, 0xfd, 0xff, 0xff, 0x4c, 0x00, 0x00, 0x00, 0x5f, 0x5f, 0x6d, 0x61,
  0x69, 0x6e, 0x5f, 0x5f, 0x2e, 0x65, 0x32, 0x65, 0x4e, 0x65, 0x74, 0x77,
  0x6f, 0x72, 0x6b, 0x3b, 0x3b, 0x5f, 0x5f, 0x6d, 0x61, 0x69, 0x6e, 0x5f,
  0x5f, 0x2e, 0x65, 0x32, 0x65, 0x4e, 0x65, 0x74, 0x77, 0x6f, 0x72, 0x6b,
  0x2f, 0x74, 0x6f, 0x72, 0x63, 0x68, 0x2e, 0x6e, 0x6e, 0x2e, 0x6d, 0x6f,
  0x64, 0x75, 0x6c, 0x65, 0x73, 0x2e, 0x6c, 0x69, 0x6e, 0x65, 0x61, 0x72,
  0x2e, 0x4c, 0x69, 0x6e, 0x65, 0x61, 0x72, 0x5f, 0x66, 0x63, 0x31, 0x3b,
  0x00, 0x00, 0x00, 0x00, 0x01, 0x00, 0x00, 0x00, 0x40, 0x00, 0x00, 0x00,
  0xf6, 0xfd, 0xff, 0xff, 0x00, 0x00, 0x00, 0x01, 0x10, 0x00, 0x00, 0x00,
  0x10, 0x00, 0x00, 0x00, 0x06, 0x00, 0x00, 0x00, 0x44, 0x00, 0x00, 0x00,
  0xe0, 0xfd, 0xff, 0xff, 0x37, 0x00, 0x00, 0x00, 0x5f, 0x5f, 0x6d, 0x61,
  0x69, 0x6e, 0x5f, 0x5f, 0x2e, 0x65, 0x32, 0x65, 0x4e, 0x65, 0x74, 0x77,
  0x6f, 0x72, 0x6b, 0x2f, 0x74, 0x6f, 0x72, 0x63, 0x68, 0x2e, 0x6e, 0x6e,
  0x2e, 0x6d, 0x6f, 0x64, 0x75, 0x6c, 0x65, 0x73, 0x2e, 0x6c, 0x69, 0x6e,
  0x65, 0x61, 0x72, 0x2e, 0x4c, 0x69, 0x6e, 0x65, 0x61, 0x72, 0x5f, 0x66,
  0x63, 0x31, 0x3b, 0x00, 0x02, 0x00, 0x00, 0x00, 0x40, 0x00, 0x00, 0x00,
  0x0f, 0x00, 0x00, 0x00, 0x5a, 0xfe, 0xff, 0xff, 0x00, 0x00, 0x00, 0x01,
  0x10, 0x00, 0x00, 0x00, 0x10, 0x00, 0x00, 0x00, 0x05, 0x00, 0x00, 0x00,
  0x44, 0x00, 0x00, 0x00, 0x44, 0xfe, 0xff, 0xff, 0x37, 0x00, 0x00, 0x00,
  0x5f, 0x5f, 0x6d, 0x61, 0x69, 0x6e, 0x5f, 0x5f, 0x2e, 0x65, 0x32, 0x65,
  0x4e, 0x65, 0x74, 0x77, 0x6f, 0x72, 0x6b, 0x2f, 0x74, 0x6f, 0x72, 0x63,
  0x68, 0x2e, 0x6e, 0x6e, 0x2e, 0x6d, 0x6f, 0x64, 0x75, 0x6c, 0x65, 0x73,
  0x2e, 0x6c, 0x69, 0x6e, 0x65, 0x61, 0x72, 0x2e, 0x4c, 0x69, 0x6e, 0x65,
  0x61, 0x72, 0x5f, 0x66, 0x63, 0x32, 0x3b, 0x00, 0x02, 0x00, 0x00, 0x00,
  0x20, 0x00, 0x00, 0x00, 0x40, 0x00, 0x00, 0x00, 0xbe, 0xfe, 0xff, 0xff,
  0x00, 0x00, 0x00, 0x01, 0x10, 0x00, 0x00, 0x00, 0x10, 0x00, 0x00, 0x00,
  0x04, 0x00, 0x00, 0x00, 0x48, 0x00, 0x00, 0x00, 0xa8, 0xfe, 0xff, 0xff,
  0x38, 0x00, 0x00, 0x00, 0x5f, 0x5f, 0x6d, 0x61, 0x69, 0x6e, 0x5f, 0x5f,
  0x2e, 0x65, 0x32, 0x65, 0x4e, 0x65, 0x74, 0x77, 0x6f, 0x72, 0x6b, 0x2f,
  0x74, 0x6f, 0x72, 0x63, 0x68, 0x2e, 0x6e, 0x6e, 0x2e, 0x6d, 0x6f, 0x64,
  0x75, 0x6c, 0x65, 0x73, 0x2e, 0x6c, 0x69, 0x6e, 0x65, 0x61, 0x72, 0x2e,
  0x4c, 0x69, 0x6e, 0x65, 0x61, 0x72, 0x5f, 0x66, 0x63, 0x33, 0x3b, 0x31,
  0x00, 0x00, 0x00, 0x00, 0x02, 0x00, 0x00, 0x00, 0x06, 0x00, 0x00, 0x00,
  0x20, 0x00, 0x00, 0x00, 0x26, 0xff, 0xff, 0xff, 0x00, 0x00, 0x00, 0x01,
  0x10, 0x00, 0x00, 0x00, 0x10, 0x00, 0x00, 0x00, 0x03, 0x00, 0x00, 0x00,
  0x5c, 0x00, 0x00, 0x00, 0x10, 0xff, 0xff, 0xff, 0x4c, 0x00, 0x00, 0x00,
  0x5f, 0x5f, 0x6d, 0x61, 0x69, 0x6e, 0x5f, 0x5f, 0x2e, 0x65, 0x32, 0x65,
  0x4e, 0x65, 0x74, 0x77, 0x6f, 0x72, 0x6b, 0x3b, 0x3b, 0x5f, 0x5f, 0x6d,
  0x61, 0x69, 0x6e, 0x5f, 0x5f, 0x2e, 0x65, 0x32, 0x65, 0x4e, 0x65, 0x74,
  0x77, 0x6f, 0x72, 0x6b, 0x2f, 0x74, 0x6f, 0x72, 0x63, 0x68, 0x2e, 0x6e,
  0x6e, 0x2e, 0x6d, 0x6f, 0x64, 0x75, 0x6c, 0x65, 0x73, 0x2e, 0x6c, 0x69,
  0x6e, 0x65, 0x61, 0x72, 0x2e, 0x4c, 0x69, 0x6e, 0x65, 0x61, 0x72, 0x5f,
  0x66, 0x63, 0x32, 0x3b, 0x00, 0x00, 0x00, 0x00, 0x01, 0x00, 0x00, 0x00,
  0x20, 0x00, 0x00, 0x00, 0x9e, 0xff, 0xff, 0xff, 0x00, 0x00, 0x00, 0x01,
  0x10, 0x00, 0x00, 0x00, 0x10, 0x00, 0x00, 0x00, 0x02, 0x00, 0x00, 0x00,
  0x44, 0x00, 0x00, 0x00, 0x88, 0xff, 0xff, 0xff, 0x37, 0x00, 0x00, 0x00,
  0x5f, 0x5f, 0x6d, 0x61, 0x69, 0x6e, 0x5f, 0x5f, 0x2e, 0x65, 0x32, 0x65,
  0x4e, 0x65, 0x74, 0x77, 0x6f, 0x72, 0x6b, 0x2f, 0x74, 0x6f, 0x72, 0x63,
  0x68, 0x2e, 0x6e, 0x6e, 0x2e, 0x6d, 0x6f, 0x64, 0x75, 0x6c, 0x65, 0x73,
  0x2e, 0x6c, 0x69, 0x6e, 0x65, 0x61, 0x72, 0x2e, 0x4c, 0x69, 0x6e, 0x65,
  0x61, 0x72, 0x5f, 0x66, 0x63, 0x33, 0x3b, 0x00, 0x01, 0x00, 0x00, 0x00,
  0x06, 0x00, 0x00, 0x00, 0x00, 0x00, 0x16, 0x00, 0x18, 0x00, 0x14, 0x00,
  0x00, 0x00, 0x10, 0x00, 0x0c, 0x00, 0x08, 0x00, 0x00, 0x00, 0x00, 0x00,
  0x00, 0x00, 0x07, 0x00, 0x16, 0x00, 0x00, 0x00, 0x00, 0x00, 0x00, 0x01,
  0x14, 0x00, 0x00, 0x00, 0x14, 0x00, 0x00, 0x00, 0x01, 0x00, 0x00, 0x00,
  0x2c, 0x00, 0x00, 0x00, 0x04, 0x00, 0x04, 0x00, 0x04, 0x00, 0x00, 0x00,
  0x18, 0x00, 0x00, 0x00, 0x73, 0x65, 0x72, 0x76, 0x69, 0x6e, 0x67, 0x5f,
  0x64, 0x65, 0x66, 0x61, 0x75, 0x6c, 0x74, 0x5f, 0x61, 0x72, 0x67, 0x73,
  0x5f, 0x30, 0x3a, 0x30, 0x00, 0x00, 0x00, 0x00, 0x02, 0x00, 0x00, 0x00,
  0x01, 0x00, 0x00, 0x00, 0x0f, 0x00, 0x00, 0x00, 0x01, 0x00, 0x00, 0x00,
  0x10, 0x00, 0x00, 0x00, 0x0c, 0x00, 0x10, 0x00, 0x0f, 0x00, 0x00, 0x00,
  0x08, 0x00, 0x04, 0x00, 0x0c, 0x00, 0x00, 0x00, 0x09, 0x00, 0x00, 0x00,
  0x05, 0x00, 0x00, 0x00, 0x00, 0x00, 0x00, 0x09
};
unsigned int gen_ppo_tflite_len = 15236;
